
/**
  ******************************************************************************
  * @file    model_data.c
  * @author  AST Embedded Analytics Research Platform
  * @date    Mon Jan 16 21:43:38 2023
  * @brief   AI Tool Automatic Code Generator for Embedded NN computing
  ******************************************************************************
  * @attention
  *
  * Copyright (c) 2021 STMicroelectronics.
  * All rights reserved.
  *
  * This software is licensed under terms that can be found in the LICENSE file
  * in the root directory of this software component.
  * If no LICENSE file comes with this software, it is provided AS-IS.
  ******************************************************************************
  */
#include "model_data.h"
#include "ai_platform_interface.h"

AI_API_DECLARE_BEGIN

AI_ALIGNED(32)
const ai_u64 s_model_model_weights_array_u64[ 11337 ] = {
  0x3f09ba2cbf899a27U, 0xbe64f091be3fed9bU, 0xbf2898ce3e97acc3U, 0x3ecf82ac3f5cdb9dU,
  0xbf344eebbeb6ef69U, 0xbed5c5f0be8c2f02U, 0xbf8710213f6a9bc0U, 0x3d2930ed3e99d127U,
  0x3e69548ebf45e667U, 0x3f2535b8bf0611f2U, 0x3faf9780bf6800a2U, 0xbd868367bf17ede3U,
  0xbf657334beedba2cU, 0xbe2fdfe23f3a671bU, 0xbf8cdeb33f777ef5U, 0xbe6b8813bf7abb1fU,
  0x3f3557adbf5692ecU, 0xbf9dd8e03f204391U, 0x3d24f19b3f57db85U, 0x3f2fc2ed3f290611U,
  0xbf73a57b3f3e2eeeU, 0xbeb0524c3de00b3bU, 0xbf4285b5bf37d184U, 0x3e874ab6bec8b651U,
  0x3de8d1493f500d3fU, 0x3f2278b23c62c606U, 0xbea9e382bee1b7f8U, 0xbf4940b5bdaa83f7U,
  0xbedeb5e23f12533bU, 0xbea52f2abf27530aU, 0xbf6135923f1d7c48U, 0x3b3b864abefc8a10U,
  0x3e864238be6d6381U, 0xbecfaddc3f60b2beU, 0xbec4585bbeb019aaU, 0x3db3e61b3f3ae9ffU,
  0x3e617b5f3e549d20U, 0x3e1f1ab4be3ef294U, 0xbe65c8303f2a1b9aU, 0xbf02966d3f1c11b6U,
  0x3f1216933eafbb8aU, 0xbf58f4353f4f3b7dU, 0x3da3af76be63defcU, 0x3ed03504beb84717U,
  0x3eee60443d05b005U, 0xbefcaf793f2a9923U, 0x3f6563fc3dcc9752U, 0x3f3ccac1bf247e0dU,
  0xbf310cf33f341c2eU, 0xbe86be903edbb4f0U, 0xbf2c0aecbea27b1aU, 0x3ea41160bec658b7U,
  0xbe28c6293e2e93ddU, 0x3f1cd7c13e798812U, 0xbefbeb75be7b2e41U, 0xbefcb0a8bebf1839U,
  0xbf47c5e03d9bcea9U, 0xbe93d9b43f291c31U, 0x3e88ef603f345af6U, 0x3f00be253e84a951U,
  0x3f2cbbe83f203a18U, 0xbf0606283eb47f3bU, 0x3e88297e3e8dd960U, 0x3f89bd273e9ab194U,
  0x3f292250be2570feU, 0x3d9e1ab13f5d202cU, 0xbe34dbd53e513e8aU, 0x3ef1f6673f4207d3U,
  0x3fa81ccfbe1eeaa7U, 0xbec151a4bf9722b2U, 0x3f262cc53f1d5054U, 0x3fab857bbe164894U,
  0xbf1fbc05bf1d798bU, 0xbf2f08a63e45e029U, 0xbd847503be851a30U, 0x3ec68f293eae8be6U,
  0x3f7b787c3f80272fU, 0x3cb82d81bf111f85U, 0xbf8346973f37e9efU, 0x3f6b442e3eee18b6U,
  0xbf24688dbeb69b5cU, 0xbf642dc83f1642f1U, 0x3ee304b33e434d80U, 0x3f3a5476bf89890eU,
  0x3e8f3afbbf73faafU, 0xbdda5b7c3f8b40abU, 0x3e617b363f1d899eU, 0xbf3dccefbefb82e3U,
  0x3fa92b3a3fb6a7acU, 0x3f90034a3df38d96U, 0x3e3cd0a83ee6e657U, 0xbf57ab7dbee4aea3U,
  0xbf701268bf08c63eU, 0xbeab4c40becfb607U, 0x3f0a89bb3e954408U, 0xbf63ef053f1b5217U,
  0x3e2d5c25beae7c2bU, 0xbe604dcf3fcbd6a8U, 0xbf4f363a3d29dec7U, 0x3f974cfa3f71c0c8U,
  0xbf5fbac13ed34d04U, 0x3f581e373e19cca1U, 0x3fb259cabf0c135dU, 0x3e8da4c7bfbd65b7U,
  0xbf817266bec828ffU, 0xbfa7d6d2bcd655aaU, 0xbf9cdbb23f45fc7dU, 0x3e93cab13e5536b2U,
  0xbf2a62f43cbb57d4U, 0x3ef8549a3e2afc98U, 0xbeb3e4dcbec7a1d4U, 0x3cf648eb3d0cf0b3U,
  0xbed510e23d870ca9U, 0xbe0f575a3eedb4eeU, 0xbf05c408bee1a1bdU, 0xbe5ac7f13d1563a7U,
  0xbeb997acbf122199U, 0xbf01db6fbf1f7347U, 0xbd9e96c03e833723U, 0xbe6cb4b03f020148U,
  0xbe1e1a24bf133b29U, 0xbca5ddd63f0fcb6cU, 0x3ed814a63d9e0c2fU, 0xbe8a5a753e80c50eU,
  0xbe8bcaab3f14bdd8U, 0x3d233bf9bf0c6d8bU, 0xbe236d7d3eac448cU, 0x3e0a9069bed7401aU,
  0x3efd451d3ee18bc3U, 0x3c807ef2bf2af213U, 0x3e8fc996bda13e57U, 0x3f1ee3a0be30f3e7U,
  0x3ea4dec93d3a7de1U, 0x3ebf9635bf20ffe5U, 0x3e06b8703ea62542U, 0x3f345af8be8aeb00U,
  0xbe75ee4ebf72e76aU, 0xbf0cb9f8bf6012c5U, 0xbf2038bb3e16b646U, 0x3f8f5d93be1b4601U,
  0xbf635e053f44b07aU, 0xbe7c7327be87f2b1U, 0x3e9ea3843f589233U, 0xbf36f88ebdfeb712U,
  0x3e32b4f1bf1b2f67U, 0x3ea3cabc3f7fbefaU, 0x3eae0486bea66dc9U, 0x3f5ee79e3f1837d9U,
  0xbf672a5b3f42a308U, 0x3f8e1f5c3f47ac79U, 0xbf842c48be909bb8U, 0xbf2fee7d3df5c7c9U,
  0x3e9d56e33e01eb57U, 0x3f888d673d8b3f9eU, 0xbf50366ebf3abe44U, 0xbf2ce710beff75e5U,
  0x3e7bfd963e9a6c2eU, 0x3f1dfd353bb7037dU, 0x3f88e7153daf56d8U, 0x3edc98debe8469c7U,
  0xbf12b5a6bf9181b0U, 0x3f3e18513e8933beU, 0xbeb121e8bec6b18fU, 0x3f152d853ddab39aU,
  0xbe8196353e0129e0U, 0x3f33fcf63f0fa405U, 0x3f572b31be920c40U, 0x3db64a343f0dc97dU,
  0x3e746b43be969cdbU, 0x3eab11853eb2e017U, 0xbf6d3520be0bd1e6U, 0x3f2742283f395c1fU,
  0xbf7f00a7be5c4bb2U, 0xbe912ca23f0e9c80U, 0x3f0bb6ed3eec59a5U, 0x3f13296a3ea23152U,
  0xbe2a767f3f028382U, 0xbd8864003f584397U, 0x3e76e2263e347af9U, 0xbf48bdf0bf08527bU,
  0x3f4f9db43f0b08e1U, 0x3e9da93f3de20b30U, 0xbda21d4a3de4b069U, 0xbed706f6bf169526U,
  0x3f37f65a3dc8357bU, 0x3e122d40bebaeab4U, 0x3ea2bee03f16064aU, 0x3e9b81033f2cdc7dU,
  0x3f1c1207be1b7ff1U, 0x3ef1b0013d3ace2aU, 0x3ee9fef6becc61c6U, 0xbd2cbea63f19e3d9U,
  0x3ed2ad483f08a770U, 0xbea6e90fbebbcf87U, 0x3eb0382d3e29f531U, 0x3ee086343f001b36U,
  0x3e39d7a7be27116bU, 0x3f04e3e4bb5520cfU, 0x3f050e833e9e3001U, 0xbd215672be612479U,
  0x3ecdec4bbe3fd4d9U, 0x3d786e0abe3b54d7U, 0x3e8f1f99be3c9741U, 0x3e2f04653dcbdf09U,
  0xbe901efebe5ffeb7U, 0x3d9931bb3efd5d09U, 0x3eecddb93f0c90c8U, 0xbe009c883eb11c03U,
  0xbf0b4922be0f5146U, 0x3edba21c3e4c7d7bU, 0x3f39a2f03e3eace3U, 0xbf17ddf3beed90cfU,
  0xbe909d63bf007957U, 0xbebe024e3ee52f04U, 0xbba418713ea1a4c5U, 0xbd4a547f3e914fa1U,
  0x3e8fccb83f617ba4U, 0xbf33936c3e7e7123U, 0x3f9a4faabedac0b4U, 0x3f555d1bbdf6f4b7U,
  0xbdc617b43ef1471cU, 0x3f76215b3ec1a754U, 0xbe1770babf9e831dU, 0x3f0bebe03efead3bU,
  0xbe85919bbd2c451cU, 0xbfa04a393f45b855U, 0xbf25f86b3ef2a0bbU, 0x3e66bdacbcdad340U,
  0x3f3c2adf3f2ec2a0U, 0x3f72195b3ebe524bU, 0xbf6767f7be8afa2aU, 0x3f4b41633dd21509U,
  0x3f1afb13bf8d5c5cU, 0x3e9db1aabe314e44U, 0x3f4cbc90be951440U, 0xbeeba3d9bea597c4U,
  0xbec0edf53f0e5e47U, 0x3d6fb72ebef778aeU, 0x3f61fb4cbeb7771eU, 0xbf37a71c3e90fdcaU,
  0x3f322f8b3f06e9bcU, 0xbe02a3f8bf93aa42U, 0x3ea92fafbe6027c7U, 0x3edd13ff3f2a38d3U,
  0x3e75fbb83f54748cU, 0xbef4848fbe8370abU, 0x3f4abecebf0d1ec0U, 0x3f4baeb4bc4eb355U,
  0x3e4c19323eec3e68U, 0xbebff697bf06a35cU, 0x3edbd786bf0be84bU, 0x3eeb15b5bdfb052fU,
  0x3f00d186beb047f3U, 0x3ed058b33eccc12bU, 0xbe9494c3bf4e8661U, 0xbf1912dbbf4466d2U,
  0x3eadb306bf1b8507U, 0xbf1ab75b3f5219e9U, 0xbef2c9bcbee51f5eU, 0x3ed0fcf5be13cdacU,
  0xbe087b5dbe2391a5U, 0x3eed20403efa8306U, 0xbf32b1c23f2df167U, 0x3f253f41bf1fd4c7U,
  0xbf2a4cadbdcfad44U, 0x3ec7a8c03e9a2ca9U, 0x3f6b48fe3f022b6cU, 0xbd41fcfa3e8401ffU,
  0xbebb1c97bef89b15U, 0x3eff63d5bf4d9fadU, 0xbf2bce15be9373f6U, 0xbf642c38be1523bcU,
  0xbf182bcf3ca365ccU, 0x3f097691bf54dbb6U, 0x3ef731793f3ce1b7U, 0x3f24c517bea177b0U,
  0xbf3bc2ec3e490fd2U, 0xbf6bc037beb46620U, 0xbd3188783d3ab4b2U, 0xbdbd6bc03f42ea45U,
  0xbedcd1d0bf3b4e7dU, 0x3f1d7069beba0f23U, 0x3e927f54bef8b896U, 0xbee30e92bf70cd6aU,
  0x3f85e2ad3f1780e5U, 0xbead93883e29cbe7U, 0xbe11396d3e82eb63U, 0xbec55614be35876bU,
  0x3f5b5e21bf56e314U, 0x3fa7ee553ed447f5U, 0xbf3069a2bf8e3aecU, 0x3e752427bdd31afeU,
  0x3e74ca803f3c5b60U, 0x3f37a1203f297118U, 0xbe463cfebfa31951U, 0x3f22e156be38be82U,
  0x3f59a9283edf0201U, 0xbf1d1e303f327479U, 0x3ee7aa8fbea0eedcU, 0x3ef2cc35be43e0a7U,
  0xbf4f27983e774cfdU, 0x3dd8ee37be188e00U, 0x3e8983ba3e9087afU, 0xbe39a94c3f12a215U,
  0xbe5c7e1e3f8144a7U, 0x3e6b0f47bf5d789fU, 0x3f38a4d8bf38e29eU, 0x3f8b460b3f076dbcU,
  0x3e1b0ff8be778ab3U, 0x3eae6ba2be07c778U, 0x3f44f83c3f2b45f9U, 0x3f4f00cb3e5b46b8U,
  0x3f46f40cbe6865abU, 0x3f89b3e73edeb95cU, 0x3d986ac73e250728U, 0xbf4216f63ef9d939U,
  0x3d9ceae2bdd6b20eU, 0x3ed103b5bee0b641U, 0x3e993aa4be8863ffU, 0xbf03edc53ca2cd8aU,
  0xbeb806653f0d659aU, 0xbefaf6813f4aa7b2U, 0xbe565d52bf1f505bU, 0x3c173f9e3f034027U,
  0xbf04dee14008c076U, 0xbf631038c07f02b2U, 0xbf3aa76d3f80073bU, 0xc01e2951c0824f50U,
  0xbf384ac9c012b48dU, 0xc0551c1a3edb8e58U, 0x3d7dfa10bdcae309U, 0xbc31fcb63da93bf8U,
  0xbdf93979be4a38e3U, 0xbe13697fbe892864U, 0xbe45de2cbe106d13U, 0x3e5541713e57fb13U,
  0x3e9c4e943e6fd27cU, 0x3d0914a2be2c6921U, 0xbe5f14c2be7235cdU, 0xbd2ea8adbc8c0dc9U,
  0x3deb4fa7be974ed1U, 0xbccfc6ffbe85da42U, 0x3e0730a8be064e04U, 0xbc88d3543e90067eU,
  0xbe2181a0be07afc0U, 0x3e9b1b06be196f4fU, 0x3d9d55543dae7c18U, 0xbc710c9d3cae8cddU,
  0xbe74323bbe02d724U, 0x3dea33e03e477a57U, 0xbe554fa0bc6f73d7U, 0x3e0ad3883d896408U,
  0x3c1ef66abe7758a0U, 0xbe81ea21be6db49eU, 0xbd85332dbe5239b6U, 0xbea9297bbde0144dU,
  0x3d8d84db3d855ac5U, 0xbdbf939c3decd542U, 0x3e0826bbbca78928U, 0xbe32739e3dfd53f3U,
  0x3d3c6c6fbe75112cU, 0xbeb6e54abda05390U, 0xbe3239163dd76952U, 0x3e184fd83dd3645fU,
  0xbe96d927bdd7fea7U, 0x3e93fb723e872daaU, 0x3d711b8a3c4f1382U, 0xbe5bc3173dff1607U,
  0x3e4bced6be9abc12U, 0xbe63674dbd3ab605U, 0xbc2af01f3ec71057U, 0x3e514f6bbb481542U,
  0x3e106ccd3e2bdf29U, 0xbdf5071e3dd2c5d8U, 0xbe8713ecbcbbc66dU, 0x3e08df8bbe235375U,
  0xbd3213d73e3cf350U, 0xbe1bcf3a3d0a35b5U, 0x3dfe43773e01b73cU, 0xbec471e0bd9ac5a0U,
  0xbd14cd473e3e02dfU, 0xbe5d3edbbda6dc7fU, 0x3e4f2beb3e0b8ed7U, 0x3e0908f53e441fb6U,
  0xbe3991483d951e3dU, 0x3e8016d63dde0a77U, 0xbade863bbe1f7bd0U, 0x3e19b1553e33f77bU,
  0xbdedf8683ea8e35eU, 0xbe2410e33e4d252cU, 0xbe616b573ebd3ed3U, 0xbe3d37a4be830841U,
  0x3e66efe23dbd09eeU, 0x3df79ebd3c5af878U, 0x3d3e3dbc3eacda36U, 0xbe7d5bab3e0f4305U,
  0xbdd0097dbe01f820U, 0x3e6c96e83dfa8106U, 0xbd0669523e0e7749U, 0xbe2a41b23bf57495U,
  0xbd9393533c156d97U, 0xbb8a6cd5be2db49bU, 0x3c8ea6ce3d4483e3U, 0xbc866a2fbea175daU,
  0x3e16328cbd853013U, 0xbcfe62b53e984989U, 0x3d6399ad3e3c3086U, 0xbdc4d487bd947695U,
  0x3d3934413c77eaa9U, 0xbd37149e3e05eefcU, 0x3e0ccb11bd8de3d6U, 0x3e035e0ebe06b2deU,
  0xbe82a6d63d5ad319U, 0x3dcd7d6dbe814a1bU, 0x3e8b84ffbcdefc39U, 0x3e12fc9c3dc9c706U,
  0x3e03c1de3dffc692U, 0xbe5d4a163e2b6115U, 0xbdd8d803be25fef1U, 0xbe45e3efbda84a6eU,
  0x3e58230c3ac8da05U, 0xbd41e03bbe5b9bd0U, 0xbe64d7a13e36351cU, 0xbddac3e73d648d44U,
  0xbca344bb3cf5d8b1U, 0xbdc073fe3e6a84d2U, 0x3ce8b503be75695eU, 0x3d87ccb3be22f6abU,
  0xbe8d4bfd3dc26441U, 0xbd823e433e1fc66aU, 0xbe1946a6bc7486a5U, 0xbcd2b8b13d3db896U,
  0xbdd57f99bd3d4175U, 0xbe43651abe811441U, 0x3bd954ebbdd0f02cU, 0xbe3ce59c3c40108bU,
  0xbd03f9bdbdd6dec6U, 0xbe192f913deddb0bU, 0x3e79702d3e20da9cU, 0xbe7d0e823e211f11U,
  0xbd4160a5bd2eac59U, 0x3e3733543e3e29a2U, 0xbe9a8912bd14730fU, 0xbe36cc7e3dc63823U,
  0x3dee0c1abdbd6475U, 0x3e78687b3da90198U, 0xbe9241303e0cbe2aU, 0xbe1a44bd3d9df13bU,
  0x3d9d9fd5be87b956U, 0xbeb7f6d83ebaf4deU, 0xbe4f6f49be2a3380U, 0xbdca3284be4266eeU,
  0x3e85ab5cbc617a87U, 0x3d0465b0be0cbe59U, 0xbd9d81253e4aaba7U, 0x3e6d8377be0a723fU,
  0xbe42b83bbd82d68cU, 0x3e641032bd80a9cdU, 0xbcdf66ecbdd6adc4U, 0x3e226f1e3e1b2366U,
  0xbc2fde8c3d5b5608U, 0x3e9499fcbdb727feU, 0xbe402d65be3f8dceU, 0xbdfe98febdbda490U,
  0x3e11cb4dbc9e16d0U, 0xbe2c8a2a3e79de75U, 0x3d24e1aabe228b26U, 0x3d5a82893d712aa4U,
  0xbda24e143d80c549U, 0x3e1705e93cc677d9U, 0x3d58324c3d76df67U, 0xbe529a503e43fe2dU,
  0xbe879c713c844841U, 0x3e51f7243cb0df9cU, 0x3d87f246be2f37efU, 0x3ed422153e89edd7U,
  0xbd1926613de90647U, 0xbe3f05833e9a7aecU, 0x3d3f5f5cbe99f23dU, 0xbdb8f08f3df49344U,
  0xbd8a6727bcd77e2eU, 0xbd7fa74d3e994c9dU, 0xbe4e2b4b3e0431caU, 0xbe7068f33d01576cU,
  0xbc2de0503e1e7e89U, 0x3e87f811be89c8f8U, 0x3e31dc8ebd3b6cbeU, 0x3ea38bc0bdf4427dU,
  0x3db78113bde47505U, 0xbe94e6f8bda5f316U, 0xbe03cd47be4fe15eU, 0xbde60f60be24c8f7U,
  0xbe7bb63d3dd0a6f4U, 0xbddcfdd2be2fd224U, 0x3dd5b8293db1dc84U, 0xbe430a0cbe2f6e01U,
  0x3e5871183e8d2e1eU, 0xbda812743d818648U, 0x3e218675be16c225U, 0x3e8f5b033dce1774U,
  0x3e7214a83e34b89cU, 0xbe447645be7adde8U, 0xbe9deae93e72cb2dU, 0xbe59f030bd2f9236U,
  0xbe6c665abe15528dU, 0xbe3e8d01bd86ce29U, 0xbe556a0ebd55bda6U, 0xbe2624073de146dfU,
  0x3db8f5093e03667fU, 0x3d4bd53f3de84cafU, 0x3df677a4bdd16977U, 0xbb1406593e4d0642U,
  0xbc55497b3e0b87fcU, 0x3e2a032fbd981050U, 0xbe4627febe258ceeU, 0xbe25ee26be59d9c5U,
  0xbd29a84e3e055f36U, 0x3dc60a24be89e418U, 0xbdbb994d3d4d441fU, 0x3a60a9ffbd67c7f1U,
  0xbd4fbe8a3ceeecfcU, 0x3e54571e3ea14802U, 0x3dd43a60bd51cc3bU, 0x3de3f0d83e059ce6U,
  0x3e04f3f93cc95409U, 0xbded59483de80fd1U, 0x3d6863f83e88ec57U, 0x3b5d725a3e5e3ce6U,
  0x3daebd4a3e942314U, 0x3cfcb19a3d003b39U, 0x3e3235e4bde438d4U, 0x3e9106c53e14be5cU,
  0x3be4095cbd49cc8bU, 0x3d10071fbe5b17abU, 0x3e6141253cf0e4a8U, 0x3e65a871bc5204c1U,
  0xbe55c3383e4d80d2U, 0xbda9f13a3e1b9bf8U, 0x3e1009b9be1edd35U, 0xbe2cb513be226980U,
  0x3e7d181b3e98e4a8U, 0xbcc686173e13a3afU, 0xbece41143dc45a7aU, 0xbe8ff773bc1ffc44U,
  0xbc08a203be8f189dU, 0x3e19c9d03d474a90U, 0x3e8577d7be3e1453U, 0x3d0717cf3c626026U,
  0xbd5d0e1bbd67b1d3U, 0xbc1a12c4be06a309U, 0xbe04a218bdc73b24U, 0xbe425027bc549e73U,
  0x3dee752e3e173ef6U, 0x3e4ec9d4be31b324U, 0xbcb9310bbdbd5ce5U, 0x3d9c2254be4b658dU,
  0xbe2dec2fbe0b82a4U, 0x3e91fcf2bd86d4e4U, 0xbe00935f3d975ad2U, 0xbe30a79cbe683e3fU,
  0xbe181df1be16865dU, 0xbd552b7d3e219b0aU, 0x3e95b0113dc35737U, 0xbd37581abdace551U,
  0xbe39a9223e2932c0U, 0xbe8a3a60bdd43eebU, 0xbe120d07bcfa1debU, 0xbe9bc23dbc5b0ca7U,
  0x3ebc71343d4f0bffU, 0x3edff2813dac29caU, 0xbe63dd01be1761a8U, 0xbec16aee3e491a67U,
  0x3da93bedbd9da9e9U, 0x3e755a06be3c21a9U, 0x3d9200f43e2e5485U, 0xbdf265673e1d43a9U,
  0xbe67ae583e8b7937U, 0xbdf3fe013de75d9fU, 0x3d036cdb3ee14915U, 0x3e0ebc28bbeb14a3U,
  0xbced62f53e85ab87U, 0x3db59e3bbeab2debU, 0xbe1aca96bde38b2bU, 0x3cda27ae3de56e76U,
  0x3e81b0cd3d3d7f88U, 0x3e68edf4bdfa6cceU, 0x3db98694be7a85e3U, 0x3df4c93bbe93ffdaU,
  0xbc395117bda6e12fU, 0x3e55ce5d3d349b97U, 0x3e27d5d03e8930b9U, 0xbdcdaead3dc06323U,
  0x3e142d4abecc9f11U, 0x3e1dd818beb09fabU, 0xbde9703bbe89d90fU, 0xbe11dd42be35708cU,
  0xbc74c454bdb1f78dU, 0x3de5d9e43db50910U, 0x3e9d18aabed4fe84U, 0xbd7a26993e36e5c4U,
  0x3e377d2f3e55071bU, 0x3ea4eb71be7c5e6aU, 0x3e97185d3d0255b5U, 0x3ec81eb83eae3d7cU,
  0x3e1c16a0be644efbU, 0xbeceffec3e4de97cU, 0xbe214e8abe4168f6U, 0xbe58e88c3c13fbd4U,
  0x3cd814f3bec6faf2U, 0xbdb000663e0f6644U, 0xbc94c7433eefe240U, 0x3af933743e3556c0U,
  0x3ce8178fbe17416fU, 0xbd6c9b2cbed11485U, 0xbe91e96dbda39b82U, 0x3e911857be9d049dU,
  0x3e8641cb3eac7b53U, 0x3c647ab33e933d35U, 0x3e275949be87236fU, 0x3eaedc6a3ddf49f7U,
  0xbe63c037bdf70d8fU, 0x3e7fabbbbe6ad22aU, 0x3e904edabe87bb2eU, 0x3e271c883ea158c7U,
  0xbdec5cbc3e6a7dbdU, 0x3e1070eabe13115aU, 0x3e8992d7bd8b0b62U, 0x3e4019b0bd3281eaU,
  0x3d157ed23e4d2bf1U, 0xbecdad7c3da0c516U, 0x3eb73c42be58e921U, 0x3d8c62ecbed5ccf5U,
  0x3df747563d357fd3U, 0xbcc710cdbd6dd53aU, 0x3e53fea7be68c55fU, 0x3ec1f785be9a3281U,
  0xbe42280fbe641270U, 0xbea68c64be1956cdU, 0xbea284e5be2c8ab2U, 0x3e8f4a863ece5ceaU,
  0x3e639908be5f8532U, 0x3e44f389bdff6bbcU, 0x3e085daf3e387a97U, 0x3ebbc7d83e1a1d46U,
  0x3eadde9fbe93b092U, 0xbede30533e4eec6fU, 0x3e7984733e0b72c8U, 0xbe8efbd8bee6ec42U,
  0x3d78ae73bdf2df49U, 0x3ee918bc3e8401f3U, 0xbec0fca73e88e772U, 0x3e5b50e93e79b7deU,
  0xbd49b20fbefd35beU, 0xbd70d4023da97127U, 0x3e89f6b7bda335a5U, 0x3e1efed7be2c4e8aU,
  0x3ed973523dc781a6U, 0xbd69b17bbe050322U, 0xbd9767fdbe998c5fU, 0x3e5a001bbe1a3b07U,
  0x3e58b5543e3475e9U, 0xbe4179bb3e8cca92U, 0x3ec74c92bebc976eU, 0x3db0dcbabda67e92U,
  0xbe8b7c653e133778U, 0x3df2a4debd12d83fU, 0xbeaf4da63e4378dfU, 0x3e5bfe3fbe63bc2cU,
  0x3de7264d3e409e41U, 0x3de68b173e17c0ecU, 0xbe768d4dbebe59f9U, 0x3eaae6fd3e83c9f5U,
  0x3e5a24fbbd2a98e9U, 0xbd55ddc7bebe953aU, 0x3db9f2d53e32e6ddU, 0x3d6372173e5ab8b2U,
  0xbe6392bb3e2c85aeU, 0xbd6a597d3e652979U, 0xbe00add6be9ec0caU, 0x3e9bda483cd12e0bU,
  0x3d7e1a543e83e6e5U, 0xbd3ed8253d85309bU, 0x3e1091473e0d8f9aU, 0x3e6d3aa0be455370U,
  0xbe99ea1f3e0f740fU, 0x3e4e786cbdbb16dcU, 0x3e87db1b3d661c37U, 0x3cf7cf383e4e3268U,
  0x3d7ad1783d8624c0U, 0x3cff6187be195830U, 0x3acd4f543e5f7f96U, 0x3e5a87fe3d8bc772U,
  0xbec01f9cbe6f6381U, 0xbe220a6a3e926432U, 0x3e1671ab3e00845dU, 0x3cc1f0bd3e953c90U,
  0xbdcafaec3ea3d419U, 0xbdbf21cabe06f956U, 0x3e8600f53db4b598U, 0xbdd321cb3d5e54f9U,
  0xbdcaa1c93d9d6943U, 0x3e9ced92bd84cffaU, 0xbd0863a8bdc71a67U, 0xbe7a8f4ebe4b8191U,
  0xbe49f5783e758bc0U, 0x3e8453dabcb055baU, 0x3d8b5f9dbc9ca804U, 0xbdc5eb723ca30021U,
  0xbd5355b73dc1f466U, 0xbe9757a7bd1ef60dU, 0xbe4394b03dc61131U, 0xbe36da363df2e34bU,
  0x3e590f133dd4e3bcU, 0x3da377b43e484879U, 0x3d1a043a3e95f7b3U, 0x3d88516c3e253185U,
  0xbe79653a3e495ea7U, 0x3daab79f3e58ac69U, 0xbe44f7853dafeacdU, 0x3d190e8c3dc84689U,
  0xbe138008be473df3U, 0x3defd0933d469a9aU, 0x3c63d1fbbe0baa51U, 0x3e3427ff3e2dbfc4U,
  0xbcbe59e8bd252971U, 0x3df22139bc5a9d5fU, 0xbe2be4f9bd912705U, 0xbcb12f0fbda9842aU,
  0xbd86f0653e0b9f67U, 0x3e38f04b3d09e210U, 0x3db429753df15b62U, 0x3e55730a3e24a41eU,
  0x3e08edf73e3b3b0aU, 0x3e428b8cbdcf1e55U, 0x3be2ecdcbd1f01b2U, 0x3bb4d1053e962762U,
  0x3d818b6b3dabf99aU, 0x3e8fa6a4bcb26e19U, 0xbe2fe0febdd5bf10U, 0x3ce0d417be3014beU,
  0x3e0f8c463c010dc1U, 0xbe3658bbbe12116cU, 0xbcd668a23e7b2691U, 0xbcafd4833d9c31b5U,
  0xbd8f79c93d3257ecU, 0xbe43c9a3be018f2dU, 0x3da2f02d3e81fd1dU, 0xbe5ae21e3e1ba5feU,
  0x3d4f2f463deb6e46U, 0x3cd89bd03e96a0f5U, 0xbe9b3d0cbdb63734U, 0xbe3bdf353e8e0e6cU,
  0x3c6d8b08be486a76U, 0x3d861e8cbe11e454U, 0x3d3428b3be0b4f14U, 0x3dd32d223e8b2573U,
  0x3d7e0e57bd47492aU, 0xbd823d3e3e81a517U, 0x3e178b12be552a7dU, 0x3c80b8a2bd9cae0eU,
  0xbe09b19ebe2d095fU, 0x3e3e71f03a1d8b39U, 0xbe01be1dbe776d7eU, 0x3d541c09bc938737U,
  0x3e1804543e371923U, 0x3dac16913d924920U, 0xbdb4ac043dcc806bU, 0x3e84a9e83d1c492dU,
  0x3d10f99ebd937eb0U, 0x3dafb25abdba5a7eU, 0x3e2b132f3d52ca1eU, 0x3d59cd943cc7e4aaU,
  0x3db26449bdaddb9fU, 0x3daacefabdc4c2daU, 0xbbc079abbd6137c2U, 0xbdfbf9e1be3344f6U,
  0xbe3dcc7f3dae913eU, 0x3de9b5bb3c6c715cU, 0x3d3b7e393db32a04U, 0xbd1859c1bd20146cU,
  0x3d1f17e6bda38892U, 0x3cd8becfbe4eca72U, 0xbdf4d0273dab55baU, 0xbcd87cac3e045211U,
  0xbdfd9121bded2b26U, 0xbcd618f23de48f33U, 0xbd57d17a3e6007f8U, 0xbdf6b7cc3cad2a5eU,
  0xbcf354ec3d52fb6dU, 0x3dd7d7c53dcabd11U, 0x3c937d323e7bbc70U, 0x3dbbdc83be0c794bU,
  0x3bf1fab8bd7493d4U, 0xbd68e7b13e036337U, 0x3e4042cd3d687a31U, 0xbe29d4dd3e84f721U,
  0x3dd60ce9bca03b45U, 0xbe056a0e3d79b3a2U, 0xbdc6c33f3e2686bfU, 0xbe408fc8bd47b461U,
  0x3e8868983eb33524U, 0xbe121ba6be252893U, 0x3e944deabe66f7e1U, 0x3ce44bdf3e285799U,
  0xbe9983233dce476aU, 0xbe2384adbc48ce9eU, 0xbd33f4023e3b8384U, 0xbe52c66cbdfa855cU,
  0x3c717f9dbe7f89f9U, 0x3dc2a6613ad6afd8U, 0xbde681f1be1281cdU, 0xbdda9bb13e1b1aa7U,
  0x3dd5ea5e3d3178b3U, 0x3c290ae5bd42b87bU, 0x3e78194abe335d34U, 0x3e71837fbe785facU,
  0xbe214da2bb71d4f0U, 0x3de02a7f3e6b9bc3U, 0x3d864540bd5a97a5U, 0x3e1ccaabbe1b368eU,
  0xbdf7a4c9be46adcaU, 0xbe91434fbe364928U, 0x3c2389763db41b8aU, 0xbe86b84abe844ab8U,
  0x3e98ab473ea37df6U, 0x3e6bb301bd676568U, 0x3e4d47563d639496U, 0xbdc379a8be8c00c5U,
  0x3da94eca3d520cb9U, 0xbe69446dbe39305cU, 0x3e1086393e479c9aU, 0xbe8f12843e8ede0bU,
  0x3cba2b01bdb0fdcdU, 0x3d9f233ebd05f00dU, 0x3e44555dbc2f746fU, 0xbd9b32de3e254f2fU,
  0x3e7a7a0f3e0f17e6U, 0x3eb0313dbdc87c0bU, 0xbcf7ba373e40fa26U, 0xbe902ffdbe0a3bcbU,
  0xbe2d92943ccae6feU, 0x3d4981473d69618bU, 0x3e2e5b46bdcd6eb7U, 0x3e9edb983d657d0dU,
  0xbdadd3e4be3f0c73U, 0xbac9c8b83d007ee4U, 0x3e85b115be8b67ceU, 0x3e0bba5abe765ab0U,
  0x3ed7bec8be86cd3dU, 0x3d5f3a70be9bc0c0U, 0xbdbe57a3be35039fU, 0x3ec033cbbde44408U,
  0xbe4c6d6a3e9d054aU, 0xbe773ab63daa0121U, 0x3e267dfe3e2ab2f2U, 0x3df8498dbe63be81U,
  0x3ea0791f3e0960bfU, 0x3d0f6e69be967870U, 0x3cd9eb0abd7b0b3cU, 0x3e5f96133d8153a5U,
  0xbb038cefbeea6d27U, 0xbe1815b43e353a19U, 0x3e07a85abe4da0d4U, 0xbe84c654be1e74b9U,
  0x3eaf5be73c5d2fc3U, 0x3e67581cbe121524U, 0xbe56180c3e7843f0U, 0xbe54218ebe88a30bU,
  0xbd5a44a93ddbec92U, 0x3df63c75be4378b5U, 0xbe80acb0bd9a206fU, 0xbdd4da233d406739U,
  0xbd8aee22bd34fbe3U, 0xbd87f6773e786986U, 0xbdc0c7793d154ee6U, 0xbe0bfbe73e48d947U,
  0x3e6cbc82bdc0b7e5U, 0xbe4bfe9c3e319c4eU, 0x3d9ae348be675fddU, 0x3dce9c1abe8987abU,
  0xbd3f2aebbd43577fU, 0x3e112106be03b143U, 0x3e138a23be0f1b7cU, 0x3e460c823e1985efU,
  0xbe2daa3c3d84ab18U, 0x3e621ac53c7a0e4eU, 0xbe3ae80ebe2a2289U, 0xbe2a61703e9a63f1U,
  0xbd19468ebe53135eU, 0xbe717f663ea95889U, 0xbe6069263e378374U, 0xbc02e382bd46c1c6U,
  0x3e9b580abcc93635U, 0xbe3eb3bb3e51e5a8U, 0x3e07c785bd9a44c9U, 0xbe1ed0d13d1304adU,
  0x3cfe9077be18d302U, 0x3e05bfc7bdc254f1U, 0x3dc941523a69ea2dU, 0x3ddceaefbda7a796U,
  0x3e102890bded2cbaU, 0x3debc83d3e724af7U, 0xbea7a1b23dacfd04U, 0xbe03091fbe7f81c8U,
  0x3da7bfe13e69b5d9U, 0x3e15305f3dfd0175U, 0x3e30e43b3dcbb0f3U, 0xbe0f9cf33cdd938bU,
  0x3d08d6143e0c2734U, 0xbdbc4a443c742425U, 0xbe0a351b3e88c324U, 0x3dc2697dbcefa193U,
  0xbe255e883e4307ffU, 0x3dcac34cbde7c8a1U, 0xbe8ffdb1be9ba08bU, 0xbd11af78bd85d50bU,
  0x3dd7e9403e5b86eeU, 0xbe1aa9443e98674fU, 0x3e09db26bd288affU, 0xbe95bb60be4e428fU,
  0x3cb222f2be35f806U, 0xbe7737c93db7b2caU, 0x3e5f29ac3e2691f0U, 0xbd71479d3e9a53a0U,
  0xbe9ec426be0c9738U, 0x3d99404ebdedf849U, 0x3e8b69743e6a3d9bU, 0xbd5364673dc11320U,
  0x3e0949ea3e145da1U, 0x3e88e439be994105U, 0xbe9821debea2615eU, 0xbdf00eb83e81a0a6U,
  0x3e410f96bcf9d23aU, 0x3d59893cbe863993U, 0xbdb5b9b43d87bc89U, 0x3e398ef4be36956cU,
  0xbe11abe23e977188U, 0x3e2ef9e4bccdbe56U, 0x3e1409993d863bfdU, 0xbe8e1f04be1a9b37U,
  0xbea8e433be48eb3fU, 0x3d1395ed3e8b7e7bU, 0x3ded73823e58bbf3U, 0x3dc8468b3dd1118fU,
  0x3d076e3b3dbf1906U, 0xbeb5af8cbe852722U, 0xbd8d80803e225b7aU, 0xbd4ddbb4bdae1e39U,
  0x3e5868c0bde0224eU, 0xbe368b3a3e84fdc7U, 0xbe44878dbe54302dU, 0x3e29d3fabeb8595cU,
  0xbd7610123c9c0f36U, 0xbcafb990bdc6d398U, 0x3bbae88ebde84a6bU, 0x3e9e2fa73d57b51bU,
  0x3e3bdb1bbe184424U, 0x3d1915a53df69cedU, 0xbe972f1b3e09d097U, 0x3e518ee13d21df5bU,
  0xbd6568463e62c815U, 0x3e9ea54a3e136887U, 0x3e8a048e3e928923U, 0xbd05ac0ebdcbc0afU,
  0x3e40cbb2bb1402d6U, 0xbce07c603e1283dbU, 0x3e45ef24bdb68206U, 0xbd44771ebd533637U,
  0x3ed8ebacbe418e96U, 0xbe3dc3063d612d3cU, 0xbdf7032a3e5d6ff7U, 0xbdbc8d563e7485b1U,
  0xbea10c64be7e3045U, 0xbdb6931a3e6c481dU, 0xbd84428abe915d16U, 0x3e97096fbe0c6180U,
  0xbe0fcc3dbddce8fbU, 0xbe871d7f3ec4405fU, 0x3ecead0bbddc08c3U, 0xbd872f603ee7c65cU,
  0xbe48ee72be4fd02dU, 0xbecaab483e9c0a13U, 0xbd7c6e263dc44440U, 0xbeccaa09be633ebfU,
  0x3c7f130f3ed28319U, 0xbc95fcb2beb40772U, 0xbdf862f0bea950a8U, 0x3e84cf2b3c33fbf9U,
  0x3bf1131cbd3cdcceU, 0x3e7ec03c3e4778e3U, 0xbde191ea3ede29c5U, 0x3ec36ef13e6281bbU,
  0x3eb5ef87bed4d5a3U, 0xbe89987ebebe0e30U, 0xbe986498bc67def6U, 0x3e6274ccbd09a05cU,
  0x3d786f7fbde382a4U, 0xbe9d13a33eaea264U, 0xbe17cb8c3e558c49U, 0xbde48a11be2e2229U,
  0xbec4735c3dabedc9U, 0xbe9f33a13eaf51b2U, 0x3c5ad7bdbed0f580U, 0x3e30c3dfbda99c3aU,
  0xbe1e3297bd71a2d7U, 0xbe2abbffbeaf8737U, 0x3e664568be732393U, 0x3e4bbf9cbe0b64cbU,
  0xbed6a0a13ef99482U, 0xbea6cf9e3f1473a5U, 0x3d29f7f6bda8c095U, 0x3eaf4dd73df1e031U,
  0xbe8f029c3e8b2731U, 0xbe9f3e193e6bfdc3U, 0xbe3ea362bd141c6eU, 0xbcba4601be79f597U,
  0x3e1621d23e7c0493U, 0xbeb275fe3d2cbd53U, 0xbea82849bea701a7U, 0x3edd8e5dbee15c4dU,
  0xbe9d36983e4a1b3aU, 0x3deb4807bd7340d4U, 0xbe4c56a43e15e408U, 0x3e2fa87bbe3c0d97U,
  0x3e90cd623e1bab71U, 0xbe90645e3ed57f3aU, 0xbe896a513e754028U, 0xbe81ebf13f1a208eU,
  0xbec6e771bd345f1bU, 0x3e98a7e5be1dd1f2U, 0xbe8622b53e7b969bU, 0xbe4e810a3ea87b2bU,
  0x3d896b2c3e37ebe2U, 0xbd59f24fbd11001eU, 0x3e410556be38669fU, 0x3e115e9bbe55085fU,
  0x3c51d6f53e361dcdU, 0x3dd4f2f43deca9f2U, 0x3d2751ca3d832b10U, 0x3dc61bcc3c4b301fU,
  0x3e4ea5753e11773fU, 0xbd421390be504580U, 0x3d3272d7be26d97cU, 0xbe25a3ac3dda255dU,
  0x3d919499be1651daU, 0x3de1d3823e0de2f9U, 0xbe29ba293d373af0U, 0x3d72aa3d3d8d6589U,
  0x3de8a3283e827b0bU, 0x3dc9f9083e6a9392U, 0x3e67aadebdbeeed3U, 0xbdd1946f3cc4e930U,
  0xbe8eb32abd622799U, 0xbdf71c3f3b8ad7e6U, 0xbdf13e093e0a7085U, 0x3d6ade9e3debf6c2U,
  0x3ea3f838bd06db5bU, 0xbbf86baabe01c29eU, 0x3e93da193e37b798U, 0x3e4d426cbd8a4339U,
  0x3e5abc1cbe35d1e9U, 0xbdf85a213d502ec6U, 0x3e7963953ebd9d06U, 0xbdb699273e516acfU,
  0xbe409d83bd995c54U, 0xbe894f58bb7a4ceaU, 0xbe3a77163e4038baU, 0xbbcdb8f03e4172f5U,
  0x3deaee003dbcaa3aU, 0xbe5442dd3e353e7dU, 0x3e3ce33e3e49c7c7U, 0xbe0a2a5d3da29949U,
  0x3cf11b723e5f6d23U, 0xbdab39163c1305c6U, 0x3e3b1c483dfa3237U, 0x3e4db9f8bd71d8f4U,
  0xbd72bf0cbd562660U, 0x3e70fd173ddf1a8eU, 0x3d8cc151bdecf2a9U, 0xbe669c24bbf6a12bU,
  0x3cd37b673d4c7954U, 0x3e3388903e50a406U, 0xbd2db3403d6d33e8U, 0x3dcd28b2be06dd2dU,
  0xbe725398bd0c6ed2U, 0xbe39c73d3e8f593cU, 0xbe42c71dbe44b207U, 0xbdaa65edbe1503f1U,
  0x3db33b4c3e5f1361U, 0xbdc07b8e3d2dc588U, 0xbe31a79f3c755967U, 0xbe0e73b2be30c621U,
  0xbd5754463e8c3fdbU, 0xbe0123f4beb17540U, 0x3e9752dd3e0076d2U, 0x3e8b6544be250adbU,
  0x3e87dd4a3e0a3784U, 0xbdc7e8c03db7f47aU, 0x3d46ac36be957a01U, 0x3df055fc3d27c7b8U,
  0xbd633d6b3dbe02a3U, 0xbe1bdfdc3e664496U, 0x3e141c9abe3ecacbU, 0x3e65f5b83e35ceb5U,
  0x3b129f2e3df92b49U, 0xbea4dc14bd84efd9U, 0x3cb81c89bda6621cU, 0x3e46445dbde7105fU,
  0x3ecb3c1bbace9650U, 0x3ea390bb3e0c0a32U, 0xbe1b7c753d4cbb2dU, 0x3dc0cf3cbdaa4cabU,
  0x3d5185153df06063U, 0x3e91a8493e8096d6U, 0xbe176118be62421cU, 0xbd37ef4339d4eacbU,
  0x3e3718e03ca1839cU, 0x3e398eff3e8028b9U, 0x3e82a8b53dd6c45fU, 0x3bf612e0bdc7b513U,
  0x3eb36df0be48074eU, 0x3d210177be97570bU, 0xbe2e9802bd000962U, 0x3e00d60e3e3254d8U,
  0x3e8c53d93e1c0a5cU, 0x3e7a0cbdbbcb8524U, 0xbddd58773e2fa22eU, 0xbe6a545abe86c4d8U,
  0xbd65c09f3df92e86U, 0xbe0cbf65be262823U, 0x3dbd0fdabe249dd7U, 0x3eaad304be0771c2U,
  0x3e0ee74cbe626c2fU, 0xbe8678d5bd29dabdU, 0xbdfb8588be5dd9a5U, 0x3d056e543dca61e6U,
  0xbe07f2713d8fb50eU, 0x3de1f1cbbe506f08U, 0xbd46815b3c53fa50U, 0xbcfc21203daf2574U,
  0xbbc7604cbe3a1cafU, 0xbe720120be1afa2dU, 0xbd2fd3423e5ad741U, 0x3dda1591bd62bb97U,
  0x3dfefb1b3e4902a6U, 0xbc9934633e44103cU, 0xbe8ff61d3e137405U, 0xbe44ad9a3eaba2b1U,
  0xbc854de83dbded4fU, 0x3e8cbbc03e1f99a0U, 0xbdd7ad5bbb3c034fU, 0x3b9a5039be3eba9cU,
  0xbe2191d6be56c3beU, 0xbe64166d3e6c9eccU, 0x3c8c28403da6c740U, 0xbe5bac2a3de7e5e8U,
  0x3e94ce7f3d12f6a0U, 0x3d8179d23e6f1dc1U, 0xbd032271be85a55fU, 0x3e08d287bc864324U,
  0x3e2063153db5c2aaU, 0xbe49f14dbe54df56U, 0xbd122c4cbebe3d05U, 0x3e81d227bda35fa0U,
  0x3d89b1853e065ebcU, 0xbe3b16e2be19f2f4U, 0xbd925341bcea32acU, 0x3e45103dbe7a7417U,
  0x3e128a4a3d48df16U, 0xbe5b8dc2be03c481U, 0x3dcda060be2b73f4U, 0xbdc3926a3e1d1637U,
  0x3e9bfa27bcfa3a67U, 0x3e35afbebe2e4f43U, 0x3d7ecc96bd8b1cb5U, 0x3d97c90f3e0b5f0eU,
  0x3e1ec81abdde97f8U, 0xbc779b32bc9bbff0U, 0x3e84b178bdf8fe1aU, 0x3e390c443e6a348fU,
  0xbdef650abc8f1191U, 0x3deafb233e2f47c2U, 0xbe7ca260be0d58d6U, 0x3d11db64bd395e9aU,
  0xbd9ddcf8be28ecb6U, 0xbd126968be188d92U, 0x3db405f9bda5784cU, 0x3e57d3cdbdca2cd7U,
  0x3df901ecbdd8f614U, 0xbe486f733dc19b0aU, 0xbe0d405dbe2e9fcbU, 0x3cf30b17be03bb34U,
  0x3ce237483ec09d5bU, 0xbe806e8cbbdc220eU, 0x3e54c6233e2f9ad3U, 0xbe41622d3e2f4d8fU,
  0xbdf50cba3e843f2aU, 0xbe13db753ddac0edU, 0x3e149debbdf47214U, 0xbe2a56e6bba4239aU,
  0xbe3abb903d3e8e15U, 0x3cb6ffe23cd5b824U, 0x3e386d913c21dd30U, 0xbe44800d3d15457aU,
  0x3e71611ebe72d256U, 0xbbd3df6ebe7f9b6dU, 0x3ca2db183de3be03U, 0xbd2a0f943e46eb61U,
  0xbe0914dd3e8aac2bU, 0x3dd46c92be31af20U, 0x3e8093cbbe5ce97bU, 0xbe44a6ad3dc1f48eU,
  0xbca14198bd51547aU, 0xbe1ae0e2be11a5eeU, 0x3d0e8a163e93c4e1U, 0xbe3356573e291e87U,
  0x3e1d84c43dab7332U, 0xbd1ba5db3e02d75aU, 0xbdc307723d62a6e2U, 0xbe720c713d22d443U,
  0xbe9943fb3e1d9071U, 0x3da37d5dbe000879U, 0x3e06b11f3e2f35e1U, 0xbd0f97c8bdb69a14U,
  0xbdc020443d125396U, 0xbe8b1255bcb5a588U, 0xbe9bd931bd94a183U, 0xbd2948c5bb8f8124U,
  0xbd2186de3e057082U, 0x3c476f0a3d5ae08cU, 0x3d656b9a3c8070c6U, 0xbe17aa963e9035bfU,
  0xbea1ae1b3e2f512eU, 0xbdcbe40abe3ec65eU, 0xbd69396c3c168bdfU, 0x3e798dee3dbb9b8cU,
  0xbe190dd1be1810e1U, 0xbe8e2b46b9058c1aU, 0xbdb8089e3dcf23dfU, 0xbe0c0c643e8defb2U,
  0xbd850bee3e596878U, 0xbe4462fa3c37a442U, 0x3e9ae1e63dbb0b9eU, 0x3d4a5653bd8ac379U,
  0x3ccd9e48bddb688cU, 0x3d3dad2bbd0db83fU, 0xbe638b0e3ea91ab6U, 0x3bb480a03e05e311U,
  0x3e45908abe7f14feU, 0x3ecc278fbe7a7152U, 0x3e93bf99bd05122dU, 0xbd8f56343df3c2b8U,
  0xbea610943e89dc53U, 0x3d27ad6ebd16cad5U, 0xbde0de03bd6cfa10U, 0xbda096f2bea02c29U,
  0xbe15db693db27c11U, 0xbc2a7e413e29ed96U, 0x3de7e9043e7256abU, 0xbe22cfb33e72c1e9U,
  0x3d7f23a4be0e590fU, 0xbe04bc853d536c3aU, 0xbd2b6ba2be45f8f9U, 0x3e409442bc60852bU,
  0x3dce40953db4f2c5U, 0xbe1486f9bd545885U, 0xbe938a4e3d4cf945U, 0x3e20e913be650790U,
  0xbdb411023e2681c7U, 0x3de8f7cdbe8f33c7U, 0x3e86fffd3de04115U, 0xbe31d46d3d9c5331U,
  0xbd118b6dbdf4750cU, 0x3e9071e83e309c41U, 0xbc798817be209e74U, 0x3df018ecbda1e497U,
  0x3e9b7b2fbae36c13U, 0x3e74d00d3e8d747dU, 0x3e48f524bd661f08U, 0x3e4bb978bd9441caU,
  0x3db828683cd85e1dU, 0x3ece7a353e18a720U, 0xbdf86fbf3e163284U, 0x3de74c86bd0e09caU,
  0x3e46470cbe8690fcU, 0xbe00852f3d14b7f3U, 0x3ddaf4aabe4d3938U, 0xbe4fb3303b03fc9cU,
  0xbe251558bdfa4b1aU, 0xbd8866063e12d3d1U, 0x3e8bab5b3e2c1153U, 0x3e3c39523e0f3a12U,
  0x3e91d28c3df461b7U, 0x3e576ccdbdc65599U, 0xbe4ecc7abd935248U, 0x3ccb4a2cbe8a42b2U,
  0x3e5811b5bd810325U, 0xbdc799b5bd395c9dU, 0xbdbeebcdbccebcc9U, 0xbe467eb0be6b147eU,
  0x3d93d463bd377c86U, 0x3e58bfd3bce310f4U, 0x3c29ff27be2812e3U, 0xbe97403cbd267ad0U,
  0x3e7edd263cf95238U, 0x3d1a51b5bc9954beU, 0x3e722935be9c95f5U, 0x3e23f511be171a0bU,
  0x3dfb58e53e53dbebU, 0x3c2250ffbcfca216U, 0xbd016d163e73d5afU, 0xbad092653dec9044U,
  0xbe556fa9be648427U, 0x3db3488fbebf21ecU, 0xbe85af403cdcf77eU, 0xbe30b3833e8b141eU,
  0xbc97db7d3d682640U, 0xbdeae8dcbe55e41bU, 0x3e46ab54bed77d06U, 0x3e204f963e2ff0d2U,
  0xbd9b8e1c3e1f4013U, 0xbe05eec23d9d3b92U, 0xbe1cb617be3701ffU, 0xbe15beb03e17cff7U,
  0x3e2bccb0bd4e99bbU, 0x3cc9f1ea3de93cb9U, 0x3e90a75cbe92846eU, 0xbd4ca0a6bd54c98eU,
  0x3e38c80c3d4c1dbfU, 0x3e167178be5956d0U, 0xbcd8d6673d87cc07U, 0xbe7bd78cbb30a937U,
  0x3dafbc84be442cb3U, 0xbdd3f15a3d2001e4U, 0xbd98d921bd29dfcaU, 0x3d8ff7d8be285a50U,
  0xbd836c913b49653aU, 0x3cb36e933c8c9dadU, 0x3d04cd873cfcedb2U, 0xbe0db4e5bd9b588eU,
  0xbdd1376ebe9c8769U, 0xbd6faa6cbd473f47U, 0xbdd93d713e4eca72U, 0xbd6c94743d0b9979U,
  0x3e06d0b93e652adcU, 0x3ddedccfbd5f8760U, 0xbe8b9c4b3c25e1b6U, 0xbda4d9403dbde6a7U,
  0xbdaf1b2c3e29f314U, 0xbe2236f53d3ba4f2U, 0xbdbf91fc3e33c22bU, 0x3e4d14ad3e993495U,
  0xbde5e2ebbd0fbd66U, 0xbe17bdc0bcf3f5fcU, 0x3dcde1a83e3bcbc6U, 0xbe264154be144f69U,
  0xbe40c6173e52c903U, 0xbe5a14c5be390b07U, 0x3d6ecef3be9de798U, 0xbdc11885be77e18fU,
  0x3e03aa5b3e53cfebU, 0xbda653473e35f1faU, 0xbe45657fbe792a9aU, 0x3ea9154ebdb49688U,
  0x3d2b5fbcbdd3404eU, 0xbe7d59583e6e0b24U, 0x3e37d0b23d9ac8f7U, 0x3d24f390bddebbb3U,
  0x3e64bdc73e4289e5U, 0xbdcdc3b93dae82d1U, 0x3cfaeaba3e5c437dU, 0x3adc0b9d3e81ec5eU,
  0x3d34062f3e0842beU, 0x3d11c8f6be500c96U, 0x3e9ba0bc3e8de975U, 0x3e48bf8ebc1d3234U,
  0xbdb9b58f3cf75eebU, 0x3e87d17bbcf9fc4aU, 0x3ec047a6be70e24aU, 0x3e04d37c3e46897dU,
  0x399234c33d7e6ebbU, 0xbd368fd33ce45ce9U, 0xbe86918a3e371b64U, 0xbdfc3d673e543fcbU,
  0xbe0b31dabe9e5c9aU, 0xbe04b1843e022d4eU, 0xbdbea6d1bdb62530U, 0xbe6b5e1abe8e5ce0U,
  0xbe3dbcf6bd87f6b1U, 0xbded6a75bda5b948U, 0x3e4845133dcb83f5U, 0x3e8df8d13e9ae125U,
  0xbd3bbedb3e431207U, 0x3d093aa73cf71607U, 0x3e00acd63e868505U, 0x3dcdac373e2eeedbU,
  0xbe6ab84cbe97e521U, 0xbe7bfc74be18fffcU, 0x3e076fbf3e8e26b9U, 0x3c5c7a993e1c02f6U,
  0xbd54dd933e2e2facU, 0x3ddd96c5bc89e48eU, 0x3dbbb0babd152fb2U, 0x3d81e50f3dbdbb5bU,
  0x3ac214cb3e827ddaU, 0xbe5b98e63d76f299U, 0xbe6d66b1bdda2724U, 0xbe472a2abdba42abU,
  0xbea117a93e365209U, 0xbe359a563e4aefe5U, 0xbe802d3cbddf9048U, 0x3e6d417e3d94bd70U,
  0xbe276db0bd9fea1bU, 0x3ca39870bdbbf042U, 0x3d2d1b30becd7f71U, 0x3da3518d3e77037dU,
  0xbe9bc0113e99f157U, 0x3e1efd5f3e85f012U, 0x3ea7f510be925b4eU, 0xbe42742fbd7d9e72U,
  0x3d18aa473e1170ebU, 0x3dc1c122bda8fbf3U, 0xbe5c9b403d238141U, 0x3e9493ee3e4347b7U,
  0xbd764db4be0c585aU, 0xbe8d882f3e786a74U, 0xbeaaa70e3d6ae10fU, 0x3e9e6e953d1e58b1U,
  0x3d2d4c2bbe2f727bU, 0x3e8aaa8a3e90a46eU, 0x3b57505dbe34910dU, 0x3e4efe543e99e2e6U,
  0xbec5217a3e0e7658U, 0x3e5946a7bd3f23f5U, 0x3ddcb6363e16e535U, 0x3e0f496d3e2967dcU,
  0x3e822c5e3e96963bU, 0x3c25eb173c9135f9U, 0x3a1a97d3be70c928U, 0xbded89ca3ce8446dU,
  0xbd346d9bbe3012eeU, 0xbe68b322bc6519f4U, 0xbd351e25be92c2fbU, 0xbe9276493cc7e9eaU,
  0x3d480d103e5c9f25U, 0xbe36da5a3e89fe28U, 0x3e0c4386bcc78d2fU, 0xbe82df14bec230edU,
  0xbdae28ea3d9939e3U, 0x3eb81176bea0bd82U, 0x3e9d84073dc5eaa5U, 0xbc3fe4d63e181ea2U,
  0xbe1e92f93d4f7e6eU, 0x3d224a55be7f997bU, 0xbe24d682bcc5fd41U, 0xbec6f0973d4775ebU,
  0xbebe9c1abebf1385U, 0x3e52c5803e4eac35U, 0xbdd1d52bbe89953cU, 0xbea2fcc7bdedc581U,
  0x3cf61201be24a02fU, 0x3e4113ca3dd4a414U, 0x3e95d52e3df3c23bU, 0x3ea438be3dae16f6U,
  0x3d9a1ca43d347c62U, 0xbe1f66e1be22d5b8U, 0x3d9264a8bea987f7U, 0x3e81a0c23d718125U,
  0x3dc349e3be820be0U, 0xbe3720823e9a2808U, 0x3eaaa36d3eb17233U, 0x3e224317be291f49U,
  0xbe3da10bbde4049aU, 0xbe5c57983d88fa3aU, 0x3ec0c93dbe8b103aU, 0x3cc115f2bdd88289U,
  0xbdc91406be86e264U, 0x3dd22a59bd286c7dU, 0x3e9728c43d3c4dc3U, 0xbd01d39ebe8c96abU,
  0xbd36165c3dae5b61U, 0xbeaa99663e87ba91U, 0x3e49ca373ed627d1U, 0xbe1ce8523dda2339U,
  0x3ddfcf90bec88f2fU, 0x3d975cf43d4273f7U, 0x3eb3d3d33dc1034fU, 0xbeabda58bdc72920U,
  0xbd90aec0be0e05b2U, 0x3e41b65fbe428e1eU, 0x3e537178be42cf04U, 0x3e6894523ec36d53U,
  0xbe9e7150be2a8b6bU, 0x3d874485be049e08U, 0x3d30395bbe29a570U, 0x3e6af7cabe903258U,
  0xbe3184b63b8b09e1U, 0xbde3f50a3ed13a61U, 0x3e918f2d3e90cb33U, 0xbe809cfdbe2dcf5cU,
  0xbe075204be0da614U, 0xbe2b75e13e44bf6dU, 0x3d1cebb2be21871dU, 0xbe73bfc3be2ba903U,
  0x3da61afebe3e59edU, 0x3e8d064c3dd12be6U, 0xbe1471c73e836c78U, 0xbe0b5378be4727c6U,
  0x3de81c83bde8ba27U, 0x3e007680bd9d2f70U, 0x3d3cb4bcbc6ae464U, 0xbd2999f4be8191b6U,
  0x3cca2e243e8f8ecfU, 0xbe2ce92d3e33b352U, 0xbe2f0b653efa5f47U, 0x3e866502be9ad49eU,
  0xbdbd9d1cbd2accbeU, 0x3ec27fb3be89dc0cU, 0x3d98c3343e447e57U, 0x3e7e7163be1bab6aU,
  0xbd892270be573ee7U, 0x3d09b4c7bdff7068U, 0xbe4d9ca7be402128U, 0xbd536f1b3ea1b0edU,
  0xbe72fc433e980a51U, 0xbdb831f0be065c69U, 0x3d92ce1b3e5f3e3fU, 0xbd76e3f6be1098b5U,
  0xbe502f2a3dc4f05eU, 0x3e4f62d7bd849da7U, 0x3d3560ec3d833861U, 0xbdab66c23bc5250dU,
  0x3e1e99e1bdb89576U, 0xbe0cbf253dc07c9cU, 0x3de70aa7bc9c2974U, 0x3e440e653e5af505U,
  0x3e423563bc7ef467U, 0x3dba2f63bc373fcaU, 0x3dbbe62d3e5fd5baU, 0xbd707c0d3d921dbeU,
  0xbe80922fbe0011adU, 0x3e860020bc3992ceU, 0x3dbd053d3e1b58f7U, 0xbc3b01a6be6a2864U,
  0x3e89861fbd837bd6U, 0xbe5c9ffc3e6f43a0U, 0xbe7de6663d80fadeU, 0x3e0ae2973e6b5bfbU,
  0x3e0e5c4c3df68cf5U, 0xbdb1d85a3e13db1aU, 0x3c7049103d0a021bU, 0xb9e6a3f8be8fc614U,
  0xbe8a5a593df46801U, 0x3e58644abe5ab7e2U, 0x3d8b379a3e87c4d6U, 0x3eb063523e3634ecU,
  0xbcbd86d33d8ea093U, 0xbd59b1bbbe396d75U, 0xbe74db113cd52eb1U, 0xbd0a5e51bdd0e5c0U,
  0x3d29ce413d6bca76U, 0xbcb22ef03ca7ce95U, 0xbd1bc1743e2a8635U, 0x3dd96c5b3e493f8fU,
  0x3dd1e7b73e062bc4U, 0xbea27d683db06395U, 0xbe0b96563de0cde9U, 0x3e5d90a63d895cd0U,
  0x3e957f183e164adaU, 0xbe00f6d33e450158U, 0xbeb1fecc3e6324c7U, 0xbd0722a03e068491U,
  0x3e13354d3e9ce467U, 0x3e68ccdcbe3da3f5U, 0xbe664f38be5a767bU, 0xbe8ffb9c3d50fa94U,
  0xbe3669d8be76d5a6U, 0xbe193f413e0abc45U, 0xbd0047e53e9df4aaU, 0x3ce564ab3dac47f8U,
  0x3d6d6d22be4a7be5U, 0xbd254e593da350cbU, 0xbd2682673d6eb089U, 0xbd7e98683e8c024aU,
  0x3b52f1ca3e58f08eU, 0xbd808aef3d884a77U, 0xbe82ee2d3d349714U, 0x3e262595bda39c7fU,
  0xbd1e7f58be92a4f9U, 0xbd3c4fae3deed165U, 0xbdda97303dc08ebaU, 0xbed2035e3db151caU,
  0xbe9476223e04c260U, 0x3b21d89f3e5e5ce5U, 0xbe1caaad3e42f0d6U, 0x3e529a933e235ce5U,
  0x3e2d56ec39b7b55dU, 0xbe5240713dc740b3U, 0xbd55bf773dc4a36aU, 0x3ea84058bd85d612U,
  0xbba680ff3dc42ec7U, 0xbeb21b0fbdccfcc5U, 0xbe457cfcbe1803d9U, 0x3dd62e163d9c005dU,
  0xbeb038c73d6bce9cU, 0xbe1421c73e9925c0U, 0x3e3f99e73df10b8fU, 0x3d90d19e3e95e6f3U,
  0x3dde16473ecb9e2cU, 0x3e0538ef3e2fa857U, 0x3ec558923e086b11U, 0x3e30cee6be8aeb82U,
  0xbd5db3fc3e1fa665U, 0x3d3636903d2111edU, 0x3c913508be04fb89U, 0x3e012810be639aaaU,
  0x3e900b1d3c8ac9a9U, 0xbe8ba69b3e3e0a49U, 0xbe9bf59bbe0acc53U, 0x3df916b4bd9c5d27U,
  0xbc6a06f03d464310U, 0xbe96f7173d7f8297U, 0xbe2d7c993e096560U, 0xbe93a5473e32fbc7U,
  0xbd8a0222bcfc1da0U, 0x3e616e7c3edbbceaU, 0x3eb782713f9f1f6fU, 0xbf354da63d954636U,
  0xbf855b213eed8fd4U, 0xbfaf7f2ebff27a3bU, 0xbc383a30be9f3693U, 0xbd64ed1d3b9b9808U,
  0xbffb3c413f42832cU, 0x3e6452c8bf40bf98U, 0xbf8d85893e652c3fU, 0xbf14114a3f6a030cU,
  0x3e60aca3bc4a6084U, 0xbf30b37cbfc342d9U, 0x3dedcc0cbe23b426U, 0x3dd34fc53dd35c11U,
  0xbdcfd589bd0ff323U, 0x3e014266be139094U, 0x3e1a9a153e690c4cU, 0x3dcf14bebe5dbda3U,
  0x3e02fe34bdce03ebU, 0xbe5360a73d2dac16U, 0x3d27495fbca210aaU, 0xbe45e0e9bcb0d3efU,
  0xbdd8eb523e4a02c8U, 0xbde8229e3e3edd0eU, 0x3cc2455f3d787cadU, 0x3daa32a0bda9cdeeU,
  0xbe151de53d33840bU, 0xbdd35365be8e8028U, 0x3d7f4bb83e0e42a7U, 0xbe4009213e574cb3U,
  0xbe5762ed3de4b646U, 0xbb3919583e62af0aU, 0xbe85d153be64cae3U, 0x3de46c84be08227fU,
  0xbe3398923e6d51ddU, 0x3e56af663dec7541U, 0x3e3bcf01bcd03911U, 0xbd386fbdbdf83d5eU,
  0x3de9127e3d19e01eU, 0x3defbac8bd945015U, 0x3d0639c4be5dc162U, 0x3e3bea94be723facU,
  0xbe516ea9be125eafU, 0xbdd9d3283d1cbdb2U, 0xbe27a5a0bd673edfU, 0x3e0af97cbdd69d46U,
  0x3e7ee184bd0375b3U, 0xbdbf2dd6bdcc4db1U, 0x3e0b41dfbe0338e5U, 0xbd1a9a823e137f98U,
  0xbe03d547be241e02U, 0xbe35f21e3e2bfc75U, 0xbdb30a433e178984U, 0x3de0509e3d871b90U,
  0xbe5965673c10eb58U, 0x3e0c257abe2d8b8eU, 0x3d9a2bfa3debbb42U, 0x3e004ff03dea5420U,
  0xbdac9acfbd82af0dU, 0x3d833550bdd2d7f2U, 0xbd8d2785be2b55f9U, 0xbaa98b603c73e62aU,
  0xbe7c2df93e2b79e0U, 0xbdd0add7bd88491aU, 0xbe74e0cc3c44dae7U, 0x3d9941e83e35cbbaU,
  0x3ddd4e52be3f9125U, 0x3cfd6b54be22806eU, 0x3e16e507be4eda33U, 0x3d0dc5e8be0cd65aU,
  0xbd1658efbd99a85eU, 0x3e50f31a3de5287cU, 0x3e46aee6be63ad20U, 0xbe2b8276bd8ae3adU,
  0xbe25841a3e523748U, 0x3e1e34873e2cba59U, 0xbdfafb90be7c1cf7U, 0xbd396e7d3e665473U,
  0xbe6c81473c7c394fU, 0xbe2923b23e3d1c6cU, 0x3b0c875abe393378U, 0xbe75a628bcbadb02U,
  0x3de8f3013bb4b8e8U, 0xbd92d02fbe7a000eU, 0x3e50dca3be71fcb5U, 0x3db245b43e473d3bU,
  0xbdb8dbfcbe09f0cbU, 0xbe55a4093ddafc55U, 0xbe74b0de3e4652b3U, 0xbe19bd393e6f25b0U,
  0x3e22e4b5bd7f64e6U, 0xbd304ee4be773478U, 0x3bdc733cbe47076aU, 0x3e15f7a3be077e20U,
  0x3b622d00be56c0f5U, 0xbb319d6c384d0b16U, 0x3c6082f33d5216aaU, 0x3c73e0babb7db0fdU,
  0x3cccf456bcfc53f0U, 0x3c503d8c3d7e2784U, 0xbbc231703d222117U, 0xbaae586d3a67e51bU,
  0x3b41cc143ce72b11U, 0x3cd493773c09a8b0U, 0xbc923f283b3a6d1cU, 0x3d6569b83c9033b7U,
  0x3d0dc08f3d3793b7U, 0x3cae9d333c805ebeU, 0xbca6138f3c79b059U, 0x3ca786d03ca409f2U,
  0x3ca36c0d3d028e3fU, 0x3ca604513bf129daU, 0xbcac68dd3d24a0ecU, 0xbd57f36b3ad98cceU,
  0x3d14477dbc51acf0U, 0xbc1effc1bc0c0c10U, 0xbccd7f9e3d0a6908U, 0x3c2ecb5f3d870fa6U,
  0x3c20c76c3b4ec832U, 0xbc0fca303d4b53e4U, 0x3ce47022bab0d705U, 0x3d924ee03b555e14U,
  0xbccbdda83d9a0244U, 0x3d717985bd1eb281U, 0xbcb454d33c7bad1eU, 0xbd46cca3bb86c6b5U,
  0x3b3f4c33bd5b0334U, 0xbcdb72debd18ae80U, 0x3c069575bcdac60bU, 0xbd8264143caadd80U,
  0x3b696f2fbce6c369U, 0x3c0c2f3fbca0ecccU, 0xbcadbf423d7d9c09U, 0x3d83c68ebc07a355U,
  0xbc17b1793c6451c6U, 0x3d76eedebba6a5feU, 0xbd624ebb3d3fe251U, 0xbd273963bc88add9U,
  0xbd30611bbd1ab83dU, 0xbc16d78b3bc28b0fU, 0x3c5ca9f4bd220cffU, 0xbd8560a33d3a7eb4U,
  0xbc0ddbf83bd649d3U, 0x3d55f8eebd8ea3deU, 0xbcd1fbfbbaedcb9fU, 0x3d43e6edbd02b29aU,
  0x3c7dd18f3d11cba5U, 0x3d09c6e6bcad7194U, 0xbd2bedfa3cd31dc0U, 0x3c88516abc8c8d0bU,
  0x3c0a32f3bd228699U, 0xbd00df71bd22c957U, 0xbb98982bbce1e561U, 0xbcfd788aba7eb178U,
  0x3d45a497b90ba775U, 0x3d09cb43bd848da0U, 0xbd65277b3c454c6cU, 0x3cd19672bd4c7366U,
  0x3cc24cfe3c6cdd4eU, 0x3d68abcebb3f47f8U, 0xbd47f0c63d1dbb8fU, 0x39b164853c24585fU,
  0xbd058006bc93fd7cU, 0x3cab8729bcb9cd4cU, 0x3d90be9bbcdefeaaU, 0xbbec42bc3c858e62U,
  0x3bef97b4bcefefc0U, 0xbc3672aebd445e19U, 0xbc50d053bb469a43U, 0x3d986027bab9d19cU,
  0x3d85cc51bb079160U, 0xbc4dda5fbbb19a3bU, 0xbd0eb1ce3b90ed0dU, 0x3c6536273c9c977dU,
  0x3b68968e3d2ec2a3U, 0x3cc323f53c0e5a71U, 0x3d1ef1d23d830d56U, 0xbcd1c187bc6b66c8U,
  0x3ca5b2c1bc3073e6U, 0x3ceef3d53d2b644aU, 0x3cd2c48b3d1d30e3U, 0x3d946dcbbd23ee83U,
  0xbba4f7ee3be713f4U, 0x3bf6ceec3c99ba82U, 0x3959515d3d3e9f05U, 0x3cf9cd57bbede52cU,
  0x3bcd78f5bca4a6ebU, 0x3bb6c1683c96d9d3U, 0x3d92a13d3ca59ac7U, 0xbc71636b3d292bfbU,
  0x3ceb20533c85b3dcU, 0x3bec91cb3d8ff68aU, 0x3d368d9a3c9d599cU, 0x3d9520c43cc6a213U,
  0x3d6308133cbf3d48U, 0xbb8ae4fb3ad53136U, 0xbb8bffee3d3b9f01U, 0x3d77de7fbd071bd2U,
  0xbc59d03f3d014497U, 0x3b0751d13a3b4b81U, 0x3c8890913c804302U, 0x3cf33acd3d395e6dU,
  0xbc5d96a43d2d1291U, 0x3d80c364bc8167c8U, 0xbbbce4223c67f4eeU, 0x3abc18ad3bcc3ff3U,
  0x3d2c78a23d9473f3U, 0x3d6dc8223ba0a80cU, 0xbc92514abc538971U, 0x3d8961e2bdba4aadU,
  0xbb9b6cd63d27746cU, 0x3ba9b4083cb98a2eU, 0x3b0c33a1bb2eb1a1U, 0x3d1b42b3bce5cacbU,
  0xbb10f2e0bd21871eU, 0x3c8044a93c79f711U, 0xbc6f592c3d19d85dU, 0x3c433353bc87a9dbU,
  0x3cbc8187bc2bca41U, 0x3d1be5e13cc9541dU, 0xbd3fb9823d7e6235U, 0xbcbc47e9bd0b5f27U,
  0xbd09e6ccbc8cae73U, 0x3c3d4071bd426f5aU, 0x3caa6bdb3c31f4f4U, 0xbd544daa3d0852c8U,
  0x3cc3527ebd24123cU, 0x3d0e3410bd35a8baU, 0x3ca003923b72a62bU, 0x3ca58cfabcce8221U,
  0xbc4593f83c4293f1U, 0xba6bcabc3d0c01f7U, 0xbc98a341bd11d5f5U, 0x3d90b06c3b5d9f60U,
  0xbc3ea94f3d3f472cU, 0x3d1403e4bd689d7bU, 0x3d3e81813d1da24dU, 0x3d137977bcb0ae67U,
  0x3d3aa91cbcfcb2cfU, 0x3d241136bcd2545bU, 0x3d702f9fbc368240U, 0x3c411e4dbcd1f1a8U,
  0x3caa58253d5d2508U, 0x3d143dca3d0e8eaeU, 0xbc49910abc591fb2U, 0x3d8960483d404c29U,
  0xbdbaced43bd4e4ffU, 0x3ce2d022bcea5ac2U, 0x3d0562ad3d8b558aU, 0xbc60884ebc880529U,
  0x3d2c3f013c9d2d9eU, 0x3d064ccdbd8c1498U, 0xbbef024dbd3a70ebU, 0x3cef1248bd1080baU,
  0xbd5474303d7bb6eaU, 0x3d1fff423c006cf2U, 0x3c1341abbb82015eU, 0x3d4b6822bc1a2f0dU,
  0xbce37a4bbd02a34cU, 0x3aaf49acbd6f51a2U, 0x3d55f89b3cffd769U, 0xbc799cb9bc2e3e9aU,
  0x3d26661a3cc6cb6fU, 0xbc7afe2bbd236da4U, 0x3d0006d4bd4564a0U, 0x3d3ebf3bbbd9d0acU,
  0xbd71d88b3c923843U, 0x3d3f314a3c13443eU, 0xbcac60fbbd576233U, 0x3c9159313b3cfa0dU,
  0xbdab2b753bf5a68bU, 0xbcfe7fb1bd3210a4U, 0x3d8fcc1dba73f83cU, 0x3c109c78bb00ffc5U,
  0xbd000bdabb8f82d8U, 0xbbf86e9ebc132fc1U, 0x3d2d1152bd0b9ce1U, 0xbd08a0c73d3c34acU,
  0xbd22c7593c9356d0U, 0x3ccfed35bc2b694fU, 0xbd2235c7bcfa7838U, 0xb6be43a73cf5ee4cU,
  0xbc232e223d2ae5acU, 0x3d00e1febc9544a0U, 0x3d75a907bcb5b7f9U, 0x3bca45a9bd8f1cb3U,
  0x3bdb505cbcd2d958U, 0xbd000812bcbd8b7eU, 0xbb5199c0bd5775f5U, 0x3b8a4cdabb55a2f1U,
  0x3b6fda513c95c524U, 0x3cbccf9a3d5210e4U, 0x3d2083ddbcc21b86U, 0x3c0b47e33d14aebeU,
  0xbd0ba6c6bc4abeaeU, 0x3cbf2b4d3c579de7U, 0x3d8ba2f4bc8c469aU, 0xbd7d4c1dbcee6676U,
  0xbd828d26bbff98adU, 0xbd4e6d453d4b0faeU, 0x3d62e570bce214ccU, 0xbd7d11763ce5a2edU,
  0x3c697297bbfe30a9U, 0x3cbc7f4f3d106589U, 0xbc63f056bd08509eU, 0x3d792a7a3dba45aaU,
  0xbc1aabadbb97f400U, 0x3c665a8c3c5e2b7aU, 0xbd3da5a2bc4383a5U, 0x3c6756e4bd4aa7dfU,
  0xbdbd73d63bc44c34U, 0xbd38d6153c31d55dU, 0x3d8abf33bd00dfdbU, 0xbd5f36cd3cac7a3bU,
  0x3c871e8b3ca1005dU, 0x3d14787abc6456bbU, 0x3cb18de0bd648c6dU, 0x3d5fe5043d867398U,
  0xbcddfe113cf9a9f5U, 0xbcdcfadcbcdc4487U, 0xbcd64ee1bc15cf71U, 0x3d299346bdb2d70dU,
  0xbdd0e43f3d2c9d37U, 0xbc9075693ae375d9U, 0x3c432daa3bef7d50U, 0xbcf277a1bc78295bU,
  0x3b119ae63ca66098U, 0x3b01fb633cc86285U, 0xbd1c5774bc064d1bU, 0x3d8d4f9b3dc58858U,
  0xbcd226ad3cb1b4b4U, 0xbcb30d2f3b24a92eU, 0xbc98c44bbd02daa3U, 0xbba8e9e8bcf3132bU,
  0xbdd14f77bc35e1beU, 0xbd3b142a3c630352U, 0xbb878d533a2c1966U, 0x3a4b64cf3ce88273U,
  0xbd59c4ab3c0b57c6U, 0x3b97681c3c4a359dU, 0x3c2f393dbcc8b1d9U, 0x3bd5b49a3d90dfe4U,
  0x3c72250a3c383610U, 0xbaa289cabd0f127cU, 0x3c5ede05bd101d43U, 0x3d957ae9bd983c04U,
  0xbd52d2523d24112dU, 0xbcd6179e3d7dcb15U, 0x3c4425bebc06ef92U, 0xbd0e55763c64aac7U,
  0x3c6e48c4bc836a15U, 0x3d04166c3d0d113eU, 0x3d2c4b53bcf90a5aU, 0x3c0fb43a3bbc0cf7U,
  0xbd0d08e7bc00d3dfU, 0xbc1e719abd17170eU, 0x3c98e907bc89beaaU, 0x3c1fe767bcf614daU,
  0xbd18609b3d7f7474U, 0xbc08683e3d9a295aU, 0x3d8539ff3d11a84fU, 0x3c2a46c13b9bd84fU,
  0x3bc1f223bcc57e1fU, 0x3d17a3403d8614d3U, 0xbd48d9abbd0ec4ccU, 0xbcc3b6c23dca20f3U,
  0xbcc004253c4784aaU, 0x3d2ba3f53ca7397aU, 0xbd1660d43bff1098U, 0xbcca0aafbc37ede6U,
  0xbd4943fe3d307197U, 0x3b511b863d2bf1c8U, 0x3cf2a1cebc9f6681U, 0xbc30e9ef3cd36681U,
  0x3d5fdadebd13794cU, 0x3d199c043ceaba94U, 0xbc420302bc6558eaU, 0xbcddb2f13da3d88eU,
  0xbd1c0199bcb17e5fU, 0x3d192d013b83fe24U, 0x3a9284e33d02a0c0U, 0x3c452d1abcfcb132U,
  0xbd14ec603d1e0028U, 0xbd04d6313cc05a46U, 0x3d916b193d20ccebU, 0xbd9216cc3c83caa4U,
  0x3ca5ddf13a9047ccU, 0xbca173cc3b9d1377U, 0xbbdae478bd70e642U, 0xbd4e3b183d970066U,
  0x3b1321b03d0eaebeU, 0x3b3acea63c02b064U, 0x3d42909b3c88edd2U, 0x3d06928fbd065dcaU,
  0xbd973ac43d832df6U, 0x3d3000c33da246a0U, 0x3d5702d43d1ba47eU, 0x3b1538813ceb630eU,
  0x3d6cd7dfbcfb956fU, 0xbc7167a53c9fdca2U, 0xbc9351903c84f49aU, 0x3cf5abfa3c1173daU,
  0xbc88baf63cca2854U, 0xbc423be3bd2f3393U, 0x3d30444ebd0d4015U, 0xbc9f10aabd77c68eU,
  0x3d07e6d2bbdee3fcU, 0xba0f1bd53d1b2c8dU, 0x3d684ea9bc129dfdU, 0xbd886e08bc173a12U,
  0x3d02687ebc9c025aU, 0xbcfb310dbd4541a2U, 0x3c4e330f3d28b5d6U, 0x3ba86c813c415af6U,
  0x3d5d61f83dd4eccdU, 0x3d31bf183c48d7fbU, 0x3c4cd7513c33ea63U, 0x3d3fab55bb949dcaU,
  0xbc11aadabbae919fU, 0xbcff908c3ad0697dU, 0x3c3233843d220ae9U, 0x3ceb82213c7a7705U,
  0xbc348f243d798d48U, 0xbc9f29d9bd0409eaU, 0x3d8c8478bc04df0aU, 0x3d5d1e70bc7b900aU,
  0x3dafbe783da76aedU, 0x3d56d3f03d28819cU, 0x3d4d45613d667d7aU, 0x3b8858603c99d122U,
  0xbc83765cbce564bbU, 0x3bacc1553da23a37U, 0x3d2e910a3d4961c0U, 0x3c1a4e5ebc3d3108U,
  0x3d1018d53d8c45c8U, 0xbc9a45efbd80965aU, 0x3d2a25333cb20a2dU, 0x3b995a43bd203e59U,
  0x3d8f54ac3d2d1a86U, 0x3cd208a03d314257U, 0x3d3078393cb53e8dU, 0x3bcc87583d3365ddU,
  0x3d6d30993d22b0feU, 0xbbe9f8bf3d8e7423U, 0xbcf2ea973c01c963U, 0xbcf8b2aa3cdb0dfaU,
  0x3d0dfe3c3d4f7182U, 0x3d18eb4ebd0f32afU, 0x3d0723ecbcb4f3f9U, 0x3d0cdbc23c9d01a9U,
  0x3d8a66df3dd7c647U, 0x3b87e6053c9b95ceU, 0x3d81a3f13cf99d1bU, 0x3d812ed53bee4980U,
  0x3d3f4b863ce83449U, 0xb9eb7a9a3dafb1fbU, 0xbcd57ed0bb8db83bU, 0x3c05aa923c593da7U,
  0x3c78ea433d626717U, 0xbc84524bbd56ccf7U, 0xbc7c2761bd08d505U, 0x3cf15de3bbc19317U,
  0x3d86347c3d879270U, 0x3d7be843bcda4416U, 0x3d1ca2863d886ca2U, 0xbc4015a9bcafff91U,
  0x3d495b333b55463cU, 0xbc4a9243bb0228e1U, 0xbb5301203d0d4e7cU, 0x3cda05753d8ae096U,
  0xbc43d4b23d66ccf9U, 0x3d0b0478bba27dbdU, 0x3ca3fd99bc0221daU, 0x3d10dfd5bd07890fU,
  0x3c6fb3d13c7cf673U, 0x3913c8fdb8f31d6fU, 0x3d34fce03d54b57aU, 0x3cbfd0253d218d5eU,
  0x3b1412883cc34f82U, 0xbc103dbb3cd9293bU, 0x3d4bd45b3d2d8ba6U, 0xbbe81652bd2c34c7U,
  0xbd7e1b8dbb79ef1cU, 0xbcb111e7bd2f19c8U, 0x3c8663723b5173fdU, 0x3c0e24db3d7c09dcU,
  0x3d8f0797bb01b4ebU, 0x3cad3dad3d7fe28cU, 0x3c099c833d2d012eU, 0x3b6cd28b3b918c11U,
  0x3d8580f03c0188bbU, 0x3c5b24e9bd106c6bU, 0x3d2977f23cfe6613U, 0x3c0db415bb7f8ff6U,
  0xbd727a2dbbc2edc8U, 0xbca80573bc91a8e5U, 0xbbdcee8b3bf19633U, 0xbc2a0c5e3d97ce3eU,
  0x3d283ae13d1b22a8U, 0x3c5e71f0bc190f7eU, 0xbd7194a3ba3bbd6dU, 0x3d429fb83c1cbe4eU,
  0x3ca3d2cf3d4d2262U, 0xbbc688af3bcdb347U, 0x3d90b6a13d2a496aU, 0xbd24bf3c3cd1f79eU,
  0xbd680ec0bdaad27eU, 0x3d1631173cb0ffebU, 0x3d1ea7533ce0b97dU, 0x3c00556e3da324beU,
  0x3cbe08b13cde8c9cU, 0x3c8b555f3d36e1a5U, 0xbca2481b3c9882a2U, 0x3d8d4927bd0527c8U,
  0xbc26fc163d9626ccU, 0x3cc075b03c0fc3e4U, 0xbc8ebbfb3d435596U, 0xbd0b7b89bd175581U,
  0xbb450cc6b9ad9067U, 0x3cce9f443cd7bfc1U, 0x3d7cccf43cc75890U, 0x3c5b8c73bcfdcbc6U,
  0x3d75465a3d6232d8U, 0x3b47e7e33c63d29fU, 0x3c128df2bcf9a5acU, 0x3d281358bd397d5bU,
  0xbbc706d83d84626cU, 0xbc17d2993d0389e4U, 0x3ccd8fb73c6a3e7dU, 0xb9b424d7bca4c496U,
  0x39a92b1bbd07267dU, 0xbd6eefe7bd17affcU, 0x3c2b0d3fbb00d769U, 0xbd0b89fabcab3e1cU,
  0x3d11855a3c2e5714U, 0xbcc6455fbbff57c3U, 0x3c6dbe2cbc17179eU, 0xbc6061ba3cb10ba6U,
  0x3d6a113b3d0e4d9bU, 0xbc9544e3bc7ca819U, 0x3c3c593a3b34fffbU, 0x3c6113753d01a06bU,
  0x39565d9fbd201304U, 0xbd6b31a2bd114bcbU, 0x3baf9a0fbc9dfb07U, 0x3c059d9a3ce8dce0U,
  0x3c616166bc8e3b42U, 0xbb2cb9c83d7979b4U, 0xbd73da82baa46943U, 0x3c87e509bbf71bedU,
  0x3afc9a893d308099U, 0xbc12cb4d3cdc7947U, 0x3d72c72a3d1d2c59U, 0xbd3639423cf3b31dU,
  0xbd2d13acbd2057a6U, 0xbd4e73edbd669c86U, 0x3cfe9105bc13c7d7U, 0xbd7db4aebbd72b02U,
  0x3d6ab791bce747a7U, 0x3b3f6bcc3a9fa448U, 0xbcf50e8dbd90ee99U, 0x3ae53e463cd364f7U,
  0xbaf35cd63c90e5bcU, 0xbba053a73d0146cdU, 0x3d3c6d1dbaf19c50U, 0x3cadc63c3d6e70a7U,
  0x3c6ce6edbd028c61U, 0xbd3ed617bcbdb04cU, 0xbcef5b623d533dd8U, 0xbc0479dcbb64c547U,
  0xbc2746b2bc0de7c2U, 0xbd8d22693cb8fe41U, 0xbd772aa5bd8084abU, 0x3d1076743c795564U,
  0xbbb8245bbd159bf9U, 0x3c36b7ab3c800bc7U, 0x3d6370143cec00c3U, 0x3c45f70d3d1c4442U,
  0xbc50da0fbc18a8e6U, 0x3ccdfad33cbeb159U, 0xbc35edf73d461627U, 0x3a94af46bd11829aU,
  0x3c489e4d3b0a48deU, 0x3bf4bf363d3db54aU, 0x3c1ef2c93d6101baU, 0x3c65290f3d59fb4bU,
  0x3b6eace43d278bcfU, 0x3d2289a1bc444f2fU, 0x3caa29ad3d2f9242U, 0x3a8eaacf3cab0468U,
  0xbd4ec842bba17afbU, 0xbcfe41d2bd59bd22U, 0x3d417f143d75af41U, 0x3c86f9023ca93c28U,
  0xbb877ee2bd84cf1dU, 0xba8644833d9044a4U, 0xbd8e44aebca14b96U, 0x3bbc28a93c3daaffU,
  0x3cf717843cf79d6dU, 0x3d11a021bc9c98f2U, 0xbd0601c43d639f32U, 0x3c35261a3d4d5acdU,
  0xbca4c1e4bc1cbf13U, 0xbcdb66b63cad2620U, 0x3d80eb603d0184a7U, 0x3d2c5deabcf4a270U,
  0x3c76f1b9bd862b1dU, 0xbd52c578ba4fc3edU, 0xbda1ceedbc249fefU, 0x3c513cf43ae347ecU,
  0x3c36add8bb4fe7feU, 0x3d06bc83bcb7887eU, 0xbd6c309abcba28f3U, 0xbcd43e0e3ccfbdfdU,
  0xbd3a0003bd033be2U, 0xbd10a264bc2d5b75U, 0x3d22c3ea3d9014afU, 0x3d402542bc911b93U,
  0x3d8ef91abcb57ca6U, 0xbdbd24333ca2cedfU, 0xbd7e34be3cdc1e2dU, 0x3c9b01773d085978U,
  0x3aef6a113cba4c9eU, 0x3cdab973bc59bfceU, 0xbce3f0ae3cb74b4bU, 0x3cc2f1823d83af35U,
  0xbd7ea950bd0980b2U, 0x3d4992183cf764cdU, 0x3a8010343c21e911U, 0x3d7317393b8ce1bbU,
  0x3d753ab0bd140662U, 0xbdce7de73d6c53b1U, 0xbcf00e3e3ca7c69dU, 0x3c8842a8bc8eb97cU,
  0xbc5c624a3d0ddc06U, 0xbc8bcfb43d0eaaa4U, 0xbcea6b05bd21af2bU, 0xbc6c75c13cd37f8bU,
  0xbcce83a3bc01a8c2U, 0xb90b03ca3c5c98cdU, 0x3d49fe783d82d057U, 0xbbd7cf2bbcb14e14U,
  0x3c547cc5ba0505b3U, 0xbcfcb5c0bca83a87U, 0xbbc8e5143d3eb80bU, 0xbc9cf59c3ca27a56U,
  0x3d192d06bc358ec5U, 0x3bc7fab7bc97ec51U, 0xbd0957533d633395U, 0x3d782e563dc46962U,
  0xbd423c823c878c08U, 0xbd3542fa3a604ca8U, 0x3c5abf1f3d27b6acU, 0x3d1334053c031de3U,
  0x3c25d62fbcfa80d3U, 0xbd35dac23cc006b1U, 0x3c2c79ee3cee2b56U, 0x3d2852aabca7c9f5U,
  0x3c0e0031bc9eecbeU, 0x3d1ef67ebb97c5b6U, 0xbc5f17de3c425053U, 0x3d320940bd07bb92U,
  0xbd8d40e8bd83597eU, 0xbc4374a13c01a5c3U, 0x3d70645b3c92ebf6U, 0x3d908c693cd56ce3U,
  0x3d309695bc8c4465U, 0xbda3cb513d995105U, 0xbd2b7b1bbbde1e46U, 0xbb0c50623bba9a58U,
  0xbd3073a3bd0a4f05U, 0xbac088083d2eb03bU, 0xbd5ea2303c8f670aU, 0x3d105457bd0b64f9U,
  0xbd230939bbd2af66U, 0xbcd4bccd3cc60745U, 0x3ce478903d6b4edfU, 0x3d40ff873d76622fU,
  0x3cdb8aa03c4ee731U, 0xbdb2e4333d8ee3e3U, 0xbc95184d3ced2385U, 0x3ceda1c03d444f7eU,
  0xbc8d4930bd1f9f16U, 0x3cf84e543d0988abU, 0xbd4c19323da08b59U, 0x3afa4be53c17c45eU,
  0x3a31e48ebc3f4b21U, 0xbc983b603d11eaf6U, 0x3cca424e3d440c57U, 0x3d73ff583d4f72adU,
  0x3cc45a8abcf4a003U, 0xbd812b9f3d863a53U, 0xbd981de8bcb98c9dU, 0x3cd3e61d3d1a9d37U,
  0xbd2009d1bd991b35U, 0x3d4c10eabbff7751U, 0xbc3aca413d3e3518U, 0x3d51a25b3d094419U,
  0xbcf1fababd33797aU, 0xbcf137153b54d430U, 0x3c0f400dbb56addcU, 0x3c6be493bc5e2e7eU,
  0xbbb918d93c978826U, 0xbd4860023b3e6213U, 0xbd8c3b2e3da11017U, 0xbc8755b73d847b35U,
  0x3d6f8ee9bcb006e1U, 0x3c6cc7b7bd20f983U, 0xbd598b4c3d445360U, 0x3d956a9f3b88e56fU,
  0x3d1e54bb3cda745fU, 0xbbaf6b103d7459f7U, 0x3c84ab0e3c563814U, 0xbc8bc3c9bca5b7b2U,
  0x3d2e27ab3d0786a1U, 0xbcb262f53c8828dfU, 0x3d363ba7bd3b34b1U, 0x3d5022afbc8ac0d3U,
  0x3cd69c47bbb42b73U, 0x3d288ebebd097992U, 0xbc5097463c043a08U, 0xbd7572c73d4f84f3U,
  0x3d017100bd4d80abU, 0xbc4436d53cf80464U, 0x3d32039dbca86b37U, 0xbcb8d72abcd0c6c8U,
  0x3c5f36973ba20d89U, 0xbc3772dd3d17c241U, 0x3d768bf4bd730c89U, 0xbc85e3e63cb147cdU,
  0x3d55ee883d7c3bc2U, 0x3cee269bbcd39a6bU, 0xbc4d6f363a95efffU, 0xbb3d97bc3d0b8953U,
  0x3c202f603b613035U, 0xbcc876c9bb9c1aa1U, 0x3ce92eedbc319c59U, 0xbd450b11bb4cabacU,
  0xbcada0793cb6e08cU, 0xbbc7d2d9bafe9351U, 0x3cd61633bcbfb33cU, 0x3c8353783b8b0b23U,
  0x3d59506ebbd2f371U, 0x3ccfeec3bd34a0eaU, 0xbcb00efabd416f06U, 0xbc8ab09a3c3cc352U,
  0x3d03bf97bcd094ffU, 0xbd796a87bc805eabU, 0xbd12cf833a81dce0U, 0x3c7eef36bcea3c1bU,
  0x3d1eaaaf3bbf23a8U, 0x3c20b3aebcbfadc9U, 0xbc9bec18bd17a7a5U, 0x3c02ca8cbcd2769aU,
  0x3c37a14e3d6de19aU, 0xbcdf1e42bca67e9aU, 0x3d6f01f8bbfed4e0U, 0x3cdba82e3d67479fU,
  0x3cd16f4c3cd2546bU, 0xbccd7e233c019ed6U, 0xbd1e1827bc788baaU, 0x3ceb613a3d2bea4aU,
  0xbcf434513c5a48f5U, 0xbce807b23d585d2bU, 0xbccfcc73bd3a4bb0U, 0x3d1f38d73d1cce20U,
  0xbc33f7383d747178U, 0x3d542bbf3d099353U, 0x3bc2d026bc4142b5U, 0x3ca46b643c84d0e2U,
  0x3d8ff06bbbcfcc32U, 0xbd9fda10bc48a02aU, 0x3d3ae4013d54838cU, 0xbd46c396bc4fc285U,
  0xbc459c71bb7de925U, 0x3d54ed833cba88c6U, 0x3cba305fbcb47857U, 0x3bd5117cbbde3e50U,
  0x3c96dd19bbb6bce4U, 0x3c676d963d989b8fU, 0xbcb5c605bb4bdeb0U, 0x3c4b16db3d8a664bU,
  0x3c95e116bc20d69aU, 0xbd1d149c3cfb7813U, 0x3c19d93abc8b30e1U, 0xbcca2dc6bcfad518U,
  0x3ca0919abc41de81U, 0x3d7dee1f3c426e7dU, 0xbc6b1582bc83049dU, 0x3d24f381bc13f772U,
  0x3c147796bc66d1bdU, 0x3cee06cb3cce5e46U, 0xbb81a3243bef240aU, 0x3d5d11ab3c91a9a6U,
  0x3d50b6adbc0dfb2aU, 0xbd945b2c3cf96c69U, 0x3cd9cc96bc805a20U, 0xbc3d9cc63a046357U,
  0x3c9f5dc3bade07baU, 0xbb8b6c713d719217U, 0x3c89b240bd86092cU, 0x3d2371a73b910bbbU,
  0xbc9727fe3d0cd5daU, 0x3d08e3053d270a38U, 0xbc07f822bc63d637U, 0xbca05fda3c8f0af2U,
  0x3d55416b3d878a16U, 0xbc461a0bbc9976f1U, 0x3cc8d0253b91f06cU, 0xbcc47fee3d409223U,
  0x3b9dda013b82da20U, 0x3d7c70123d926626U, 0xbd176ba2bd7e8185U, 0x3d2209c6bc93f12bU,
  0xbd28ac563d50b481U, 0x3ce1ab803be4cae5U, 0x3b282ba3bc0e95feU, 0x3c92d0173d3ab66bU,
  0x3d8f3c463ca29c61U, 0xbc996b393d54dc6cU, 0x3d92efbabcc47570U, 0x3c51ac663c432dc3U,
  0x3ce2256b38199ef6U, 0x3cc71d193d195c71U, 0xbc14ebf9bc04f9a7U, 0xbb5284083d4b99b5U,
  0x3d7505fcbc3079b2U, 0x3d05a707bc22b2cdU, 0x38068df03cf155b2U, 0x3ce9d8993c85f159U,
  0x3ce818ee3bd0a706U, 0xbd8cbc263cea8780U, 0x3c7ffd9f3b2684b7U, 0xbd2bcac43c3f2389U,
  0xbb6b471abd11e2c9U, 0x3cea5af33d0b0c12U, 0x3d8c2ed4bd3312b4U, 0xbd2a6358bcb57c06U,
  0xbb386de3bce25763U, 0x3c19585c3b9e73c1U, 0xbd2825993d1aba8bU, 0xbcd469df3d904ee5U,
  0x3d55d32ebc0b97b8U, 0xbd7e2bfd3d169420U, 0x3c1735853caeb6b0U, 0x3cb12b3c3aa3db1cU,
  0xbc8fb2cebc75fd45U, 0x3d481be7bc20e29fU, 0x3cb30eb1bcae9f4eU, 0x3d0ab11bbcecfe6fU,
  0x3caecd5e3c4650a4U, 0x3d005b76bd10ccefU, 0xbda8435bbc1017ecU, 0x3c58d14e3d480343U,
  0x3a88ee913d026e57U, 0xbcaf81333db33a3cU, 0xbbcbae8dbd232a20U, 0x3cef03debd406cedU,
  0xbd47cf56bc2de59cU, 0x3d1b711a3d156443U, 0x3c0383e13be19e06U, 0x3d6d18273af6f4e7U,
  0x3c8f3f31bb1e9e20U, 0x3d710c373b291968U, 0xbdbb2b6b3b560d87U, 0x3c9d61593cf506e6U,
  0x3d21fc283c879197U, 0xbd46a0c83da857deU, 0xbb18e27ebd8fffcbU, 0xbd77519fbb9aa1a2U,
  0xbd00ca5c3cccb864U, 0x3b97a1f0bbaf4bc5U, 0x3c8dbf56bcf6a76eU, 0xbcc4fea3bd7cedcaU,
  0x3d8299193d0189f0U, 0x3ce968f6bd3c38deU, 0xbd002e9abd30ce4bU, 0xbd6322423c9c8b4eU,
  0x3ce58c3e3b4bf8e9U, 0xbd05a4a13c5016eeU, 0xbbdf1d34bc4bd94bU, 0xbcc1d2433bd08074U,
  0xbd12bc333ce5004aU, 0x3c3d73433c1028faU, 0xbc727ba5bd3c663fU, 0xbc6a2b043bbe657cU,
  0x3d9bdfb3bd415dbcU, 0x3d9a7966bd013f14U, 0xbc135f8d3c70857aU, 0xbd67e7743da27df1U,
  0x3ca5ec143d07ca29U, 0xbd284423bc3d3afcU, 0xbc07ba8d3bca9ec4U, 0xbd090fc0bd4e7b21U,
  0x3c02db71bc09a399U, 0x3d12aec9bc214373U, 0x3abcd8a9bca9c10eU, 0x3d1f9b2ab989da74U,
  0xbb1940e63d21a689U, 0x3bd1ec973c71aaf9U, 0x3c1cb70c3cf0fb14U, 0xbcd69a6e3c98114fU,
  0x3d82216c3db591a6U, 0xbd38f21fbc566f07U, 0xbc240ba2bd707224U, 0xbd148d05bd6393a0U,
  0x3c81f8bb3b7c4a82U, 0x3c0ee825bb67e9f2U, 0x3d4b8a6fbd353366U, 0x3ca7dcfebd1c858aU,
  0x3d944adf3d7cd0bdU, 0x3d7fdc35bd7757b9U, 0xbd454628bd1168e7U, 0xbcc42f563cc813cbU,
  0x3d4130473db573edU, 0xbdb5f43c3d346ec5U, 0x3d3bd116bcaf1b7eU, 0xbda583efbdb46096U,
  0x3c62f89cbc16508aU, 0x3c2223fbbcb80b51U, 0x3cb3fc09bc9c7410U, 0xb9e86383bd42e90fU,
  0x3d9542903ca411efU, 0x3cabe6a8bd11862dU, 0xbd47d7493d08f1e2U, 0xbd5ab15c3bbfb382U,
  0x3d2c9ead3d8eacc4U, 0xbd92ca853d6b8975U, 0x3be8f1fabd656c77U, 0xbc5f8845bd244fc9U,
  0x3c16aded3cccb186U, 0x3d24641b3be2b21cU, 0x3d8f30f5bc802f8cU, 0x3cb2f9e4bc9e1a88U,
  0x3d9bbfc73d4e05d8U, 0xbc055cb9bd79ea38U, 0xbcdf9278bce0a103U, 0xbc3ea9de3d3c2d79U,
  0x3c6d5cdd3d59b934U, 0x3c4934c3bc2bf644U, 0x3d8d8d1d3c018248U, 0xbce706ea3c7183d2U,
  0xbc2a2ac83cec6d2bU, 0x3d3545a1bd64b7dcU, 0xbb7649a3bb1b99dfU, 0xbb50aacdbd1579c2U,
  0x3cefc8af3c31481eU, 0x3d295aa9bca53a23U, 0x3d25f5a8bbd5a15aU, 0xbd57cf663d4d3e6fU,
  0x3d39a80d3d766a39U, 0xbd89ed793b778b27U, 0x3c899e723c300518U, 0x3b86b478bbf4bc9fU,
  0x3d56a92bbcf3237fU, 0xbd0705f93cefff9aU, 0x3ce0ac563c91725fU, 0x3d209dee3c519303U,
  0x3d8065973d560426U, 0x3d1b9d6cba049b4aU, 0x3c3f1318bc8436a9U, 0x3b1a9e6d3d2d8942U,
  0x3c27ee623b31bff7U, 0xbbf44f1bbcf15af1U, 0x3cd60ed3bcaca4d2U, 0xbc188213bd8bb500U,
  0x3b109e19bbbb1dbcU, 0x3c8cfb33bc2c6d8fU, 0x3cc92149bd86e06fU, 0x3c63edd0bd6865aaU,
  0x3d9ee0f33d599042U, 0x3a9bb846bd910078U, 0xbda70c8f3b253de1U, 0x3b1400ef3d027cd7U,
  0x3d94182a3d373bb3U, 0xbd6a3284bc0a82d2U, 0x3db97ee3bcd9f07dU, 0xbd32d3a6bc3b8fbbU,
  0x3d5f06c33ccf01bfU, 0x3d266022bce32620U, 0x3daf7b03bda46226U, 0x3d3e18bcbbf3f2feU,
  0x3d1b868e3b161069U, 0xbc8e9b98bd43fffdU, 0xbd8a15533c04a220U, 0xbd1e4897bcc66356U,
  0x3d193ffe3d89daf2U, 0xbd86217fbc179984U, 0x3da1a071bd182548U, 0xbd135cfbbc6037d3U,
  0x3c8bbf7d3bc9a5fdU, 0x3d05b3efbc5291deU, 0x3d2af08abd182c3eU, 0x3d0c01f6bd285136U,
  0x3d438f723d4338baU, 0xbbc1aec53bbed331U, 0xbd649b1e3cc7c736U, 0xbc7cce6cbcd267bcU,
  0x3c5329243d5ec223U, 0xbca85ba93c9ccab9U, 0x3ceb80cbbba31215U, 0x3c0f1bb4bc55aaf4U,
  0x3d0fdc313cd85bacU, 0x3d608cec3c1713efU, 0x3d894636bb92547aU, 0xbc99515cbcc1e52dU,
  0x3bcdf9203cac8de8U, 0xbbe120ebbcfd985bU, 0xbcfd61c13c470191U, 0xbcd6b1fb3ccd923bU,
  0x3d4ef54e3d426863U, 0xbd64c7873d17d9b5U, 0xbcd3bd5dbd7747a3U, 0x3c2fcc8e3d302099U,
  0x3c9fdb2fbcf60c59U, 0x3c90f4663d1abad4U, 0x3ab47d8d3ccee49bU, 0x3c64388fbcadf3ecU,
  0x3cc1a1853d79932aU, 0x3cd0ab02bd0f259cU, 0x3b04a5ffbcf9ffb4U, 0xbd834d523ce1533fU,
  0x3cc900b6bd3a5067U, 0xbd7c8bde3d5ee65fU, 0x3cbe6cc53c2902a5U, 0xbd21d0f93cc578e8U,
  0xbd7268f4bd573957U, 0xbd318e083d3f4954U, 0x3d2e41fcbd742495U, 0x3d52fa70bbb052edU,
  0xbcbb47b53d3bb6f8U, 0x3bd62a4ebc8df2a8U, 0x3c0d3019bd9c3548U, 0xbd1a9328ba93deefU,
  0x3d2742c3bd676fd7U, 0xbc823c0e3d5d4bd5U, 0xbcfdba2bbc14ab46U, 0xbd636811bb17f36bU,
  0xbd6774d1bd291deaU, 0xbcbd40c93d15bd96U, 0xbc5ea321ba84ccc1U, 0x3d136a9f3ce2a9a2U,
  0xbc5a0c623ca3c394U, 0x3cc28b80bd36c02bU, 0x3cef9036bd3ac0eaU, 0x3be9dc5a3d35f389U,
  0xbbc2db4ebd955508U, 0xbc8ff6e13c9871a1U, 0xbd2a26223ac9c246U, 0xbd7487ec3d824269U,
  0xbda6e2acbcda590eU, 0x3d1d97013d306700U, 0xbd38671bbd274747U, 0x3d31233fbc0ac2c1U,
  0x3cf73d353c24dd98U, 0x3c8ab349bd885cecU, 0x3d605624bbdb6ad9U, 0xbcc88f043cebbcb9U,
  0x3d81e09dbca68e9cU, 0xbc8b4341396852a0U, 0xbcf3b1d3bca762ebU, 0xbc312c73bc3807f1U,
  0xbd09f1cdbd6b5c23U, 0xbc2795ef3ca91369U, 0xbcb8bad73c460bffU, 0x3d6ee7c33d1cf705U,
  0xbd1c08a23c9c575cU, 0xbb88bd74bbf3107bU, 0x3c96f383bd24edbfU, 0x3b4198ec3d23e791U,
  0xbb46506abd8a8027U, 0x39bf0c7c3cf4cbf8U, 0x3d2fbb0a3d2bc410U, 0xbd380d103bc3b25bU,
  0xbd0594913c031cdaU, 0x3c2af90f3c9b33b4U, 0xbcb84322bd8351b0U, 0xbccc499dbcef284fU,
  0x3b9701e23c8cc290U, 0x3cc96f4c3c8856b8U, 0xbd7cf144bd043124U, 0x3a7bed113d1e473eU,
  0x3d6fb4603c9e7338U, 0xbc9fd0913ce3450fU, 0xbd24482fbb28d7e2U, 0xbd04145f3d25ca26U,
  0xbd81fe3e3bd738cbU, 0xbb6fd2143b64e217U, 0x3c944573bd0140bcU, 0xbd6fc6c6bb58dd28U,
  0xbd7b03613d0bd843U, 0x3c8ce77a3d1aece8U, 0xbd0cb805bd490847U, 0x3b63e0ed3d152473U,
  0x3d42df1c3d487d76U, 0xbc779ccb3d3c3462U, 0xbc9242f83d19128dU, 0xbc8555943d0dfcadU,
  0x3ce99598bc57dadbU, 0x3c51ed69bceb5000U, 0x3cc64ac0bd65180cU, 0xbd5b5033bc5c50b2U,
  0xb8f469d43b6359b7U, 0xbd18e3cc3cedd9adU, 0xbccd0616bd069783U, 0xbb6e34b53d6324cdU,
  0x3cdac0eb3d47d580U, 0xbc90bf9dbcb11728U, 0x3b1ca6f23d274be4U, 0xbd9871633c4ad750U,
  0xbcbe47afbc311139U, 0x3d8134b03d26bc29U, 0x3c4cb71abcfb4421U, 0xbccae1abbc11d048U,
  0xbc7fe6b7bc4b7d98U, 0xbd42c5ca3d4f5858U, 0x3bcba3d3bc8d51f1U, 0x3d0d1f913da8dc84U,
  0x3d007923ba200e3dU, 0xbc4147e7ba1d3d02U, 0xbba92f1a3d10d203U, 0xbd6464203d3c2039U,
  0xbcc7b19abc1a2653U, 0x3d976b363d765eb8U, 0x3c840d923ce2a32eU, 0xbc8d14b4bc59c0b8U,
  0xbcbc60cdbc163786U, 0xbb9ba6b73caca163U, 0xbd1d375fbd49f360U, 0xbcc8b6423d3611f1U,
  0x3d26d1a43ceae14cU, 0xbcc8bf4f3dc0fb2aU, 0x3d463394bb042a55U, 0xbcf5383a3d16fcf0U,
  0xbcd26c863d65547dU, 0x3d811f91bc4e900eU, 0x3d0414c63bc00a87U, 0x3c3e0d2c3d2a25f7U,
  0xbd0895423b9da423U, 0x3cf30e403c8413adU, 0x3c2e86c63b2374deU, 0x3b8abe113d19a48dU,
  0x3d0da44c3cff2ba0U, 0x3b839ff63da54732U, 0xbca722633c77c03dU, 0xbca1fcb2bd0bc34eU,
  0x3c2950103d3b47edU, 0x3d7c13633b9dd265U, 0x3c8605ad3c9ad7d7U, 0x3b9e012abc880af3U,
  0x3bc6bf15bcfec2a1U, 0x3cd40b3cbc6b3975U, 0xbc1ba09b3cad50beU, 0x3d2d4e83bc714d97U,
  0xba2d9eddbbba60e5U, 0xbccf38673c0006c9U, 0xbc70f30fbd5ccfcbU, 0xbd4df0713c6a90d6U,
  0xbc12320a3ce3d659U, 0x3d616f7fbd0825e9U, 0x3d98a66d3ba36e68U, 0x3ce36fb8bca95e5cU,
  0x3c9b57c33c82bfcdU, 0x3d6763b13cd6c72eU, 0xbba2eb67bcf7e071U, 0x3d1b91c43d0cf42bU,
  0x3ccd19103caea01cU, 0xbb71c3d43d83e270U, 0x3c18c6a3bccc56b1U, 0x3c4f1b76bc831a06U,
  0xbce7a32e3cf38704U, 0x3d91b7b33c99bc6fU, 0x3d050409bcfd742dU, 0xbc3a8f413ce74132U,
  0x3c0eeb54bbe75fe8U, 0x3d4a903a3a891774U, 0xbdac610d3d1b2f1aU, 0xbc5b4e713d154d41U,
  0x3d0ceeff3c4fd9cdU, 0xbcbda3783d4a4ed5U, 0x3d84a97c3c498c1cU, 0xbc09be4bbcbd302aU,
  0x3cdcdeb83cb3ed09U, 0xbc24e8023c2654f5U, 0x3ce8b635bd7c71b0U, 0x3cbdeeee3d139edcU,
  0xbb4c38513c31ff6cU, 0x3d507f37bd2a3ba8U, 0x3d4819f23cb09874U, 0x3c259e88bc909eeaU,
  0x3d27b7fc3d047046U, 0xbd01cd873d27b5bfU, 0xbce08891bd71747fU, 0x3bbc25a8bd768d14U,
  0xbd08d50c3d24ad38U, 0x3d8e5d52bbe455d0U, 0x3ca980dc3d2bd647U, 0xb9f8c9783c8b671bU,
  0x3cd4c1513d30a933U, 0x3ccbe25d3c91bedcU, 0x3d02e9de3d4b24fbU, 0x3d22b130bd5e714bU,
  0x3cf566a53d5f36aaU, 0xbd9748593d428babU, 0xbce828bc3b2af198U, 0x3ae5b4b6bd012b72U,
  0x3c91cf273cbd5401U, 0x3cc1605ebd943ad8U, 0x3d0e86963ce91385U, 0x3c510de3bc461d44U,
  0x3d6861a33d5a7a42U, 0x3d6016b1bd3adc0eU, 0xbcf89e5c3d190260U, 0x3ca62e3cbd211c39U,
  0x3d49df643d66175dU, 0xbd1511123d0d5f56U, 0xbd3583ce3b370983U, 0x3c3222acbd97598cU,
  0xbd16f22a3d3221a7U, 0x3d260e44bda03dbcU, 0x3d48ae98bd4613e0U, 0xbcbc95ed3cc88f7dU,
  0x3d3aa76dbcc399bfU, 0x3d61af293bae12bdU, 0x3cda72963c5790b8U, 0xb9c6d8413c90464aU,
  0x3c89b6e33db8f365U, 0xbc750bdd3d0b26c3U, 0xbd40ff8a3bc919b5U, 0xbd1c671fbb359785U,
  0x3c875025bc0fb063U, 0x3d23d3dfbd8876fbU, 0x3db1130a3c1432afU, 0x3c742675bb89d937U,
  0x3caedff13d1f6be6U, 0xbc158a94bd2c92cdU, 0x3caa85663d22f1b0U, 0xb9dc3d97bd1a631fU,
  0x3d9c19a13da1eaf2U, 0xbd3a41cdbb06971eU, 0xbd031956bd6a1fe5U, 0xbc8c4a6d3c509968U,
  0xbba0be78bccafe79U, 0x3da78021bcc4b979U, 0x3d0b3266bd4f1bbcU, 0xbc8960293cdc8b08U,
  0x3d3fdd653d014c68U, 0x3bb7935d3aa660ecU, 0x3ca3c6673c127832U, 0xbcfd56f6bd5300a4U,
  0x3da52ddc3b265eebU, 0xbd3666dd3c3b37ffU, 0x3d161118bc15f04bU, 0xbce0b8e5bd6ab7bbU,
  0x3bdc333dbd1281f9U, 0x3d0ed2acbc5f862aU, 0xbbfc7154bd459641U, 0xbd19103b3d3ee49dU,
  0x3b0085bb3d746dfbU, 0x3c42887bbd37aa38U, 0xbc881f90bcb4ef91U, 0xbd4a086abcc0ded2U,
  0x3d56012d3d9e1874U, 0xbd16d996bc640db2U, 0x3c162fbcbc8a4bbcU, 0xbd665b9dbd8815c9U,
  0x3cf45f913b1103baU, 0x3d9e569dbcc72561U, 0x3d8cd9f0bd44775eU, 0x3d493c0b3d0e8582U,
  0x3d389f613c7e1245U, 0x3c76a690bd5f5087U, 0xbc41237d3c0de036U, 0xbacc05e63c9fb99aU,
  0x3d87be683da184cbU, 0x3842da143cd21837U, 0x3cdd4c7abc82b11dU, 0x3cb12992bce2091bU,
  0x3d0d16593d628d31U, 0x3be45887bd0fc88aU, 0x3d801d343c0e14f1U, 0x3bb8956abbb743f1U,
  0x3d82ef173b4f4d19U, 0x3cbce592bd9544dcU, 0xbd726289bc099df8U, 0xbbc35fd73cf3cc60U,
  0x3d8840683da3c2e4U, 0x3c41e7a33cbd33bbU, 0x3d78b2f8bd94f1abU, 0xbd25ba15bd332ac1U,
  0xbc8da8da3d72427eU, 0x3c4cacffbda952bbU, 0x3c69a121bd6eee52U, 0xbcc6ec91bcef0a41U,
  0x3ce9d1103da9e226U, 0xbd470536399952d2U, 0xbd8035b2bc28a137U, 0xbcdc8b5cbc8a90afU,
  0x3c2bc6443c93cfafU, 0x3c1d59f5bcf079c9U, 0x3d957b41ba1a0043U, 0xbc9bc8953d216717U,
  0xbcb54dcd3b61ba82U, 0x3ac4fffdbd62df46U, 0x3d10077bbae0872eU, 0xbc5a0ad8bd38e813U,
  0x3cf4f331bc04e406U, 0xbc4b48dabd079e7cU, 0x3d0ab509bcb527b2U, 0xbd5b2e903d23bc4aU,
  0x3c9bafa13d1a8d72U, 0xbb6cbdb1bd566e09U, 0xbb1f38b43d90dd07U, 0xbcd6ba8abd22f5aeU,
  0xbd36213c3c5a1e67U, 0x3d025496bd1349eeU, 0x3cdf843d3cd9285dU, 0xbc62f36e3d530aadU,
  0x3c1a35a5bbafbbc8U, 0x3d0be5ac3d729e73U, 0xbcac77aebd0404b3U, 0xbafce1813d03eadaU,
  0xbc3446413d143f9aU, 0xbcaf26223b68d59cU, 0xbd0898c23cc71632U, 0x3ba3db993c0e46e3U,
  0xbd35a1123c00fa42U, 0xbc6e56c53c22a75dU, 0x3cae9ffe3d738c2eU, 0xbd0bc3363d0264f8U,
  0xbc80c38abca17042U, 0x3d3783413c4f071bU, 0x3ca494783cb589b8U, 0x3c33c5ce3c81dd49U,
  0x3d5ac972b9a158a9U, 0xbca2b43fbcabf7ffU, 0xbd7a574e3c3718d5U, 0xbd7c36883c0a65d9U,
  0xbc735e40bbf71073U, 0xbc9cbb213807dde8U, 0xbc83bd813d49445bU, 0x3b7249543beb1174U,
  0x3cc78566bc68cc32U, 0x3d22d474bc6cf45dU, 0x3c53e046bd1c9ceeU, 0x3be049573d1caa19U,
  0x3d7883f63cd4ae2cU, 0xbd6b7b27bcb4c76bU, 0xbcbaf66e3d0c8279U, 0xbcbf7472bc955aa0U,
  0xbd5be04e3c0a8d09U, 0x3c65c228bc9a58c1U, 0x3d49da1b3d797875U, 0x3cdcb1263c654d81U,
  0x3d00cb0b3d021e69U, 0x3cde812bbc548712U, 0x3ca29030bbf7c56eU, 0x3d194e39bb507413U,
  0x3da8bc2d3b986337U, 0x3b2bce51bb55fd65U, 0x3ca85d683cc0f9d8U, 0x3cc9dace3d193f5bU,
  0xbd45baffbcf2d41eU, 0xbc9c0a133d6bbde5U, 0x3d61d3603d87ce8aU, 0xbbd3eaf33c8dc9f0U,
  0xbd2095483d537599U, 0xbcc80da9bc1d4d0aU, 0x3d28be5f3d364e08U, 0x3ccb20b33c448d92U,
  0xbc827c8c3cf5427cU, 0xbd8077a03d0d6cf5U, 0xbce08cb3bc23c879U, 0x3d4a0de03b93aa67U,
  0xbd882ddc3ca632c6U, 0x3d312b7038e2ede3U, 0x3c02df223b963c9bU, 0xbc6eb16f3c19cd47U,
  0x3bb4a0fabc5d856bU, 0xbc91d36bbc6801efU, 0x3ca17476bbae14bcU, 0x3d2cb2053cc236f1U,
  0x3d1aa6053cf05af2U, 0xbca473c9bb7edfeeU, 0xbc9e4410bbd4cb21U, 0x3cd86cd8bce9c750U,
  0xbd94ce00bc095667U, 0x3d3c6ae03c4da3adU, 0x3dc126673ce73f75U, 0x3d129c7b3bfc62a0U,
  0xbd44c862bc8f6760U, 0xbc4981823d75f994U, 0x3d00d6fbbbc5ea80U, 0x3cd826ec3afaf428U,
  0x3d66b6cd3c0908dcU, 0xbce97f7f3c3bc4d6U, 0x3caa24c23c25b0c5U, 0x3d467ad2bd40746fU,
  0xbc8d4c8d3c2f7a9dU, 0x3d02fb0bbd203aafU, 0x3d825e013d83c78bU, 0x3c13000fbc89467cU,
  0xbd62168abc1b0f96U, 0xbd237407bb4e80d0U, 0x3c00b602bcda506cU, 0x3d6c7104bcea9af2U,
  0xbc4928de3d2685cfU, 0x3a6ffae83b18c999U, 0x3c9a7929bcd4fa8bU, 0x3d0b335b39190d2eU,
  0xbd268715bb9424c5U, 0x3d69861bbafce0ffU, 0x3bd68c723d5f3e83U, 0x3cb8c64fbba190e5U,
  0xbd1371143c410bb2U, 0x3cd30d9c3bac19c2U, 0x3c8f81da3b5b8acaU, 0xbc173856bb7bb89fU,
  0x3b1765d03c5ce968U, 0xbd671c09bbb629d3U, 0xbc86bb98bc898840U, 0x3c1680673d4bc220U,
  0xbbbc11353bcfe667U, 0x3ce84d123d8f73dbU, 0x3d5c367fbc2cc329U, 0x3c9b628e3d6f7c24U,
  0xbcb13adbbd572534U, 0xbc0e30603b25e012U, 0x3d0498563d0d13b0U, 0x3d484be23d5def12U,
  0x3bb25e763d055e52U, 0x3d3f8c593db16054U, 0x3cbca089bc3e80d3U, 0x3d175d2a3ce2a04dU,
  0xbcccdec2bcc59555U, 0x3c84e537bd8b6d06U, 0x3d7d4287bd7c23ecU, 0xbc92dab93d277165U,
  0xbd443ff3bc9ac94cU, 0xbd14d804ba7f3775U, 0x3c996226bca05a30U, 0x3d4fa6aebcac4429U,
  0x3d128264b9f352b2U, 0x3b30bee83d53c3d1U, 0x3ce74c8f3cf0dffaU, 0x3cde1f0d3d56392fU,
  0xbc9f3a02bd21d83dU, 0x37940c44bd1055adU, 0x3d197cb63bb8a5a2U, 0xbc87590c3c9969ebU,
  0xbd0256aebd5081fdU, 0xbd3ad3c5bd03e9baU, 0xbba3f33b3c680b79U, 0x3cc3872f3d0c4504U,
  0x3d2bac543c6aa02cU, 0xbca970093d9c6958U, 0xbbed5519bcc4e686U, 0xbd2dee313cfb6942U,
  0xbcb5f62cbd129d12U, 0xbcd6113f3d0c6b9dU, 0x3d432f813c943c99U, 0xbacaeb1a3cae80d4U,
  0x3d39a275bbfd3b4eU, 0xbc19f8eebcb5c0d0U, 0xbd121d8e3d83682fU, 0x3cf5f736bc2b610eU,
  0x3d22dd273a18c269U, 0xbce3c7933db27bedU, 0x3d0f1c7dbd1f66c6U, 0xbd8536e93c078168U,
  0xbbe6ed8c3c8a47a8U, 0xbc8226c23c734ba9U, 0x3c2db2d2bcf275a3U, 0xbd2709023c05aff9U,
  0x3cade9223cdaf36dU, 0xbd69c7cbbca42002U, 0xbd0aec103d5fc9f2U, 0xbd616ce03d38c89dU,
  0xbcba1c1f3bf564afU, 0xbbc526a13d7e8177U, 0xbbe6ebb7bd3b2956U, 0xbcada9773ac2d94cU,
  0xbd070f36bd0028c1U, 0xbd664d4d3d65575fU, 0x3d3311d7bd9591cbU, 0x3c3284bdbd6d7595U,
  0x3aed0f673bfc46e3U, 0x3c6a875dbd167b41U, 0x3cdeff4d3cba81c9U, 0xbd49b8bf3d4eba6aU,
  0x3d257e483cd920c2U, 0xbad68b463cb98ad4U, 0xbcabffcfbc939f3bU, 0xba4c9cd2bc0a704eU,
  0xbc0bf458bc482dd0U, 0xbc1c4647bd754ff7U, 0x3d1c8a36bc4c43c2U, 0x3bbddd68bcfb7362U,
  0x3ca6a0353d6e3c82U, 0xb9d689393d8ba5e0U, 0xbd14285f3d61f969U, 0x3d0fc87ebc82208dU,
  0x3ca72daf3da0e155U, 0xbc941ec5bd59f8c1U, 0xbab7c4f63d17f2b1U, 0xbc2767a03d83836bU,
  0xbd8de6f6bb3ae655U, 0x3ca76dd0bc8851b0U, 0x3d1139fcbceeebc8U, 0x3b64b85a3bf7964aU,
  0x3c2af9533c351b68U, 0xbc2e4ec5bc9bf700U, 0xbd5deb013d464bb3U, 0xbd062c9b3d284bc4U,
  0x3d165e233d2efe20U, 0x3a94e64abd0ca409U, 0xbd7c58e93ce0a06cU, 0x3d8b82353d4fa5a6U,
  0xbcc44a70bcfe551cU, 0x3d454229bd42b295U, 0x3bfa740cbd3a7377U, 0x3ae206383c461374U,
  0x3b3ecebc3d3f6af4U, 0xbd281d5e3696fc34U, 0xbc6946b83bc8f9bbU, 0x3d175a61bc6660fcU,
  0x3d18b5433cd9eb59U, 0x3d00cd01bc06b597U, 0xbda5b2143c8f010eU, 0x3c1e02f03c933a9dU,
  0xbd056b98bd3d7986U, 0x3d733e0ebd677c76U, 0xbc85ae15bcc0a7ccU, 0xbc09b72abbc13748U,
  0xbd811abd3d65a155U, 0xbd61c2613cf9f966U, 0xba6738b93ca134eaU, 0x3d2091bbbcb98bd5U,
  0xbd0bcf153d7cdb88U, 0x3d50ee973ca1b6bbU, 0xbd779f0ebcb513caU, 0x3ca78cd53c830e6aU,
  0xbd9b70e93d0d46afU, 0x3d89fe6abbd76e42U, 0xbc4eac75ba3e6b3aU, 0xbbf97d393cc35fdaU,
  0xbc9c34e23bcd1ee9U, 0xbd3f9f463cadb957U, 0x3cdada34bd0c8578U, 0x3d2a31953c43586eU,
  0x3d19ce353c1dc4a3U, 0xbd0f47793d8f21d5U, 0x3d0c53eabcc302e6U, 0x3d384c1cbca82e59U,
  0xbd314c363d4348d5U, 0xbc02163abd2fdfb4U, 0xbd1eaae83cae1484U, 0xbaf740bdbcb58da8U,
  0x3c8ec0ac3d2998b6U, 0xbd1cb5aa3d5e8e88U, 0x3c7fb8423c277d82U, 0xbd49b9f2bbe59182U,
  0x3cd43d43bb01ce71U, 0xbcfc7b143d918009U, 0x3cb795e7bcdce4abU, 0x3d0222563d97ad46U,
  0xbc93a2b9bc59a5f6U, 0xbccd71acbd4ad6baU, 0x3c36e3c9bd55b727U, 0xbd6de532bd79b76dU,
  0x3cd33cff3bbef1e8U, 0xbd8076ce3be5fae4U, 0xbd0330a53d437283U, 0xbce150c63c7e50e9U,
  0x3cab6fdebd19393dU, 0xbd356b743d7782bbU, 0xbc606cfebd498056U, 0xbc3956443d010b24U,
  0xbcef9c353d5f7640U, 0x3d0632cfbd3d14ecU, 0xbbb39ce8bd719155U, 0xbd34c634bd5b0d31U,
  0x3cda87a13d166d6fU, 0xbd3426843da1a7b0U, 0xbcf3135e3d3c2401U, 0xbcb5874d3c68f93dU,
  0x3d55a1ef3b88930eU, 0xba01d5503cda0770U, 0x3d1f87cfbd25b59cU, 0x3cc06c7a3d431b38U,
  0x3cb5c5633c4419e2U, 0x3ca03d35bd16df3cU, 0x3d3061fbbc798e87U, 0xbd0f4d6abd22e385U,
  0xbc5f386d3d8a944dU, 0xbc9b59c63d852ac1U, 0x3d312f1bbb95ecffU, 0xbd15a6edbcbded13U,
  0xbc3ef54cbd8db289U, 0xbd2a18073d3b6738U, 0xbcfb155ebd85c1c6U, 0xba7934103d677029U,
  0xbc9932edbc9adb71U, 0x3a3bde1f3cc444e5U, 0x3c8f07d8bd8638d9U, 0x3ccdb73abd6c9d6eU,
  0xbc14914e3973125cU, 0x3cbd33813c6260f7U, 0x39369b02bd8e3626U, 0xbbcbada93d0ac63cU,
  0xbd0e25e3bceee217U, 0x3d9531323d0e2f87U, 0x3cdbff4d3cd17c19U, 0x3b80d2fc3bb0f7eaU,
  0xbd582b69bd098108U, 0xbd653aa53cc8be09U, 0xbd84a0f1bd5fea87U, 0x39846d10bc2325d1U,
  0xbc1b7919bd39cf8dU, 0x3cc19ef0bc8250c6U, 0x3cddcdbfbd058b3bU, 0xbcd060963c90bed8U,
  0xbced8e39bd063449U, 0x3d0560b23c9f5adbU, 0xbbc9f6fabc9bdf40U, 0x3b76b4883d8063bbU,
  0xbd64bd2abd73d02dU, 0xbcb5966bbbee4973U, 0x3c01acddbd23708dU, 0xbd1feb1b3c3cdaf7U,
  0xbd295843bcc1500aU, 0x3d28b01ebd4fe824U, 0xbccb1aba3cee3a6fU, 0xbc986a2fbd2ec669U,
  0xbd45d729bcf17bf0U, 0x3d7f56703d8ba1a9U, 0xbcea44f93c99b759U, 0xbc9560baba84a4adU,
  0xbb970de9bd076a38U, 0xbd1b8182bcccab38U, 0xbd31ce453b3b5683U, 0xbd926c12bc2756a4U,
  0xbd6344e9bc3d3accU, 0x3d2481c2bd35842aU, 0x3bb83e0fb9da5c5fU, 0x3c3c837abc26c023U,
  0x3a8ea4b7bc5919daU, 0x3cbfa0f23cea317eU, 0x3b01306a3d2479aeU, 0x3d405a3b3d260cd8U,
  0xbcd675c3bd9b554dU, 0xbd375f39bd463ed9U, 0x3c3b9e74bd40976bU, 0xbd795b20bd239d4aU,
  0xbd554569bd7fdeeeU, 0x3d3d5551bd848e3cU, 0xbc88c9923cc53062U, 0xbc86e05fbb5b52e9U,
  0xbc743e02bd065ec2U, 0x3d4d3a4c3d11977fU, 0xbcb4d99c3d00b4a7U, 0x3ce4d1fa3d2660bcU,
  0xbd1f8af63c5d3847U, 0x3bee8430bd3cc845U, 0xb9d377cdbd52add2U, 0xbc6d2110bd3e66c4U,
  0x3d12f91fbbe8752aU, 0x3cbfb3173c6a3c8fU, 0x3c1d59c23cad0b4aU, 0x3d1add2ebc4e9dd1U,
  0xbc329830bc264594U, 0x3d7b6d6d3c1f340cU, 0xbc15e869bc27b70dU, 0xbd7dac203c0ccc85U,
  0xbbb1d053bc6eb9ceU, 0xbd41acd2bd1bd343U, 0xbd8c3fc9bc32afd2U, 0x3c1e424c3b4292ddU,
  0xbb0dcfdcbd6d3ec9U, 0x3d3705c2bd0b80c8U, 0x3d4f2abc3d54fdd4U, 0xbc89df3abd7f4825U,
  0x3c601f6abd0173a5U, 0x3d0c000d3a8ad0f5U, 0xbd91b7883d18aa45U, 0x3c5c62663ce47c6cU,
  0xbc3525093c072089U, 0x3ce0a356bd688797U, 0x3d1c7d6c3d579111U, 0xbc96abfabc98fef7U,
  0x3ce38fd83c882cf6U, 0xbcc4d246bd02047aU, 0x3d7f7ae53cbfa809U, 0x3cf275d1b9b3b369U,
  0xbd564c783d4a1097U, 0x3d232a273d79fef9U, 0xbd24e5423b8de6d4U, 0xbcf23c233a225c6fU,
  0xbd4ce93539b34df6U, 0xbd4b4320bd84d847U, 0xbcd99e1f3d500ce8U, 0xbd28b5be3c51a2ffU,
  0x3c6b440ebc85d3caU, 0x3c38ca1a3d421803U, 0x3d441db93bba9430U, 0x3d184b90bd5465bfU,
  0xbd166aed3c56e0aeU, 0x3da1dad13c86813fU, 0xbd93a03a3b001181U, 0x3cd5e780bb4362e1U,
  0x38b1da963d21baf5U, 0xbcf8b1e2bd44844bU, 0xbcb56367bc198773U, 0xbd2dc92fbd05f285U,
  0x3c49aa1abd129354U, 0xbb8e416fbc919019U, 0x3c8390ee3cbe1aa0U, 0x3b6c05a5bd3e5ecaU,
  0x3bf41deebc1ac39aU, 0x3d126a5bbbf4e782U, 0xbd88f2793d556ab6U, 0xbca5f975bab9b199U,
  0x3c48a312bd4c58e8U, 0xbd82bcf7bcd5063eU, 0x3c81e0afbc2ed39cU, 0xbd0b8176bcecc0bbU,
  0x3a3976853b71ab11U, 0xbd2e94fcbcd0fa89U, 0xbc4981073c066483U, 0xbc6c1fdfbd659b06U,
  0xbd4221e03d053eefU, 0x3d700422bbe496a2U, 0x3d4b134a3d0f6ec6U, 0x3da96462bcec792eU,
  0xbcd93ca53da011dfU, 0x3c81fc0f3c6ff314U, 0xbb93a1213d82012dU, 0x3ca2f63bbb3f51b1U,
  0x3c490b373d2da16dU, 0xbd026dfdbd3a2e33U, 0x3d81d753bb5aa4bdU, 0x3cf46184bbb48393U,
  0xbd3153213cf9a604U, 0x3d816336bd2a6ad7U, 0x3a621e523d6b0628U, 0x3bbe5b943d0ab6d3U,
  0x3cee96e13da43924U, 0x3c084237bcc6ad3bU, 0x3c17b76f3ca47da7U, 0x3d52e1093cb303c1U,
  0x3c1d7035bbf5d551U, 0xbbea2a813bcfb087U, 0x3d52292a3d22700dU, 0x3d615dacbd39cfa6U,
  0xbc074b5f3cc2432fU, 0x3d1361fabd603209U, 0x3cd2d7f43d2a7cb3U, 0x3cacc5053d186da9U,
  0x3ce79d853d0d1b90U, 0x3d860b3dbb46e77dU, 0xbb990c3f3d6705dbU, 0x3c9a7126bb1e0608U,
  0xbd9419cd3b9addaaU, 0xbd10b7543d3dcb26U, 0x3d369b4abc84686aU, 0x3d714818bb65e025U,
  0xbd2306b13bb20ac9U, 0x3c6ae2a6bb8e8393U, 0x3cbc1f13bb9156e0U, 0x3c95498b3cc20ec8U,
  0x3d5d600f3d84bb90U, 0x3d7ccab6bba7b26dU, 0x3d309f8d3d7c11fdU, 0x3bcf6de13d78aeb3U,
  0xbd881d293d820e7cU, 0xbce069043ce7cd96U, 0x3c849408bce2f77cU, 0x3d1d7aafbb7c48a2U,
  0xbd18274a3d3552ccU, 0x3c1f854abd2f8d1fU, 0x3cbb0c863d4b86fcU, 0x3ccd0e043c4be615U,
  0x3d7811513d143ab9U, 0x3d0b4414bc7e9ebfU, 0x3c8194693c1b0b39U, 0x3ccb53043cd1d70fU,
  0x3cb12e913cc085e3U, 0x3b88d7f6bbc9a92aU, 0x3ae6ce833d625bbdU, 0x3d87134d3c8669a9U,
  0x3bf20805bc8440c6U, 0x3d71abbabd4f6bb9U, 0x3ca113ffbc933ed4U, 0xbc85ec1f3c990ec6U,
  0x3c6de10c3da25975U, 0x39a489923d2419cfU, 0xbcef00363ce76527U, 0xbaeb58d9bbaac414U,
  0x3be54e9ebc863266U, 0x3d0236163d1e7602U, 0x3c10246c3c38571fU, 0x3babd9dbbba7b2f9U,
  0x3cc1bdfebd6755deU, 0x3d215ceabd3c6f4eU, 0xbd45bd213c707afaU, 0xbbf410d43da74ce1U,
  0x3d0baaf13db42601U, 0x3d1d59293cdea4efU, 0xbcd94be13daa3ce0U, 0x3d8edc313d18f5f4U,
  0xbd3d5efdbbae65d9U, 0x3ca1b0133c09834dU, 0x3d7b7316bd13b4d0U, 0x3ccd3563bcc5f48bU,
  0xbd19d77b3c901287U, 0x3d5a938abcf5e9a7U, 0x3d0af4a03d87d6a6U, 0x3d36daec3c927d6dU,
  0x3c9819353d86ef48U, 0x3bf26a3fbc013ca4U, 0xbcd3d4df3d4ce0ceU, 0x3cad53093d7a1bc6U,
  0xbc0c12793c0f360fU, 0x3cbde8f13d3fc209U, 0x3d3b3c02bc391ebeU, 0xbc388126bd366de3U,
  0x3ca8026cbd52b582U, 0x3cd0acde3c6512d5U, 0xbd3a05fa3d80de5fU, 0xbc8e57e93d2a6954U,
  0xbb58a47d3c7cf74aU, 0x3b5f0d673d115a2bU, 0x3cec7a273a238be9U, 0x3c8750b1bbae7699U,
  0x3b58368dbc828246U, 0x3d09fb083d8e7644U, 0x3d9781463d1abfb0U, 0x3d32cee6bd95db65U,
  0x3d20d5c8bd077604U, 0x3c99444b3d4330d3U, 0xbd4c35d3bc0fb7a3U, 0x3c5295fd3d5fd757U,
  0x3d0963733cd6307cU, 0x3d28fbe93c5fdab2U, 0x3be9830e3d597bf3U, 0x3c8e10853d08eb54U,
  0xb9ad0b4b3d36de10U, 0x3cf4f49e3a5098ccU, 0x3d6a5810bc1f9974U, 0x3c033c1bbc71df73U,
  0xbb88216abd438decU, 0x3d35253bbc6864aaU, 0xbcd408063d4025a8U, 0x3ce835b9bbcf4fc3U,
  0xbc20e0eabb117471U, 0x3c19caf23cae07ebU, 0xbd029bfa3d3b39f5U, 0xbbbdadf8bc798052U,
  0xbc0d18dabc6b5a38U, 0x3cac205f3ccbed24U, 0x3c8f32babd5c6155U, 0xbc2a4d603d3037f9U,
  0xbc4ccc55bc8c9222U, 0x3d406dce3cc71f5cU, 0xbd968cb4bccf0f2fU, 0x3d2da88b3bff534fU,
  0x3bdc4acc3bd98b60U, 0x3be64d853cf9fdb0U, 0xbcc514f43db54507U, 0x3b2576b93cba210aU,
  0x3cb29224bd3365c7U, 0x3c20df053d277409U, 0x3cde6d29bda5f4ecU, 0x3d2fbd62bb16e5e7U,
  0xbd63f09abbedd2aaU, 0x3ca70ecc3d19622eU, 0xbdb9d96dbc38f8d9U, 0x3cf270c43c8df1e6U,
  0x3bb8a6503d157acfU, 0x3ce88f1c3c564c3aU, 0x3bcb3f7d3d6abe09U, 0xbc6a90e0bc320e85U,
  0xbcdc58753c6ec4fcU, 0x3ce0d5023cb56653U, 0x3ddb5ca0bc5ff4c9U, 0x3d89e26f3b1b85c6U,
  0xbd51c48bbd020e16U, 0x3d4a90583d1d22cdU, 0xbd1c31cdbaee4965U, 0xbc1a681e3c92e957U,
  0x3d276ce53d6e733dU, 0x3ce54f02bc2b5701U, 0x3cfa07363d5c5d3aU, 0xbd348af53d2de806U,
  0xbd190091bcdbae0eU, 0x3c73bd82bc8ac8a7U, 0x3cd69576bd85483bU, 0x3a94a75bbc78a781U,
  0x3caedf423c6dce15U, 0x3ca2ce6f3d126555U, 0xbcc18a7c3d976559U, 0x3d0a66773d09b1c8U,
  0x3c55175bbb184ab1U, 0xba8224413bd6fc4dU, 0x3b8d3f3d3d6dfe56U, 0xbc6f70393c942e8eU,
  0xbd37ba86bc39fc7eU, 0xbd3e8a603d78db21U, 0x3ad922093c44e442U, 0x3ce6fd70bc4befcbU,
  0xbca487a5bcf48b08U, 0xbb62866b3d9c8b7aU, 0xbc0e09dcbc2e73e0U, 0x3d8a0e1cbb6636fbU,
  0x3d00ff32bd96c472U, 0xbd07d09d3d062baaU, 0x3c1d0c61bd80a00dU, 0x3c16a955bbcd3b17U,
  0xbd1d64eabd54c192U, 0x3cfab868395d2593U, 0x3d12d8e73c8bd983U, 0xbc7df1773ca32286U,
  0xbbe30fe4bd6ea3f1U, 0x3d21da8b3d8e842aU, 0x3d376518bcf5b461U, 0x3d7085463d4ae9c7U,
  0x3d0e7f21bd3cdb94U, 0xbc7e8811bc49344fU, 0xbceccb08bd83dc6eU, 0xbd38f6bdbd6eb7bbU,
  0xbc5ef91cbc5a35d0U, 0x3d329687bc94b4f2U, 0x3d410d583c4ba182U, 0xbc8f57f53d6715efU,
  0xbcef5db1bd10247bU, 0x3a88b0c43d4098d3U, 0x3cbb689a3aded425U, 0x3d38ff903d7129faU,
  0x3d094116bd40e5ecU, 0xbb7d914abd4b27edU, 0x3befa7a7bd8558e9U, 0xbd504a27bcb09e8dU,
  0xbc3d987a3c12e016U, 0xbafdeb2abd0bca8fU, 0x3b4265f83c398c56U, 0xbd38ee6d3cdd75ebU,
  0xbc33cb47bbd89ca2U, 0x3c52a9e73d956076U, 0xbcc90829bcb80211U, 0x3c22e560bcbd4abaU,
  0xbc86fff3bd86474aU, 0xbcb7c866bb655c30U, 0xbd707c20bcea7416U, 0xbb081db8bd127789U,
  0x3cb0fc783ba23cadU, 0xbbf89d8bbc868de6U, 0x3c3f0bb53c946a84U, 0x3af33d433cee8c0dU,
  0x3c91d3ebbcdccc4fU, 0xbcb29e053d3c59a7U, 0xbce09a36bd3efca1U, 0x3c038796bbfa3186U,
  0xbd4fcdafbc2f2dddU, 0xbba1af7bbc4263daU, 0xbc9a18a2bd42415fU, 0x3d242eff3ce4c8e6U,
  0xbb43ee79bd29f869U, 0x3cee2ecebd57895dU, 0xbce2a844bb0fbf85U, 0xbb86cbc93d8cf28aU,
  0x3d11b31abc6a116cU, 0xbd2225a83c8bc0e5U, 0xba1eca6a3a7e61b9U, 0xbcea397b3d0c7a4bU,
  0x3b5d6382bb9d11aaU, 0xbccb4eef3d7d45b5U, 0x3cbdcac6bd9f6bf0U, 0x3b1a42ff379d5a32U,
  0x3b669d3ebcc64ddcU, 0xbcd06a973c8669c2U, 0xbd365d063d138472U, 0x3d0368133d630307U,
  0x3d1139a73d0a4346U, 0xbc90299f3d70cbd8U, 0x3d26e6edbb001c43U, 0xbd7825a63c9ec0a0U,
  0x3c2c4d61bcc8c51bU, 0x3cb71409bc98767bU, 0x390bfdccbcf53d00U, 0xbbe478a9bbd584cbU,
  0x3ba1babb3c2a806eU, 0xbceeb8b7bcf4c305U, 0xbc116c123da3b168U, 0x3d47aca03bc1d612U,
  0x3d894c643cd032c7U, 0xbcdd1af2bb50b94eU, 0x3c440dc3bce82293U, 0xbc782abbbbde91f8U,
  0x3caccbefbc7a2247U, 0xbc02f2db3d684be4U, 0xbc7820b9bc5da167U, 0x3b9ea8c8bc58104eU,
  0xbc86dc993cec78dbU, 0xbce0d856bcd5b5c8U, 0xbc9432293cf6c447U, 0x3c93d8403cd908dbU,
  0x3d199af33d1c0a4bU, 0xbd38264bba0cbd03U, 0x3d6a86253cc49b99U, 0xbd06d5a3bc29d4adU,
  0x3d1dfd8abcec089cU, 0x3ad20b623d71157bU, 0xbcbe07663baa512cU, 0xbb5e4958bb745449U,
  0xbd3b8be93c80b7eeU, 0xbbd2cfcbbbb2b27dU, 0x3ace84ba3d4c803bU, 0xbcd737553d91e81eU,
  0x3cc88ab73cf930d6U, 0xbd2832efbbc61307U, 0x3d310e86bd3a3e19U, 0xbbf485013d35f896U,
  0x3d85a681bbf30ec4U, 0x3c73bfd93bd23dd5U, 0x3cdf73e3bd28fb2cU, 0x3d6135b2baa794c7U,
  0x3cdbf2823cb471b5U, 0x3ccf4b36bd2c69d2U, 0xbc9607093d1f886aU, 0x3ccb46a43c3f1106U,
  0x3d11819ebbc87d5cU, 0x3d1a9e443d646172U, 0x3d94e95dbc588fd0U, 0x3c362c5fbafa34f2U,
  0xbbfaa3d0bcc223ecU, 0xbcaccb203d3b037bU, 0xbc26bb62bd2878caU, 0x3cf6f91fbb40c272U,
  0x3d6ca93a3c35d0e9U, 0x3c2def1e3c310705U, 0x3d1a3c5fbc38e714U, 0x3bf0ae633cd55ae1U,
  0x3d5311f7bce0e87aU, 0x3c9ae0b43b8297c8U, 0x3c99e4453a8860c0U, 0xbc9831cabc321540U,
  0x3d7e92c63d363c0dU, 0x3d012c423d85761bU, 0x3b776f1dbce581b0U, 0x3c62e7c7bbeeb172U,
  0x3d91a4ee3d44d6e0U, 0x3d2af0ccbc9079f6U, 0xbbb5cf753c92cd42U, 0xbace0bdf3b42b0b9U,
  0xbbb6bd303c451677U, 0x3d5f42143c9a7beaU, 0x3d9693e13c968313U, 0x3c0013d0bc4b9e64U,
  0x3cf63c543cd44e93U, 0x3d024f5d3cf02699U, 0x3d5910babb41d749U, 0x3d4423cdbd44c8faU,
  0x3d87e6a93d7a08d9U, 0x3d8e2718bcdbc6c8U, 0x3c7583b9bd3cdcebU, 0xbd2058503c920890U,
  0x3d82c0c53b41d93fU, 0x3d0490783d3f93cfU, 0xbb6bcf54bc6c20ddU, 0x3d3431453c9358f0U,
  0x3da7c9553bbd33b7U, 0x3d226cb43c411596U, 0x398fe74cbd330056U, 0x3d4e6b32bd3d690eU,
  0x3d818f8f3bb0635cU, 0x3d92dde13acfb53bU, 0x3c808ee23be20d09U, 0x3bf99daa3d10e9d5U,
  0x3d4ac0c33d6ec732U, 0x3ce1f4163d41f0d6U, 0xba8c65adbd647b23U, 0x3cd4f64e3d288773U,
  0x3caba6023d18d724U, 0x3d1c79bf3c4bed82U, 0xbcf00639bcb3ca00U, 0x3d312aae3c2d97dfU,
  0x3ca748db3c9ef39eU, 0x3caa286bbb3ccca5U, 0xbcb35dac3cb3df87U, 0xbcd391373dabfcfaU,
  0xbb223e333cc1df95U, 0xbd63b5093bfe5ef9U, 0x3cf0aff3bc824161U, 0xb9dc3598baf20edfU,
  0x3cfc71f23d0046baU, 0x3cfcc6adbc4860dbU, 0xbbc02cfe3bde8414U, 0x3c291a2ebce6cb90U,
  0x3c55bf583aa0eaa3U, 0x3d224ce33c747e26U, 0x3d61cc8fbcb863f5U, 0xbd61afe2bcb219bcU,
  0x3cdd3bccbbbe6c0bU, 0xbd20edc9bbfb8f20U, 0x3d0479bbbafe8002U, 0xbbc2a61ebc45a56dU,
  0x3cfe59e6bb578d94U, 0x3cdf20473d077de7U, 0x3d5e91f33d2c37f5U, 0x3da422febc9977fcU,
  0x3cdc2df53d6ccf58U, 0x3cbe5226bc458dabU, 0xbcb818d03b90c4a3U, 0xbce8acd83ce83bb3U,
  0xbae9d7b23d34001aU, 0xbc0eb4d73cb46d4fU, 0x3d93e6a43b844061U, 0xbd842a6fbd41e249U,
  0xbbdc451dbc2e1182U, 0x3bce24bb3d473bb3U, 0x3ce8ad99bd1cd8a3U, 0x3c1bf339bbe752b6U,
  0x3da92ac53b97cae4U, 0x3d69020e3a55b1d9U, 0x3c4b62dbbb87e15fU, 0xbd5483af3cb84d1cU,
  0xbcc221ac3ceadb89U, 0xbd68039f3c9acc31U, 0x3cbb7f273b5db6aeU, 0xbd568cb2bd1fdf62U,
  0x3d04bef43c2a5c9dU, 0x3bb9253b3d632124U, 0x3d6f2bb43c2b1ea7U, 0x3d428cdebb67ae6bU,
  0x3d8236183c58830aU, 0x3d3e89b0bd73ebd1U, 0x3d2127fd3b2d7b9fU, 0xbd99d3003c458f03U,
  0x3c4b42a1bc94a23bU, 0xbd416a60bbc5ab3bU, 0x3d85b0b2bd5c47baU, 0xbd81e67bbc53d24eU,
  0xbc0250ee3d231c71U, 0x3d38ac1a3d1387e5U, 0xbc227bd6bd749f12U, 0x3d0bf3e93b9aa448U,
  0x3d2304893d4968beU, 0x3d95700abd54b74fU, 0xbd11fa523cb867f8U, 0xbd0fef2fbb88c82fU,
  0xbaa774cabce12447U, 0xbd3ed020bd38c8edU, 0x3ca64e9b3c562c4bU, 0xbd293ab03bf385deU,
  0x3d11552cbc75be16U, 0xbcdecb7c3cb7fd01U, 0x3be3242b3c793685U, 0xbd016d4f3bf1e0b1U,
  0x3d3ac58d3d243682U, 0x3cbe4e82bcf961fbU, 0xbbdcd68c3a99733aU, 0xb8a849993d3c1b22U,
  0x3c8157e8bbbfd657U, 0x3cc7e797bbefd181U, 0x3ca873453bf0adc8U, 0xbd4856b9bd1d7c5dU,
  0x3c33f6debc1f23d7U, 0x3d80baad3d1d5539U, 0x3d43149b3d3e76b6U, 0x3ce0728a3c63be21U,
  0x3ba4136fbb85d938U, 0x3d72be55bcb4cabbU, 0xbce833793b4203e0U, 0xbc98b357bcacfb93U,
  0x3c2b2984bcd708c2U, 0xbd1f91bd3ca37a79U, 0x3d78c6dbbc1b5920U, 0xbcad3bdebc2f7566U,
  0x3d4f4e92bd06e551U, 0x3cc25882bca14efaU, 0x3da43b7bbca6192bU, 0x3d375347bd64fd07U,
  0x3d8190f13d85a378U, 0x3ce621b3bd8753c8U, 0xbd54983ebc3e1456U, 0xbb9d6cf0bce20f4eU,
  0x3cb23c6bbc2121fbU, 0xbbdbc6c9bd3df1f9U, 0x3d45ab633d607bd9U, 0xbd1a1cbcbd88fbb8U,
  0xbc1e87c9bd5bbf92U, 0x3d1f63afbc957650U, 0x3d8bb8ebbcd06d2dU, 0xbcfa5db0bccd1eb2U,
  0x3d0d9b273d779dbcU, 0x3d527c17bca2ce98U, 0xbc0b033f3c651d06U, 0xbd1f47dcbcb6c103U,
  0x3d22796c3d4b8031U, 0x3a86eb03ba83fde9U, 0x3b4aeeed3d40bc30U, 0xbd47e575bcf7c005U,
  0x3cb26290bc352d90U, 0x3be7a1c0bd2a6fbbU, 0x3cd083fe3c63c932U, 0x3cb3c77dbc14c291U,
  0x3d0978e7bba0300fU, 0x3d2f4dc03c6b248cU, 0xbcdc1e733d2d93bfU, 0xbd7b171b3d273de9U,
  0x3c58ff66bc3bc31dU, 0xbd35176cbd0e6f7cU, 0xbc8495d63d51dd7eU, 0x3ceb07113c0849abU,
  0x3d5ad2ef3d2d0072U, 0x3d4b8ac53b25d670U, 0x3d7325873c465b17U, 0x3c0a7fa63c34d45bU,
  0xbcaddfc73c38b15eU, 0xbcc6490c3d126869U, 0x3ca8cb613d9a211cU, 0x3ca9d7b93baab1acU,
  0x3d174e0c3c49ea13U, 0x3ca59da53c9a88baU, 0x3d796fb33d60a074U, 0x3daf1f61bbb74cd4U,
  0x3d1910673d5db5fcU, 0x3d841f473bf7df8cU, 0x3d418f643cc93e57U, 0x3d85e6dabbc03a3aU,
  0x3d28f991bc85fea0U, 0x3cab62943d88b047U, 0xbbe3aed13d17aa1eU, 0xbb68cb8d3d676c42U,
  0x3d3e1a4f3c6cdf81U, 0x3d2347b2bd4b18bfU, 0xbaec24203d099585U, 0x3d8408b5bcf1c3e4U,
  0x3d10ca723db036fbU, 0xbc16737f3ccbaab3U, 0x3c7172dcbccad368U, 0x3d7b272a3a3b1742U,
  0x3d619cb43d6673c8U, 0xbd19d11f3cb77ab7U, 0xbcae6a4a3d7ad246U, 0xbcf59239bac49b63U,
  0x3d63fa3b3bcfea04U, 0xbcd19e593bde00d3U, 0x3cef0d633c9eb1ebU, 0x3bf4d527b97abc8dU,
  0x3cefe9ee3dc8182eU, 0x3d58595fbc904b61U, 0x3b84a3d93b0e48adU, 0x3d740a3a3d02a639U,
  0x3c6b427f3d161c92U, 0xbbd0d64a3d84927bU, 0x3d19d6093d7056c1U, 0x3cc18b793d673cf3U,
  0xbce381723c42d974U, 0x3a206a0abbdb884eU, 0x3d0e7085bb0f700fU, 0xbba98968bce13f5cU,
  0x3db2366c3da992c8U, 0xbc4f020a3c6ad006U, 0x3cc54eecbbfb11aeU, 0x3cca796dbce08180U,
  0x3c70ec4fbc8da6fcU, 0xbc93b317bb9ee45dU, 0x3ca1afe83c830f46U, 0x3bc041af3da216bcU,
  0x3c67945abb2533f0U, 0xbc8b4d57bbc4cbeaU, 0x3b71e26dbc5052feU, 0x3c8ecceebc6511e8U,
  0x3d90ac483cdad805U, 0xbcf01cac3ceada42U, 0xbc6e0d4b3ca606b2U, 0x3a755275bc90eea9U,
  0x3d28010f3cfc2d22U, 0xbc3ed5813d0b50e5U, 0xbc1333d13d3465e5U, 0x3be77043bb147c18U,
  0xbbf06a5abcda40cdU, 0xbc4669343bcd0049U, 0x3d98969c3b6f7f0aU, 0x3d01b9d13d280682U,
  0x3cf6e9953c198609U, 0x3ced8fd23d64443fU, 0x3b8efc74bd60e683U, 0x3d7f52d6bb5f754cU,
  0x3d52f2ecbc6f0b32U, 0x3cf62b553c0f01b3U, 0x3ca724783d1c9798U, 0x3bacc8d83d5903d3U,
  0x3cb2e381bd2183a2U, 0xbd097b50bd3e68ccU, 0x3d59fc173c5afd8fU, 0x3d2b6cfc3d8e7facU,
  0x3d09c89b3d13c755U, 0x3cbe29323d7ab1f1U, 0xbc76dbaebd5c8a9fU, 0x3d3ea3e83bac2b7aU,
  0x3c9d37463a74ae8fU, 0x3d2238ed3c63d1cfU, 0x3cf9251f3c30155fU, 0xbd13cf0f3b395b2fU,
  0xbc923443bc2ed307U, 0xbd085f363c06632aU, 0x3d5a34f93c29d1e6U, 0x3cad65643daf5bd1U,
  0xbb2ef34ebc0103c3U, 0x3c3a391d3d399b74U, 0x3d01d220bc80fc9dU, 0x3d4c34853ca54f84U,
  0x3d6223ba3cfa1f4bU, 0x3da5390abd193882U, 0xbc997c333d7889dfU, 0xbd5fce903cee22bdU,
  0x3d28c6cfbcd69923U, 0x3b3467813d0ff28dU, 0x3c893a57baad4d1aU, 0x3d4c0450bd04237eU,
  0x3d706cb63d88727dU, 0xbc31458c3d8e3d57U, 0xbc18d04cbd503306U, 0x3c1ae3473c8b5f3aU,
  0xbbc57e12bc426f19U, 0x3da52ec33c7e9c92U, 0x3b6f564b3a694241U, 0xbc57aac1bcb1e406U,
  0xbd1139dfbd309ba3U, 0xbc0d7994bd28327fU, 0x3d0d7c33baee1029U, 0xbd10851b3cea9b68U,
  0x3ca7adabbbd875eeU, 0xbd3bf22c3b9a054aU, 0xbd1bde76bba72157U, 0xbc8455413cb727a5U,
  0x3c0106f1bc696547U, 0x3d4933373d2676c0U, 0xba953e5cbc94e207U, 0xbcb38b823d844bc7U,
  0x3aa3e6d4bc548ef6U, 0xbd05c5f73bd4b41eU, 0xbc30c584bc2f04fdU, 0xbd300a233d2ef09aU,
  0x3d48cc9c3bb8b539U, 0xbd45834d3d2a9e0dU, 0xbb1ea0a2bd3ca45bU, 0x3c58ce3abd4d537cU,
  0x3d3daaec3cfd3adfU, 0x3d6e93553cfc5038U, 0xbc8870643ca10f3aU, 0xbc18c8763cba6b16U,
  0x3cb18efbbcba042aU, 0xbd45495b3cd16997U, 0xbccce4223cb1537bU, 0xbd4bdea63c5bcf17U,
  0x3bc3a92dbd8c647bU, 0xbd0790073d87b961U, 0xbbf147fbbbda68ffU, 0x3d4493e9bc960c31U,
  0x3d31de9a3c9b65e4U, 0xbae6077ebd5ee74eU, 0xbd2494393d36e542U, 0xbd6453223cd77221U,
  0x3d18da51bcc63a5aU, 0xbb175e64bd4a05a1U, 0xbd2831e13d2b99c2U, 0x3c8829a43d47c7ebU,
  0x3d1e1345bd44d8b4U, 0xbd9eb76f3d8c9cbdU, 0xbd6e519abcdd623fU, 0x3bab24f0bd321d17U,
  0xbc05436c3d30e96bU, 0x3d657b133c86dd25U, 0x3cfd560b3bfe5af9U, 0xbce121d83d8fecc6U,
  0x3c1b626d3c3133f3U, 0xbd415ec8bb74a6efU, 0xbcedaf453caec1e3U, 0x3c7216bfbce8b7bdU,
  0x3d0658a7bd267b74U, 0x3cc69fb6bb1e8179U, 0x3cc8aa2b3ca813d5U, 0x3c891268bb708f0aU,
  0x3d08df2e3cfd0231U, 0x3d899593bc3a5ed6U, 0x3c2b90c1bcb9d284U, 0xbcc27bb13d2a2779U,
  0xbc1760cb3c369174U, 0xbbf23d18bcd3bae4U, 0x3d4687adbcc24fb1U, 0xbbb0715ebd091a7fU,
  0xbc808e84bcb4144cU, 0xbd5187643b8f509bU, 0xbd1b3f7f3cb59b24U, 0x3d4456abbcb8c933U,
  0x3d224f41bcb67741U, 0x3d0eb8483d1758d8U, 0xbd1a2f133c82887eU, 0xbca965aa3cc372d0U,
  0x3ce4be753cc8e26bU, 0x3cc4e229bbc228a7U, 0x3d9ae374bcbaa45aU, 0x3b9f879fbd3f0579U,
  0x3cf80be2bce7060bU, 0xbd86d7d83c3a2548U, 0xbd13a428bd081626U, 0xbbd3d78fbbc71a63U,
  0x3d5d15ef3d33ce76U, 0x3d5af2fdbc2c560dU, 0xbc9b0faabd6cac79U, 0x3af5b82d3cae0727U,
  0xbcb1640f3b2d4fc2U, 0x3c2e402dbca9167dU, 0x3cf2abf53ca4c6bfU, 0x3c698249bcd14dabU,
  0x3c5d8adebd6e3f01U, 0xbd9d6e463c822ee3U, 0xbca9e544bd1123c9U, 0x3d20733abd89bcc3U,
  0x3d9858903cb9f945U, 0x3d41c7a73c614f0fU, 0xbc63586bbc219b4dU, 0xbb31e8d43da96c81U,
  0xbcb7f26ebd2e656dU, 0xbd0eb5e73ba99259U, 0x3c9cd5edbc3b06b2U, 0x3d26f789bc7909c1U,
  0x3d592af2bc603c75U, 0xbd04c1e73ce3ae35U, 0x3c52cfdfbd390b0fU, 0xbbc65957bd58dda4U,
  0x3c9c9ade3d257cb3U, 0x3c9a81fbbd8d7fbeU, 0xbcac2ca5bd86338cU, 0x39ba65933d1e27beU,
  0x3cb28d6ebcb69c0fU, 0xbb3c12233d190caeU, 0x3d95d87d3c5df773U, 0x3d1a4058bca84337U,
  0x3cce3d6ebccb90a2U, 0xbd8707efbd0eb4c9U, 0xbce42782bd863212U, 0x3c0957663cc1136eU,
  0xbc3b646a3cc8094cU, 0x3bb45cb4bd29eaa2U, 0xbcea21253d11332cU, 0xbc5d72973dcf7471U,
  0xbc4da4523ccf6f19U, 0xbd844d453c8e2cd6U, 0xba4a87243b447d96U, 0x3d4298563d11b806U,
  0x3a0e15dbbca2abb2U, 0xbc861c4b3d40fde1U, 0xba972993bcb6b592U, 0xbb4c3161bd19eaf9U,
  0x3b87fdd4bc8160d2U, 0x3ca9244cbc69d70aU, 0xbbe3f693bc8a81c9U, 0xbab943a9bca72c56U,
  0xbd869eafbd920c89U, 0x3a989a14bcb8116bU, 0x3d0a4e72bb10c416U, 0x3c3f80b3bd19e07bU,
  0x3c87cec5bcc66b80U, 0xbd8928713d9fbaadU, 0xbd52a4223cf7527dU, 0x3d396fde3c328654U,
  0xbcea3ff63c730815U, 0x3d742e963d54c6cfU, 0xbd2cf3273d3fe447U, 0xbc89f724bb87e029U,
  0xbd190666bd7576ddU, 0xbd1336f4bb954ebcU, 0x3d40ebcd3d83cd54U, 0x39dd2c1c3c790f73U,
  0x3d07d76bbd7091e0U, 0xbd30a7e43d5c943aU, 0xbd83ff3abd2e61a1U, 0x3d182401bc90b85fU,
  0x3abfad1d3cb12fc2U, 0x3d59cefb3cc10593U, 0xbd8464003cf8af71U, 0xbcede372bccf143cU,
  0xbc43d3debcfd6b0bU, 0xbd033bcfbd4749e9U, 0x3d8e5dab3c45c55cU, 0xbd6f6d523d7c81f5U,
  0xbc1b9078bc3c7c44U, 0x3a04a3583c04a0ceU, 0xbd04d0d7bcb67932U, 0x3c0c3e753c39b731U,
  0x3c3dba0c3cf0658dU, 0x3d45ed193c9a9199U, 0xbd2671983d2896a5U, 0xbcb638bdbc18988eU,
  0xbd0b424f3bb033b0U, 0xbc2b93d7bc5020d1U, 0xbc38329d3d20e4b2U, 0x3c275fd1bd3a3521U,
  0x3ba563e23c0b01d9U, 0x3bf1a6113d3a82bfU, 0xbd38085b3c60b807U, 0xbc12d7b9bbe70223U,
  0x3cff83153c8d4d09U, 0x3d4cab01bd205892U, 0xbd61dcde3c1e0a4bU, 0xbd023b963abcf49aU,
  0x3d23881fbd01b9bdU, 0xbcd4cf763cf1701fU, 0xbc988ba6bc571bdaU, 0xbbd81b9c3cbed979U,
  0xbd688a1dbc948913U, 0xbca259203cad8f31U, 0x3d7816c83d460d74U, 0x3cd4965b3c9a04d0U,
  0x3c8bd5433d86209cU, 0xbcfc8eecbc9fb4faU, 0x3c0e2bd3bd9a17c7U, 0xbd16d46e3b146cdaU,
  0xbbb2b142bd4c9132U, 0xbd34a668bb9bcfaeU, 0xbbdc47ffba8afa2cU, 0x3c8d690c3dabd93bU,
  0xbc8845c9bca7f39cU, 0x3d45fc973d2cda7cU, 0xbb9190823db6a94dU, 0x3c35dab2bc2a926cU,
  0x3cd7f9223c393298U, 0x3c024f883c9f9a5bU, 0xbb0fec5dbd6b07c3U, 0xbc6b64323d3526e6U,
  0xbc11b12ebd6dde8eU, 0xbd868c0c3c99fe24U, 0x3d65737abcb3792fU, 0xbcdec7df3c87ee4cU,
  0xbd9bc5b3bd7d7390U, 0x3d6c8ba53d695a1fU, 0x3d50b92f3d45c516U, 0x3d0a67b2bc58dcc2U,
  0xbd11d6a93d24a2c0U, 0x3d20f4f23d200e38U, 0x3d23c309bd1bc61cU, 0xbd6349bf3d489205U,
  0x3d16e415bd6b01ffU, 0x3a3c99363d713a89U, 0x3cbf5e55bcf279dfU, 0x3c58f4613c3a0c89U,
  0xbd07fd6cbc97dd5eU, 0xbc1d95693ce25ef4U, 0x3b9c0b5e3c8b2cc8U, 0x3d843c913d39ff38U,
  0xbc112c8d3cc4a5d9U, 0x3d0f9f163ca3b10fU, 0x3d178eb4bd2c788dU, 0xbd715a093d78c6c8U,
  0x3c544ebebd9c86aeU, 0xbd6426dc3d82166fU, 0x3d59a5a4bd7e4f58U, 0xbc48abdb3d8bdb18U,
  0xbc3f91f53ae57cbaU, 0x3bc0f4263da0256eU, 0xbd6f18363c9d87a0U, 0x3d85f7073ce7c390U,
  0xbc5c0fe13c590f82U, 0x3cd84e943d8acc25U, 0x3c7bbb82bccc5cd7U, 0xbd59a86dbcdb3098U,
  0xbd5cd5bcbd14b7faU, 0xbcb6197fbbabf42dU, 0xbb9957ff3a7fd748U, 0xbd60228b3c9cb675U,
  0xbcde1ed4bc3c3bc2U, 0xbbad1b0abbb40a8cU, 0x3d2ff83b3c28d40aU, 0xbd099a5a3c672469U,
  0xbd2dcbda3d28c72eU, 0x3c089dfb3d3c2cfaU, 0xbcebde06bc9067d2U, 0xbd1237ca3d2f4ad1U,
  0xbcf0ce673b2366b2U, 0x3ba3bdaf3d8f2bafU, 0xbd22b2e5bd6645efU, 0xbc83a8233ce5f646U,
  0xbd9fd940bd0fe9d5U, 0x3cce7b2bbcc58962U, 0x3ca45531bd32f8d2U, 0xbc75cee13b4ef039U,
  0xbd8d66b93d14db9eU, 0xbcdbb2b738a2015fU, 0xbd77a772bd4bb547U, 0xbcaeb736bc72f927U,
  0x3d34f5503b1f5747U, 0xbb1d72113d9e1a25U, 0x3d15f3663d1f659fU, 0x3c9c432d3d1d48f0U,
  0xbc942c2a3ce37631U, 0x3ca32367bc57b88bU, 0x3d2ad0bb3cf33ad4U, 0xbd8975b93c810705U,
  0xbd0b6ca4bcff5107U, 0xbd951f52babc17a2U, 0xbc344b77bd668550U, 0x3bdb69463b84f1ddU,
  0x3d6d29c6bd6593c6U, 0xbbce28023d59b073U, 0xbc93a2433d0d4f25U, 0xbd6932a53c6530beU,
  0xbc88c05d3d3656e9U, 0x3d49d44ebd0003f7U, 0x3d05eef5bcab328dU, 0xbd8adf23bc506356U,
  0xbd0204643c7fa50cU, 0xbd928cfe3c5f5e53U, 0xbcef5a9abaf498c5U, 0xbd347b3f3d8b8a04U,
  0x3d65e8153ca8fe91U, 0xbd5a7cc23d6a262dU, 0xbd165ea4bc4b38c5U, 0xbc4375533d3990d3U,
  0x3c04de00bc857a6fU, 0x3c76e3343d664351U, 0x3ca44f98bc4a2ed4U, 0x3d40e946bce2f9e2U,
  0xbb68504d3c58e310U, 0xbc3011d53d4a86f6U, 0xbd34d0e3bd00425eU, 0xbd92560b3cb663f1U,
  0x3cda1bc2bd319f24U, 0x3d0cb9443c43d2d6U, 0x3d5f5a183c8bd919U, 0xbcc0946f3d761028U,
  0x3c4b03303d208e06U, 0x3d06593e3c1eb707U, 0xbd1ae2313d2e2044U, 0xbd0a89533c2ab465U,
  0x3c0ef1b3bc87465aU, 0xbd08d1d33d7de3fdU, 0x3d3f50ca3d88b414U, 0x3d1e71663945f26fU,
  0xbae786503d1fc324U, 0xbb91b8e13d541874U, 0x3cca5f0b3d9ca423U, 0xbc1fad99bce59e6bU,
  0x3c6b6707b9710bd4U, 0x3d53dabdbd490b9dU, 0xbcb7906f3d2b1bc1U, 0xbd01edb93d82447bU,
  0xbd84c202bca14fa6U, 0x3bf2c7ef3d8d48b4U, 0x3d2c4eec3bdd2a4bU, 0xbcbec583bd17b34aU,
  0x3d3c8a303d4d4d84U, 0x3d0dd3d03d6fc7a2U, 0x3d33091b3d620d5bU, 0xbd6e35fdbcb0b1aaU,
  0x3c59f8c73d22849bU, 0x3bf95d5bbc605909U, 0xba90d2943cf7b723U, 0xbd5fa1293da64bb1U,
  0xbc65dff53c91ab91U, 0xbd0320d13dab362eU, 0xbcbd448f3c77a0b5U, 0x3d14af57bd7ea024U,
  0x3d4661b03ad4c333U, 0x3ab9ceab3b1f5127U, 0x3d17f1633d4d44e3U, 0xbd6d5406bcb0f165U,
  0x3bc5881e3ce809d0U, 0x3b255120bd3aa395U, 0x3c9660563d83f248U, 0xbc93ca2b3da3951eU,
  0xbd38529dbd5bcf85U, 0x3c0c835c3da32c71U, 0x3d1a5dce3c64d84eU, 0x3d628649bd20ff16U,
  0x3c9f0aae3d677f0cU, 0xbcb92af43c8b94cbU, 0x3d072a8f3d9d51f6U, 0xbd30b8313cbdf37eU,
  0x3c401d05bba71d06U, 0x3d56a5e0bc88e0f2U, 0x3c8c2d293d52a313U, 0x3ca577fe3da16285U,
  0xbc0a7895bd497b2eU, 0xbc7e44403d0d492fU, 0xb9b7e3353c7b449aU, 0x3c48f79b3ba8df67U,
  0x3d6660a93d1a88c4U, 0xbd0c444ebc1e78f0U, 0xbd58beb63caf3850U, 0xbd2728f6bcb64742U,
  0x3cfe56363d39afe6U, 0x3d1830b2bd29809cU, 0x3d287d703d53a6beU, 0xbc2321853c901fc2U,
  0x3d64aa803ba38a16U, 0x3bfc25d9bcf16adcU, 0xbc8e66d33da8ff42U, 0x3ce25ee8bd6f22b9U,
  0x3cbe749e3da73e4dU, 0xbd4c2c95bc7fd316U, 0xbc714a663d2a2b55U, 0x3ca6ef61bd323014U,
  0x3d4a49283cccea96U, 0x3d2c4b90bcc6b9afU, 0x3da440083c37c333U, 0x3cf21f063d4a2ee4U,
  0x3caa5334bd3d4f86U, 0xbb1ef9f03cf89dc5U, 0xbd88c9633d646bc9U, 0x3d650df23aacd47bU,
  0x3d7f19ba3d8e31c0U, 0xbca2de50bd3979f8U, 0xbd8da3333bd43d9eU, 0x397b8505bdbb7c50U,
  0xbb9b089c3c680a65U, 0x3d9e22b7bd78b5fbU, 0x3d7d3f31bbabdbedU, 0x3bd220a53d658ecfU,
  0x3cab53f93d06ec72U, 0x3d40a2ffbc46d295U, 0xbc00c8e23d165bb9U, 0x3d6fa500bd387757U,
  0x3d97b3443d2e88e5U, 0xbd807dc8bc7eed19U, 0xbd017e5bb9b039bdU, 0x3d587ee5bd148b31U,
  0x3cc04a883c911c7eU, 0x3c96f9263c349720U, 0x3d1dda013d7f2b0dU, 0xbbcce4be3da6efcbU,
  0x3cc37e463ca629a3U, 0x3d8a88ce3d25bf02U, 0xbc6bd24a3d5fb3eaU, 0x3d9ccfdbbd0d3ee8U,
  0x3d7e3cb13b0f25ddU, 0x3c574245bd36cde1U, 0x3c8ef7eebcf973ccU, 0xbc631067bc979f2eU,
  0x3d14f91f3d887a88U, 0x3c8830bfbd202b53U, 0x3d3ca2593d59f891U, 0xbcd93a243d0ef450U,
  0x3d2bd05c3c84a531U, 0x3d5857b43cec8461U, 0xbd1743693cf85007U, 0x3d71cc8cbdc61836U,
  0x3d76c8b4bb7816e1U, 0x3d241dba3b266603U, 0x3b91b3a33c220f6bU, 0x3d542e2dbd58f6e0U,
  0xbcff07f23d542bc0U, 0x3d518f853c69ff23U, 0x3c61e0f03c6624a1U, 0xbc94179b3d329eeeU,
  0x3cc7740ebcb1e20eU, 0xbd00d438bc911d77U, 0x3c25159fbc15cadbU, 0xbc4f854bbd2c63b4U,
  0x3cf056893c104b76U, 0x3cf19364bbf18d72U, 0x3c65d3323d432e4aU, 0x3d5e255ebaa635a0U,
  0xbc4ddd6f3d5a80b5U, 0x3cfec40bbd6c10edU, 0x3c53ab46bc98a670U, 0x3c7a32183db5cd70U,
  0xbc2e1ecbbb825c90U, 0xbcae37f4bcf99017U, 0xbc4d6e083cbd32eaU, 0x3d63e4583d12454fU,
  0xbad92a113c02e4c2U, 0x3d1fca8e3c20f4b5U, 0x3d175ffb3c57ed83U, 0x3d6d4c54bd03d580U,
  0x3ba2067b3d9be9e9U, 0x3d730473bc052c52U, 0x3cbbae1db800edc7U, 0x3b1bddd53ce77cffU,
  0x3cd00b613d3384aaU, 0xbd4dd55bbd1e7202U, 0x3d49f968bd6ff260U, 0x3d06549bbc73e9faU,
  0x3cd557893caaae4fU, 0x3c8812713d3d8510U, 0x3c971aebbd06223cU, 0x3d44d8edbd05f618U,
  0x3d2522443d3b1d5fU, 0x3d80a889bd1d0d3bU, 0x3bab28db3c5449ecU, 0xbcd149643cb48bd3U,
  0xbc6cc814bb4d1089U, 0xbcc3eb58bd77ea50U, 0x3ca2be3bbd354c14U, 0x3c84360a3c0c9a93U,
  0x3c7f08983da89473U, 0x3b7b241b3d66f0c7U, 0xbc12e599bbb839e4U, 0x3c5fef4a3d6a9efbU,
  0x3d114e643d0dccd4U, 0x3d15fc47bd267b26U, 0x3c5dc6973d68c49eU, 0xbc20397b3cf05174U,
  0xbc8d52e83d753a24U, 0xbd6428a4bcb7453aU, 0x3cc0e797bd786d30U, 0x3d9adc25bd1f8f05U,
  0x3bf157483b9cc948U, 0x3d18ccd73d01ab6aU, 0x3bb595143d6f5f99U, 0xbc9bd104bd078440U,
  0x3c7162623d31400eU, 0xbcb1a64a3c9714acU, 0x3d220a493d097117U, 0xbc5470cb3d099508U,
  0x3bc2d99c3bcd13b4U, 0x3c2a7c623cad5c32U, 0x3d01d9dd3d82871bU, 0x3d49a315bbc379f9U,
  0x3b7259f13c9b0227U, 0x3c5a0047bbd219e8U, 0x3c3793fb3d9b82abU, 0xbc93dbcabd79bd87U,
  0x3d88b44c3c97fbb0U, 0xbc9876c3bc84aff0U, 0x3d2fe5f8bd206572U, 0xbd1b98593d21103bU,
  0x3d1349c8bd018001U, 0x3c9d7052bc709586U, 0xbd0b80273d8a3e5aU, 0x3d7340c63d3db646U,
  0xbbcd965f3ce424d6U, 0x3cc230513c28882fU, 0xbd4c52a93c5e37e8U, 0x3cccd8dabd493fb0U,
  0x3d0d57943d06faa0U, 0x3b787828bc8a9519U, 0x3d00adf2bd147ff0U, 0xbc8c6a69baacdb3eU,
  0x3d5fe685bcda5d75U, 0x3d0522b2bd8f7beeU, 0x3aa1a0113d6f79d9U, 0x3cd2b701bc1bc385U,
  0xbce2ef0c3d450185U, 0x3d61fa9dbc554671U, 0xbc70ff0b3d359cecU, 0xbc75de6abd45cd35U,
  0x3d206a07bce23b91U, 0xbd0d8be3bcb20ef0U, 0xbc2660bebd40ae9cU, 0xbcdda116bc865520U,
  0x3d5d8b28bd82eaf5U, 0xbc98cd5fbd061012U, 0xbd4dd6583d2a4f9eU, 0x3d2590a93cd7005eU,
  0xbcba16c93d8e52e8U, 0x3d621c9fbc30d333U, 0xba8734893bd63bd9U, 0xbce936c93c1b4ac2U,
  0x3cad57903cee4ff3U, 0x3ca9f7b4b9a0bd19U, 0x3c05e156bba3d1baU, 0xbc6e9e1f3ba032d7U,
  0x3c5d9c00bd198d3eU, 0x3d1705e9bc8e41e4U, 0x3b68abcc3c718277U, 0x3d919cac3c4ee1fdU,
  0x3d8150ae3d36d4c7U, 0x3c7470edbcf23053U, 0x35c47f803d5abb19U, 0x3d52d0f83d320dddU,
  0x3ce750223d4e2f71U, 0xba4453b13d0670abU, 0x3d55563f3cab153bU, 0x3d1adfbb3c2ae0beU,
  0xbcc5831e3cdeaf37U, 0x3d7a60423d30c91fU, 0xbb5258763d5b2971U, 0x3d9dee08bb196efdU,
  0x3d4a2be83d99059fU, 0x3d6c86843b8ba1d6U, 0x3d6c5a3f3d41dc02U, 0xbc26c56ebd7e2c89U,
  0x3d76cba4bd001407U, 0x3d78f9ba3cbc519eU, 0x3cfe00a83b9fcbe8U, 0x3d4e8b3b3c31df54U,
  0x3d91767e3c15dfd1U, 0x3d561a8a3d3e6d5cU, 0x3ca5bbce3dae3f23U, 0x3d2880f53d68c21bU,
  0x3d81a3d33d8c7d12U, 0xbc8f93edbcda44caU, 0x3b6f9e42bc882912U, 0x3d24409fbca1abfaU,
  0x3d84ce7abc8869bdU, 0x3cd966b0ba89dfe0U, 0xba451177bc499844U, 0x3da969913c872281U,
  0x3d552a8f3cbbdb30U, 0x3c9261bc3cb345f9U, 0x3ca8c6663d416e60U, 0xbb8eb792bbd7eb8aU,
  0x3cfa1dcf3d16d8fdU, 0x3ca9ecb7b95cc6f1U, 0x3c9989323cda71b0U, 0xbc867ef8bc588496U,
  0x3d8dcef7bc3044d2U, 0x3d39e3cf3d482823U, 0xbcb9e31e3beeaf3eU, 0x3c682742bd17650fU,
  0x3a8d5be03cdc6439U, 0x3c9f12b9bce8aa92U, 0xbcc7a45a3c612695U, 0x3b351daa3c31bbbdU,
  0xbc5b64e1bbd17514U, 0xbc2b6e443cac4be4U, 0xbb9cb0f0bcb603aeU, 0xbcd778e1bb93d829U,
  0x3c1abafd3d5d0d25U, 0xbc0ae81ebc0f8680U, 0x3ca1d16b3d0e6012U, 0x3d2bcc06bb332db7U,
  0x3ca9d7583b139283U, 0x3c8dd2c2bcef37beU, 0x3b2c16223c07fda9U, 0x3d565b193c2e3694U,
  0xbc14a83d3cbf4e4cU, 0x3cd4e02e3c2f8908U, 0x3a0d4bd6bd5e9085U, 0x3d9dbc6abd3b7ec4U,
  0x3bdf5e72bc8caeb2U, 0x3c139c513bcdcd8aU, 0x3d0aa75fbcd67563U, 0x3ce6322e3b358900U,
  0xbbd2617a3cc40da5U, 0x3d935ca03c592606U, 0x3d370d26bd461e63U, 0x3d31000a3cf0baa3U,
  0x3d05b7013b93c6b4U, 0xbb1bec9cbba24cd9U, 0x3c7813d2bb42dfcbU, 0x3da410c13a522b7fU,
  0xbc0fab03bbc9a477U, 0x3cdde2193d4d2398U, 0x3dad2351bccab111U, 0x3c890125bd5f3b9bU,
  0x3d1072d23d21e13dU, 0x3d77db6bbd54d705U, 0xbd3e8c9fbcb57ec3U, 0xbc1a67eebc54424eU,
  0x3b2be0383c4896e1U, 0xbc5cf48a3d5f0326U, 0x3b1365e43b07d00bU, 0x3da080aebc882a06U,
  0xbda475fbbc8f39f5U, 0xbcda4a3b3af6a338U, 0x3cbe699d3d026c6eU, 0x3d60676bbda13ca7U,
  0x3c322da4bcea8ad2U, 0x3d4d53f2bd013e67U, 0xbd16f4b2bd50384eU, 0x3bb3de3f3cdc8f2eU,
  0xbd1a7f42bc6369f8U, 0x3cd6a6203d32858bU, 0xbbd8e182bb0b483eU, 0xbc34fa033c79585bU,
  0xbcc1c4a9bd0d9bcdU, 0xbd236b4fbbbe8ccaU, 0x3d737bdbbd000c53U, 0x3d2c1901bc8f2bb7U,
  0x3d89e33f3d053511U, 0x3d758f19bbd47b04U, 0xbce8bf00bd9d1172U, 0xbd42e2f23d8d57dbU,
  0xbd27fc1ebc901663U, 0xbd1976eabbe3e730U, 0xbcf06cabbcd52663U, 0x3ce26b0a3d7e5976U,
