
/**
  ******************************************************************************
  * @file    model_data.c
  * @author  AST Embedded Analytics Research Platform
  * @date    Wed Jan 18 20:20:37 2023
  * @brief   AI Tool Automatic Code Generator for Embedded NN computing
  ******************************************************************************
  * @attention
  *
  * Copyright (c) 2021 STMicroelectronics.
  * All rights reserved.
  *
  * This software is licensed under terms that can be found in the LICENSE file
  * in the root directory of this software component.
  * If no LICENSE file comes with this software, it is provided AS-IS.
  ******************************************************************************
  */
#include "model_data.h"
#include "ai_platform_interface.h"

AI_API_DECLARE_BEGIN

AI_ALIGNED(32)
const ai_u64 s_model_model_weights_array_u64[ 1701 ] = {
  0xbedea657be7b3511U, 0xbe65df72bdd4db8eU, 0xbe9d52a63f72f714U, 0x3f31051ebcc8411bU,
  0x3f6e102fbf22bd67U, 0xbf70582abeb07f2fU, 0x3f5808babf1fdb95U, 0xbee81c713f2d4433U,
  0x3f42ca4b3d2e7295U, 0xbe0e04053f55fba0U, 0xbf7331b23f8100ceU, 0xbf00078ebd40f080U,
  0xbf30d1f13f57073bU, 0x3d0f8167be521c58U, 0xbe8e01f9be71651dU, 0xbe83fdba3edd837bU,
  0x3d33cb1a3f1eeb75U, 0x3f0d3612bf320565U, 0xbdf197a03e827f33U, 0xbea1a7bebecaa71dU,
  0x3d9ba66fbf555284U, 0xbeb234e4be4e0bb7U, 0xbf1fdf393f64eb59U, 0x3ee1088e3ef133f0U,
  0x3e7776783e0fff07U, 0xbf12fea03e51958dU, 0x3e80a8b93f7e8fbaU, 0xbb8f32f2be629fdcU,
  0xbdc1e492bf1a0319U, 0xbe2a5da1be83542dU, 0xbe46d9adbf09d7d0U, 0x3ed1240f3f40392cU,
  0x3ed0c795bf3d33daU, 0x3e0dd6b2bf67ea1fU, 0xbee7e8293f781dd2U, 0xbe0e0d4d3fa9ac89U,
  0xbefe1f023f6ab001U, 0x3e8d67b53e64d5f0U, 0x3f6bf6513f2db0c6U, 0xbf2826793f432ee1U,
  0xbf33bb7f3f63b8d2U, 0xbf7dd3e8bf25b111U, 0x3e13da5a3e48011cU, 0x3f4037d6bf25316aU,
  0x3f7bf685beb304edU, 0x3f0df2d3bded0efaU, 0xbebc2220bf0db1f5U, 0x3ef671db3e4dedd7U,
  0x3f2b01f2bf5d037aU, 0xbf14ab70bfa05d95U, 0x3f6d422ebee93cb7U, 0xbe70b71f3efeb93dU,
  0x3e9d4108bf8b3177U, 0xbf301dc03eec02c1U, 0xbf787b923f5e752aU, 0xbfac08443e9df70aU,
  0xbeb0ff6e3f08d772U, 0xbec8d8013ed0e009U, 0x3d8265d2be8ead0bU, 0x3f31cfe53e51ef74U,
  0x3fb5082fbeba7ee1U, 0xbe30393dbee9393eU, 0x3e85e373bf41e2e2U, 0x3f179f64bf22bf53U,
  0xbebc8cf1bed13db0U, 0x3f3f92a3bf456cfaU, 0x3f71e10f3e6d809eU, 0x3e9197473f36334fU,
  0xbe84e6f5bf36df20U, 0xbf7d0030bf51cf47U, 0x3e0e73d9beec1001U, 0x3ea1b94d3edb82d6U,
  0xbe3ada96bf7879c4U, 0xbd1cd723bd4d4d02U, 0xbf3b6b85bcf8b0a6U, 0x3d24786ebe8a70ceU,
  0xbe3865f53f2d942eU, 0x3f8e73f63e78350fU, 0xbf0367713f1b4f7dU, 0xbfc01ddd3dbed341U,
  0x3f2fc757be81413cU, 0x3da1805bbf138f84U, 0x3e90f8303f7fba9fU, 0x3e91d7f4be0efc34U,
  0xbeead2193e3ee77bU, 0x3e2b1900bf755208U, 0xbed36a313f9e6201U, 0x3ef7b101bf11510aU,
  0xbf2f2b5abea831a3U, 0xbf7295573d8cc6ebU, 0x3e867a293d49782dU, 0xbd886d94bf364ee7U,
  0xbf9be663bed6ae05U, 0x3e7af8f23e10c8fcU, 0x3e6d7a4d3eec2c88U, 0x3fb37e103f01014bU,
  0x3f395b473f45a784U, 0x3f160a73bf2a9224U, 0x3f420f26bf6ae29bU, 0xbf075b72beddc30fU,
  0x3faaa2563f84f337U, 0x3ec6a54ebebd644dU, 0x3e94a8babdd305e5U, 0xbfc0fc8ac0133790U,
  0xbf7195d83e4e00e6U, 0xbd0d2e7bbeeb5f0fU, 0x3e2c552b3fa82699U, 0xbe1d9eaf3f0cd2b0U,
  0xbeec40e03f52afe3U, 0xbf82c4dd3dab1af4U, 0xbeb9ec003fa26db2U, 0xbee338e5bfc2afe6U,
  0x3f7c2f303daab26fU, 0xbfc4b249bf6f989eU, 0xbd3ed2053ef03e37U, 0x3fd2b6cf3df41e5cU,
  0x3cae699fbe446367U, 0x3f63c9863e93c760U, 0xbe6ec5b03f087b81U, 0xbcc041f9bfb9c9f9U,
  0xbe7d94163dbf336cU, 0xbf2bbaefbe1e37c0U, 0x3d715af63f4a28a2U, 0xbec77ade3f5b8dd8U,
  0xbd5d7d91bf462fb6U, 0x3fc56f3b3e87e294U, 0xbe121338bf44b414U, 0x3f80f269bf3c851aU,
  0x3edd1c8c3f0d82d3U, 0xbc9f1f3a3dede600U, 0x3ee6f170bd8858c5U, 0x3d6ba0043e528da0U,
  0x3e5851a1bed65673U, 0x3f39d777be32da81U, 0xbf3f2bd03ef56d32U, 0xbea4705a3de3deaeU,
  0xbf23897b3e3a5c46U, 0x3f1d93fd3e651656U, 0x3e27dc493edd2e6aU, 0xbdfefe783e9efef2U,
  0xbde19c643eabb8caU, 0x3d84487abc40a9a4U, 0xbe4bde6abed3006dU, 0x3ee895dc3efa214eU,
  0xbe610bb3bbad32d3U, 0x3f1191423e9bd2b8U, 0x3fdd57a9be4ae315U, 0xbeac45af3eca9d58U,
  0xbd0f15853edda030U, 0xbf1c69b73e9a81e1U, 0xbe90e50abf95056bU, 0x3f5cdaf63d5dc101U,
  0xbf024236be116140U, 0x3d8458bbbd2ce1c8U, 0x3d9811c03f9dc673U, 0xbf44d5483e31b661U,
  0xbe8d1689bec33becU, 0xbfc906cd3f239ea3U, 0xbe6b4b253e1fced1U, 0x3f22a78d3db80b49U,
  0xbf8754a7be3b3ae1U, 0x3f8fc7873d47b339U, 0x3e1774bdbfdf9f2dU, 0x3f1462823ece9e5eU,
  0x3e039defbf3c1452U, 0x3ede3dbe3f919ed9U, 0xbf1bb13c3f256e5aU, 0xbf98710dbeb0da2fU,
  0x3f03bf963f4ff71cU, 0xbf06f6673c97ddcfU, 0x3f5da30c3d4458baU, 0x3f4b33bd3f8e0950U,
  0x3f4154f93f2e8e6dU, 0x3f30b0c83f09d5e4U, 0x3ef52b05bfa328b5U, 0x3ee0f4d93f1e1653U,
  0x3e5c0292bf4da6c1U, 0xbf87bd1f3f133bacU, 0x3c0e4748bf3d0f8bU, 0xbca45f703f44c7bbU,
  0xbf0b18113f907339U, 0xbe23e50abf22a986U, 0x3f640ec9be927b22U, 0x3cedf9893f3da326U,
  0xbeb9c63fbf1c9c59U, 0xbeb7eb10bf40c785U, 0xbf1ee772bf857d7cU, 0x3f567881bf6d7c26U,
  0x3edcb1713f7b091eU, 0x3d8412fe3e9a9084U, 0xbef750c03f8adcefU, 0x3e864dfc3eb24b11U,
  0xbeca17b6bf4354a0U, 0xbe9a47873eedf575U, 0xc001ec0d3f5b5095U, 0xbe831e933fb6557fU,
  0xbf17087cbfa8059eU, 0x3f3014c8be379ba2U, 0x3f0bbaef3f78da51U, 0x3e26cefcbf9c766eU,
  0x3e2e180f3e797fdcU, 0xbfe656fe3dfc1477U, 0x3f036d8abed68d6dU, 0x3ebb83f13df2de57U,
  0x3f40e1113faf4e16U, 0xbecba7103f5c0943U, 0x3f7c66c6bedf9167U, 0x3f8f3156bd15050aU,
  0x3f389929be8ed52bU, 0xbf2ea0af3d37f068U, 0xbdfb50973db1c133U, 0x3dc5a3f83edfee27U,
  0xbf0a32b9bc889750U, 0x3f173f54bee1b79bU, 0xbf12f6edbcca8bc4U, 0xbeed20fa3f8d3215U,
  0xbe6e29b83ee756bbU, 0x3f2ce9ac3ecfb163U, 0x3f4f48eb3f0d260dU, 0xbf340a5f3e0ac771U,
  0xbe5e8a563f0a9330U, 0xbec28dbbbf806a7eU, 0x3f74e312bf2ddaa6U, 0xbf27f98cbe65edd9U,
  0xbefc96dfbe737dbdU, 0x3d26b82abf53cf58U, 0x3f480eca3eabce7dU, 0x3f865f1a3f042af0U,
  0x3edf36933f59666dU, 0xbfe1484f3e44d3e8U, 0x3f368bb93efed996U, 0x3d65d1db3eb5cedaU,
  0xbdba3bbf3fbf01e5U, 0xbfaba9a9bf147f0aU, 0xbf851d40be1a6ebfU, 0xbd81c6053ebf56a2U,
  0xbe67a1e23f125aeaU, 0x3ecfd68dbfa1e408U, 0xbfb2beba3f49df08U, 0x3f4514b4bee0644eU,
  0x3f2fb1383f198afeU, 0xbf6ce8e23f12d55aU, 0x3f6ef0d5bf8fc410U, 0x3eb7b772be2e96a4U,
  0xbf0e2102bee22c76U, 0xbde8a735bf5d48b2U, 0x3ef59de2be175b98U, 0x3f210765bbc3ca42U,
  0xbf167a82bfa00efdU, 0x3e9fb83f3e71dc55U, 0xbc5d6dc03f667f93U, 0xbe9d79d23f985911U,
  0x3e883faa3f498138U, 0xbd0273023de01f93U, 0x3f3557373fb21021U, 0xbf35858d3d8bd8abU,
  0x3dffdc8abecd2526U, 0x3dda075bbcd208f3U, 0x3f9daa4e3d8ffc17U, 0x3f4419babf2faa1eU,
  0x3f2ba6043ed8f562U, 0xbd3f47f5bf14661cU, 0xbc74a9343f1d9084U, 0xbf0293b3bef33622U,
  0xbf0e6cc03f0cd7a6U, 0x3f6cfb39bebd5dc3U, 0x3e64eddc3ec59f57U, 0x3f2de8cdbe6618ffU,
  0xbf182c893e33e6a9U, 0x3f109fe3bf85fb40U, 0x3f0a0ba33f15bcfdU, 0xbf29eb4a3e75bf44U,
  0x3f0ee3373f0b7450U, 0x3d88ae043edccccbU, 0xbf7192d7be2102f2U, 0xbc3111c5bf242317U,
  0xbd72447f3e69f8f7U, 0x3ea31d203edfe463U, 0x3f1dbdb53f4c6d23U, 0x3e3f30c43f118121U,
  0xbeebc2a1bf16bfa0U, 0xbe58c0153f954818U, 0xbdd0aef4bf0b6927U, 0x3f891341bf09641eU,
  0xbf98c8843e408912U, 0xbe3bfe903e71fa8aU, 0x3d7de39f3ec1ff45U, 0x3f42ca3f3ea58c64U,
  0xbeaed9cc3f023991U, 0xbe9c24fd3fa510aaU, 0x3dc2cdb2beaf792fU, 0x3eef0f3f3f52d0abU,
  0x3f1d1b43bf52b974U, 0xbe2177f9bf815a96U, 0x3eb0a9d8bf5f0d4cU, 0xbe9c6646bf5ba253U,
  0x3d876f2bbf21dcf0U, 0x3f60cdbcbe4d1837U, 0xbf9c508e3d301e0cU, 0xbcc20bf53f111e1fU,
  0x3e0b89183f5aa05dU, 0xbdc17054bf512dadU, 0xbe3ced1cbf0f51ccU, 0xbee148c93f55f4d0U,
  0xbf77bd22bf9768b4U, 0xbd34e5f33edf0b29U, 0x3f26e27ebf1ac2a7U, 0xbf17ab64bf7869d5U,
  0xbdc8fb65bf72714cU, 0xbf4cfba7bec827f6U, 0xbee77aea3f37d9beU, 0xbfbab6c9bf49097eU,
  0x3eb2682d3f7b313bU, 0xbd00fc0d3ebe4e2fU, 0x3f83b2103ec5aaa1U, 0x3ed4a911bda8844cU,
  0x3f118330bf33d291U, 0xbcc3bfadbf595fc7U, 0x3f4c32e4bea11ca3U, 0x3fa805573ea58b86U,
  0xbf39735d3fa78577U, 0xbeec01edbf82012fU, 0xbf982e363f41cd87U, 0x3e4a7f5c3eac6236U,
  0x3e603967bf17ea5eU, 0x3eb5cac23f54bfb3U, 0xbf9ba25dbf358324U, 0xbfd665dcbfacfbacU,
  0xc00c348fbf86e759U, 0x3fd980e4bf9d85b4U, 0x3ec542febe12fc2bU, 0xbe18c621bed4baf8U,
  0x3ea37e6d3ecea2b6U, 0xbdd9d9cbbed09390U, 0xbda03d4dbd11130eU, 0x3d8ffb87bea3c0b3U,
  0x3e747c7f3ed612b1U, 0xbdac0d6c3ed4eac3U, 0x3ec97ae13eae470dU, 0xbda4a160bec08974U,
  0x3e80317dbdea5dcbU, 0xbb3f3bc23dff666cU, 0x3da79e0cbd496a6aU, 0xbda3b43f3e940b72U,
  0xbee633ca3cbe6231U, 0xbe51c4ce3cd23383U, 0x3c500f853dce769fU, 0xbc78c5f5bea464faU,
  0x3e69966ebdd044cfU, 0xbcde70ec3db2bee1U, 0xbeb1736cbe34e0cfU, 0xbe12e42ebe9d64e0U,
  0x3df7f5f4bda896b8U, 0x3d411f4bbdf07ba4U, 0xbcb87045bd80dc95U, 0x3dbf2d8ebea5f35bU,
  0x3f1e84ee3e7f2534U, 0xbe57f2d9be2f8d79U, 0x3e1bee98bdb8a7e7U, 0xbe118f64be5db5d9U,
  0x3da9ce7e3e5acff6U, 0x3dcdba013c7b3004U, 0x3ee6e3e83deaaa1fU, 0xbd9118f0be23de05U,
  0x3e864deebd8f47dbU, 0xbd2b4ff53db52fcdU, 0x3e7fd1db3ebe4fd5U, 0xbe63f0533e888870U,
  0x3eb820f73eb401e3U, 0x3d8a3a57bdf16f26U, 0x3e3e4eb8be2dbae3U, 0xbcf579983e2b9aecU,
  0x3e59f7393ae4f012U, 0xbe1f51a43dbbf160U, 0xbe8fa887be1de49cU, 0xbe3cfc28be04c75fU,
  0x3d8ee04cbe6a9c7aU, 0xbe6fc3c4be1fc3abU, 0xbd0e30013e1ebca1U, 0x3cfe5790be19c6f8U,
  0x3f0597873e428852U, 0xbe8db03dbec415deU, 0xbd2eea0cbe83ee6dU, 0x3df78c6abdbe47ecU,
  0x3d377daa3cc4882eU, 0xbeba3264bee2c7e2U, 0xbda136b43f10d128U, 0xbdc734dfbdf71e06U,
  0x3db4dfe8bc5426edU, 0x3d8a896bbe8622ebU, 0xbe1e620ebb177cebU, 0x3e22805a3e283580U,
  0xbc939e663e36b45cU, 0xbc7022bb3dc012f6U, 0x3c0dcf15bd2ba2dcU, 0xbcaac8ec3dbfe711U,
  0x3e0511eebce11291U, 0xbe1631d23e22f7dbU, 0x3e6347103d7ce1e7U, 0xbd3a3659bdde5ff5U,
  0x3d85fdea3e2df2fdU, 0xbdb7a01d3d13fc26U, 0x3cbc3eebbb01f317U, 0xbe25f2fe3e7d9935U,
  0xbcb2c1e53e8b2265U, 0x3d7c81b8bd64fdefU, 0xbc32b5613ed9781fU, 0x3e4f5fed3e89b099U,
  0x3d4cbbce3bfc247aU, 0xbddab7eabea4e8c2U, 0x3dd1d8273e8253edU, 0xbd4265e83d982950U,
  0x3cdd8b56be7777d8U, 0x3e6356473d13672dU, 0xbe087a14bdf68494U, 0x3d78e11b3e3900f1U,
  0x3eea3af83ec003a5U, 0xbe292906bea1caf8U, 0xbd1eb9fc3debe623U, 0xba8d8c2c3eae2dffU,
  0xbde34107be0819f6U, 0xbe0033a43edda551U, 0x3eaf59e43e02ad9cU, 0xbee0c3923ad89672U,
  0xbe1109dabe6e4f29U, 0xbe791afd3f01a982U, 0x3ef1900cbd84e2d6U, 0xbce201cb3eb2951dU,
  0x3d8ea761be5c53c8U, 0xbdd4af4dbe397335U, 0xbdbb7ac83d542008U, 0x3ca150d13e9ae21dU,
  0xbe944bb8bde42b7bU, 0xbe82e2f9be8aaf20U, 0x3d5367b23e9a658fU, 0xbe5bb4603e13092dU,
  0x3db6dd303e54e442U, 0x3d7b10e1beb47787U, 0xbf0507f83e053a27U, 0x3d9a5ee93c170bb8U,
  0xbe9eca5d3b3126ebU, 0xbe5797b03ef44275U, 0xbb91863d3ee56898U, 0x3e8415b53e8dc527U,
  0x3d109c50be9c6b76U, 0xbd9217e13db4e56aU, 0xbe825cfcbdea24efU, 0x3ef5a0a83ee6de72U,
  0xbdfc830d3e880169U, 0xbe3497903da9b78cU, 0xbae94c493d92ab27U, 0x3d8a141a3e3581a2U,
  0xbed0be15bd0e6133U, 0x3eccb52ebef65932U, 0xbe448cf03dd28c0eU, 0x3d35efef3ddcee30U,
  0xbe3c619fbec9b80aU, 0x3e25b4953dd5c5aeU, 0xbe925a2abea7b86aU, 0x3ea94f043cf6c3bfU,
  0xbe158e50bdcbbf42U, 0xbeffcb0e3d5d813eU, 0xbed0314d3d8570d3U, 0xbe538455bd8cae6fU,
  0xbdf19bd23e8afeedU, 0xbe8c154a3ec2d256U, 0xbdf333cfbda1453eU, 0x3e8afbbe3ebd13c4U,
  0xbe1c547fbd61603bU, 0x3e15a0513eb0ec62U, 0xbd13dff63e650e73U, 0x3e241a093da52f47U,
  0x3d27379abd22f358U, 0xbe91dcccbe5eae46U, 0xbd5f9256be49b9bbU, 0xbe17552c3e94d296U,
  0xbe843f743d3c878eU, 0x3efca0d23ed6c30dU, 0xbd343ef63f2ce464U, 0xbdd9ba75bdfce61eU,
  0xbe42f3c2be34e2e3U, 0x3de95163be75eee0U, 0xbe42294b3e10b737U, 0x3eac61db3e9055fbU,
  0xbd81910fbd08784bU, 0x3d8637c13ed04011U, 0xbd95524cbe02b6deU, 0x3e5b2a60be9ef6a8U,
  0xbe09453ebe73bb71U, 0xbe0802cebd0d1bffU, 0xbe4325963ec03b8bU, 0x3cbb0cc63e0bc8e6U,
  0xbeb3d49f3da9bb1fU, 0x3d08717abd93b818U, 0xbe0c46243e06895eU, 0xbec872f73ed49c0eU,
  0xba2f81513ea8db94U, 0x3e3bfc1e3d92589aU, 0xbe55bad9bdbc1f4dU, 0x3d82b13c3e987321U,
  0xbea46978be9741deU, 0x3f44f5a93e7bfd63U, 0x3e50d6423d66bf11U, 0xbe45ad22beac0f9bU,
  0x3caeb09f3e103b20U, 0x3d6a87cc3b8d36b9U, 0xbf00e5debe352c37U, 0x3f02ae75be463ccaU,
  0xbe2514703cca797cU, 0xbdc03c7d3dd220a2U, 0xbe970148bba98e72U, 0x3c98930fbd258b59U,
  0xbe41e5bcbd8d4f99U, 0x3e188d2bbd333caaU, 0xbe1dfc893d1557f1U, 0xbea7a7403e5ee0ebU,
  0xbea9d006be0eed35U, 0xbe102812be083daeU, 0xbe3886d83e1cf13aU, 0xbeb69b8e3ea008c6U,
  0xbda535743e6eb36aU, 0x3d752a013edc05fcU, 0x3e3a69d2be7fffe5U, 0x3d5a56bd3eecae46U,
  0xbe182674be17f315U, 0x3eae14c13dcd585aU, 0xbe090265bc05e2bcU, 0xbeb2d555be2a38a9U,
  0xbd94a778be4d2156U, 0xbd0b98363ea27dd0U, 0xbdafb30cbdabe790U, 0x3f14001a3e7c78adU,
  0xbd4280203c9dc9cbU, 0xbd15ede0bdfcea0aU, 0xbe024785bde5308bU, 0x3e0f6b2abe97b69eU,
  0xbec88d90bcca125dU, 0x3ec109253e00fd44U, 0xbdf550563e5e4e05U, 0x3c4a31803ed4ac37U,
  0xbd30fbb5be3229c5U, 0x3e759063be117186U, 0xbe7aab71bd8da400U, 0xbe7f3e093e01cfc0U,
  0x3c9ef75a3ecc9f95U, 0x3e49fbb73db153f3U, 0x3d80a46dbe148f5eU, 0xbdc81d813d8d62f8U,
  0xbe5c460e3e96e8c1U, 0x3edb6803be6a6b65U, 0xbc508b793dfac413U, 0xbea865c6bec3cb6cU,
  0x3e6bf3933eaf8afcU, 0xbcce42153ec8abdbU, 0xbd8466c9be129571U, 0x3f0c33c5beda3345U,
  0x3df8ffd8beaaa5bbU, 0xbec102bcbe505b72U, 0xbe31041f3e5d0e0dU, 0xbddd0cf13edc6c14U,
  0xbdc93068bde34d5eU, 0xbebc9fb1be270158U, 0x3e290503bc7ff484U, 0x3db11ba33dae988bU,
  0xbc7da5803e9f5f72U, 0xbe6d36c53db95349U, 0xbc94d6b63e617751U, 0xbea665d3bdc41c67U,
  0x3e554c8bbd626f64U, 0xbda536b8bdd7695dU, 0x3e057f9a3e99ee72U, 0xbda5b49bbdc77709U,
  0x3c9c85533e4a500aU, 0x3edc32343db77693U, 0x3dcd1bc53d819750U, 0xbe5b72a7be2e97abU,
  0xbd5bc3823e752ab2U, 0x3e9618043eb2b288U, 0x3b4916f6bd184a7dU, 0x3e0fcf9ebe7cc0fdU,
  0x3dd1cb2ebe9600d4U, 0xbef43d913cd3e738U, 0x3d97c06d3e9770c2U, 0x3e1ed6a13e9ac10aU,
  0xbdd3235e3e3169d6U, 0x3ece14dabdf6a798U, 0x3e2a05c3bf1cbeafU, 0xbe8c81683e6307feU,
  0xbdce449a3e4b3af4U, 0xbe13a2383cdd00daU, 0xbddb0339be74d686U, 0xbe8572e03e8101b2U,
  0x3d3d01f7be5abfd2U, 0xbd6ff230bc7cb80aU, 0x3eb905dc3bece602U, 0xbe13a363be8dee92U,
  0xbdab8f1c3e22b031U, 0x3e00b050be6de0f7U, 0xbe75242b3c47fa55U, 0xbdb8f070be34269bU,
  0xbe84989f3e6dd489U, 0x3e9503d73db39496U, 0x3dc681adbe44f4b5U, 0xbd563cf9bde3fdddU,
  0x3e75e130bdf2bc81U, 0x3e8d9b65beb81c7fU, 0x3d2e58113e067374U, 0x3e9a1522be409f93U,
  0xbe83c836bebfb5c9U, 0x3e0fc377be883108U, 0x3e5b925c3be1360aU, 0xbe6c07edbdbb7df3U,
  0x3eec62f23cecf898U, 0xbda290ae3de46c51U, 0xbe36eeaabdc530e9U, 0x3e54e98abcb80dbdU,
  0xbe0d12053db2d62dU, 0xbeae97123c097885U, 0x3dfeec513b9cfe36U, 0xbe96bf9cbd290b04U,
  0xbdba5c1dbdcb9eacU, 0x3ed4acb63c0f4c13U, 0xbdf0f18bbdbfc0dfU, 0xbec11b90be543509U,
  0xbe8a46353e67c757U, 0x3dc01b9ebe71479fU, 0x3e2dc24b3d12560aU, 0xbe925bf0bdc7e561U,
  0x3e8b0b3d3c972531U, 0xbe21687ebeb63a43U, 0x3e41f01d3e4c9031U, 0x3e0894283e8ba449U,
  0xbe429ab1beecd548U, 0x3e578c853c291270U, 0x3da6f6a5bea87ed0U, 0xbe8c4c1bbe8a41d8U,
  0x3edb54393e7008c4U, 0x3de99a233e068988U, 0xbeba0788bf153985U, 0x3efa0a30be7ac53dU,
  0xbd3f2667be52130cU, 0xbe3db781be5da455U, 0x3d48af02bde31f1eU, 0xbe5045c0bd071b8aU,
  0xbe8b08ccbd4bcac0U, 0x3e9ecdde3d8db7e2U, 0xbd525c7ebda9fe76U, 0xbe3faab23daf596bU,
  0xbe887bbc3e1640feU, 0x3efdc9a73e4c4f10U, 0x3e3c745abd817516U, 0xbeae880e3ce8a392U,
  0x3dcbdb48bdace104U, 0x3e8b8b54be1c9e90U, 0xbea7711cbe0d1a80U, 0xbd5beb84bdd8215eU,
  0xbd03727dbcdaa8e7U, 0xbe0b77ea3eb7487fU, 0x3e9b18453effab7fU, 0xbd0fb23e3e05d6daU,
  0xbe885562be91e06eU, 0x3e6d13593e3726d2U, 0xbdf1634bbdf44d17U, 0x3e701cef3e8794dbU,
  0x3ce05347be95a773U, 0xbe848fddbe3eba13U, 0xbead56253cbfcaa5U, 0x3dbdc1f13df73400U,
  0xbda678c33e9d1e3cU, 0x3d9cd2cbbe2ef855U, 0xbe437d573eb55000U, 0x3e8392fc3ea56a39U,
  0xbe46db09bcc86e08U, 0x3e4102c43d5d35dcU, 0xbdee8c8e3dad6fd2U, 0x3e848957bdf15d3eU,
  0x3ca63a2e3ea68116U, 0x3d9074d03e89993eU, 0xbd8ff2d6be4eeaf7U, 0xbdcfe2f93da01c09U,
  0xbd95f9d93e0be623U, 0xbe5fa0ba3eaa095eU, 0xbdd802db3ef44167U, 0x3d6b118b3ef63576U,
  0xbe81271bbe95b9f2U, 0xbdb358ac3e854d75U, 0xbd880cdebca6235aU, 0x3d15db643e1c0ffaU,
  0x3caa8b69bdf418b5U, 0x3d43bef63e0878b2U, 0xbe85852cbeba7592U, 0xbe88bf5b3e87a6faU,
  0xbe8678d23ea34250U, 0xbd236c183dc0c2b1U, 0x3e05470bbe9e4df8U, 0x3d07ca7dbc598c85U,
  0xbe041096be12f20eU, 0x3ef2e34b3e9a06cfU, 0xbdbf6cf43e8af9adU, 0xbd89e2dcbe18ec42U,
  0x3d8d0cbc3f16bad5U, 0xbec0645e3ded1e73U, 0xbe07e37cbdac5b32U, 0x3d5a499a3a70c003U,
  0xbe7591053e00d7e1U, 0x3d19ce553e962005U, 0xbd95cc193eda96a0U, 0x3e16a928bd23929cU,
  0x3d8ca9b53f1e2674U, 0x3e8cff693e82e714U, 0xbd41fca8be487f4bU, 0x3eaffaf9bf2a285aU,
  0x3e6ac4c9beb0cd52U, 0xbec792d6bef73e64U, 0xbe5c6fcc3e298629U, 0xbc5179ba3ec48d9aU,
  0xbb8ba9b13e372fddU, 0xbd8ecf00be16fbd5U, 0x3e7802943d20ee99U, 0xbc8d49bcbe2250c1U,
  0x3e994875be687fdfU, 0xbd4e84a03c116032U, 0xbe55cf683e93288aU, 0x3c7a445fbe10b039U,
  0x3d418bb03e190912U, 0xbe4ee602be7dd568U, 0x3e7a0e163d4ab70aU, 0xbd9a1acabd934205U,
  0x3d76a03a3e7835ceU, 0x3f070837bd126a5bU, 0x3d939b51be1e7ad7U, 0xbe61b5cebeab1e39U,
  0x3e83b9643e796d0eU, 0x3e44c17a3ebb4cd8U, 0xbd1bafe1bd48e90dU, 0x3eaa8ef5becdfb00U,
  0xbcb772fbbe3be743U, 0xbedcde8b3def11f0U, 0xbc0963123e7c5bfaU, 0xbd71aca63e953946U,
  0xbd4c1d08beb875afU, 0xbecc3029be204a46U, 0x3ed20be8be0ed9b9U, 0xbe283ddcbdae3cd1U,
  0x3d3ad9f13e96c364U, 0xbe0817ad3e4e10b7U, 0x3cee5a8dbe525d6aU, 0xbe886636bbc1a9e0U,
  0x3f20996dbebf9c78U, 0xbd344977be2ffceaU, 0x3e2d168ebc284d81U, 0xbdb94063bedb5cd3U,
  0xbd845073ba6c4021U, 0x3e213725bdfe8478U, 0xbe4233cc3e0cad69U, 0xbd892b4abdab6bfbU,
  0x3c97e14d3e9566aaU, 0x3ecae8463e57264aU, 0x3e3ffb453e58f2d6U, 0x3d3e01c3bd8becf9U,
  0x3e6f5926bf0c8b2bU, 0xbeca34ffbc3cb559U, 0xbd990da1be6dc724U, 0xbe87c56cbd239d68U,
  0x3dd08a48be3b3686U, 0x3dff0ee8bc4c262fU, 0xbf012fad3ea7c060U, 0xbe1d9fac3e1cb32eU,
  0x3e14eb52be32f87fU, 0x3ef120d8be059f04U, 0x3e54a6f8be65bf1dU, 0xbe71d2b7bdc96a62U,
  0x3e275d793ed4d3a7U, 0x3e34946fbd56f915U, 0x3de9a33f3c37e367U, 0x3f08fc0abe838e63U,
  0xbe0ca40abe5677bcU, 0xbdac80303d63b2daU, 0x3e1797c3bddf85b5U, 0x3dfe702d3dedd3aeU,
  0xbcff222ebe450bbeU, 0x3e518480bdce49fbU, 0xbd5e6c9dbe405b45U, 0xbe9105a6bcd6e657U,
  0x3e88cd7dbe98e0d4U, 0x3cf2bdb33e5373b0U, 0xbe62cbbcbe815826U, 0xbe92195dbe5ebad7U,
  0xbe2004c5bd1ea151U, 0xbea810fa3d0f56bfU, 0xbe8ffa053d6b4191U, 0xbe0fb5133c34ecc4U,
  0xbe64152dbe1dc950U, 0x3d4708423e6c6293U, 0x3db4e0613dfcec6fU, 0x3e0fefbb3db87b61U,
  0x3f00a9b43eaaec4cU, 0x3dd8dd90be430f7fU, 0xbdca3b26bd57a1c0U, 0x3eb05bd7bc99b313U,
  0x3d8a51abbe408618U, 0x3db071b9be0c4c32U, 0x3d09033d3e7100b7U, 0x3ec656c53c329248U,
  0x3c9d55e4be31a34bU, 0x3e9ce0f6be0a7d9bU, 0xbdfe4552bec091a0U, 0xbecdc7cb3e7d1de5U,
  0x3f0f25923d14667dU, 0xbd9e9e56be0025ccU, 0x3d7d7ebcbe76b4deU, 0xbe4d5b0f3e87c697U,
  0x3e283db9be077008U, 0x3de44883bd42ca6cU, 0xbef2d8743e9cad06U, 0x3ee97baa3aaa8e48U,
  0x3d32b39abe2a654eU, 0x3ea25559ba1c1ac9U, 0x3df410de3d77d7d2U, 0xbe3fa62e3dec88a1U,
  0x3e897e2d3ea527cfU, 0x3e2cc893bdd902f6U, 0xbec7f934bd9eabc2U, 0x3eac4b673d14aad7U,
  0xbe91d6aebee4a6bcU, 0x3e355ecb3deb4f3bU, 0xbea7d618be6bfee9U, 0x3d9fa17a3d20f0b4U,
  0x3d8170a83d2f798bU, 0xbe9abf33bd88424eU, 0xbeecd3253cf87eabU, 0x3e958fd93d893d83U,
  0xbe718bfa3e659617U, 0x3d7596563ed8c89bU, 0xbdf1e0cebe21a734U, 0xbe81d0cdbe337aecU,
  0xbecc9168be6075f3U, 0x3e597c863c8d898dU, 0xbe0e4a3b3e9e0059U, 0xbe5cf174bd629154U,
  0xbeea5a623d4b720cU, 0x3eb0cac0bef2accfU, 0x3db652d93e0a7eefU, 0xbe81e587bdc5d5deU,
  0x3e2c60bd3dd1135cU, 0xbe8f90b83e3b5114U, 0xbe29f2edbea45579U, 0xbd1bcde63d98fd2cU,
  0x3dfd38acbf271153U, 0x3e0fd2703efcf095U, 0x3ea1acb1bdb68462U, 0x3e7ad090be98db83U,
  0xbd92cbf1be0c25cdU, 0x3df534a03d9ca259U, 0x3da6ecb7bedefa85U, 0x3dc545153e82bfb2U,
  0x3e37ed78be390057U, 0x3eb6a451be48801aU, 0xbe032f6fbde536b3U, 0xbdfb7902be247047U,
  0xbf18ff47be0f030fU, 0x3dbb5e92bd367a5cU, 0xbf5483a83ef93156U, 0x3dbe4c013ecd4d6dU,
  0x3e3d1048bebc9ce9U, 0x3e7c3c123e9f1a56U, 0x3d1aa2ba3d830230U, 0xbdca078a3e26da98U,
  0x3ed27a493ecd9c43U, 0x3e06a26d3a1b8d30U, 0x3d9d71b23d236f43U, 0xbe1edfa6bde39fecU,
  0xbe35f56e3eb85818U, 0x3d0d54713e3b0accU, 0xbed253873e37ad73U, 0x3dd8b515bd7d2e16U,
  0xbe0210f2be1daab5U, 0xbdcb11a0bea72018U, 0x3e1158cd3ea494e4U, 0xbe1dd218bd369ab4U,
  0xbda4b1d0bea6f141U, 0x3e8e2a0f3e9aa73eU, 0x3e98d46c3d3b3e1cU, 0xbeb2733dbc448993U,
  0x3e1528e6bd94e008U, 0xbdc4d9153eaa25e7U, 0xbe866799be09350bU, 0x3eb0dd89be041cd1U,
  0x3da7c821be0cc076U, 0xbed179adbd9188c2U, 0x3e8ec9e0be275a75U, 0xbe201ee83e2e0630U,
  0xbe67920fbe1173e9U, 0x3e9157b33daa8db1U, 0xbe3d17773e0100ecU, 0xbe20d4babe30b83aU,
  0xbddb306c3d2927cbU, 0x3da5a4b53eb16554U, 0xbe87dc51bc8da3f8U, 0x3d3d786cbc16ce1cU,
  0xbe68f023bca93a80U, 0xbe03280fbdcb24b1U, 0x3e4408b53e5f6ff1U, 0x3df5df94bc902731U,
  0xbe4dfd483ce9c233U, 0xbdf872803e3e559dU, 0xbe3b1b5f3e302650U, 0xbe5b4455be3f5342U,
  0x3d1cd23e3eb6fd17U, 0xbd9106c13e346ac0U, 0xbd55f5673dd85277U, 0x3d7d373a3ca102f8U,
  0x3d3f0a9a3dbb49acU, 0xbe462b1fbe99146aU, 0x3e927defbedac0e9U, 0xbdba79523e9362a0U,
  0xbee3d8a7be8ff8a8U, 0x3e2a49e63e93c422U, 0x3e788be23da217feU, 0x3d66f183bcc1ab63U,
  0xbe599c45bd70cf95U, 0xbd9e6fff3dc05b53U, 0xbec464ec3de7a433U, 0x3bc361d43c491bf1U,
  0x3cc07a5a3d46a3e9U, 0x3e9f67afbd9c588dU, 0x3e8ac9f4bd17643aU, 0xbe313a04bea00577U,
  0xbed671963d23bca5U, 0x3e361a8abe7f394eU, 0x3e96e7353d35be64U, 0x3d755815bea20398U,
  0x3dcdefa73d18b22fU, 0xbe32b7f2bdd55c98U, 0xbd29a1d1bead9466U, 0x3d12f6d7be0f2335U,
  0x3efe11cdbc9624d8U, 0xbe9180ba3e074f77U, 0x3e9148a7bdab862eU, 0xbe73a2aa3e1caff5U,
  0xbd0714233e20bc8cU, 0x3e709d0dbd8b5821U, 0x3e0e1fc53e9553e7U, 0xbf08ebc2bdb2876eU,
  0x3e292066bdeeccd8U, 0xbdc5c3003e119b2fU, 0x3e830a0dbcd3e970U, 0x3c534b37be0ff330U,
  0xbf08633a3cf67b82U, 0x3e2481e5bec59a8bU, 0x3dbd5cd3be6a0a31U, 0xbbb825dfbe20f0e9U,
  0xbe92b2913ddd8ef0U, 0xbd25e8193c9573b0U, 0x3e14a6a9bdc09f22U, 0x3dd2aed0be2ade2bU,
  0xbe2d1657bdab72ddU, 0xbe3882c33db96385U, 0x3e966d90bef7dc18U, 0xbdc2ef383dc1f7bbU,
  0x3ea0210fbde150d0U, 0x3e489f96bd296b65U, 0xbd8718e2bdf5141eU, 0xbe911d1cbdfb50a1U,
  0x3d2359bfbec7b8a2U, 0x3e5313c5bde210ecU, 0x3e5abe1c3de7d9d0U, 0xbee01904bdfb0975U,
  0x3e9d247abe087398U, 0xbdce4ae1bd0cd271U, 0xbe6109c83dc55bbeU, 0x3d7cec00bdc557ecU,
  0xbd020edd3cb77f38U, 0x3e130f4a3de62de4U, 0x3ea29541be0e6eccU, 0x3dad5b54bd5cfeedU,
  0xbd132f003c7acdbaU, 0x3e2c0b55be668565U, 0xbe4b1e573dc13c21U, 0xbe8445eebec5a7aaU,
  0xbb6cf1623eba3b6eU, 0xbdb705c53e2c6995U, 0xbbee397e3d680520U, 0x3df99691be382eb3U,
  0xbe6b5933be9cb5adU, 0xbdcf6791be34cdf2U, 0x3e96fa323e9aee76U, 0xbe2d58063d95dac7U,
  0xbe2ce05fbe34457eU, 0x3e5ba7663ee6e637U, 0x3e672d2bbd821723U, 0xbe857fdc3b795e68U,
  0x3e612c6d3e8680daU, 0xbcc15f5e3d9b7e88U, 0xbe5a28833e052f6fU, 0x3d9b77473e03d323U,
  0x3dfa56c6bd4eed9bU, 0xbea833283e075528U, 0x3ede035abdde5419U, 0xbdbad61f3e6e9300U,
  0xbe909458bdaf3117U, 0x3e21cfdf3ea7cf80U, 0xbddbf4ec3e2d56c3U, 0xbe0b19793d59196cU,
  0xbdc7c6043e432669U, 0x3dfcf7283bdde778U, 0x3d905d443d8e9446U, 0x3e376e373d6b6ae3U,
  0xbdefe56cbe0d9052U, 0xbdd4f88dbd9c0675U, 0x3e849ead3eb5564fU, 0xbdd99b95bdfcba09U,
  0xbe45a507bc2f019bU, 0x3d87a5e93e12a840U, 0xbeb20a3f3d5aede4U, 0xbe8a3c30bd10df8aU,
  0x3d5a1bf13e6569a5U, 0xbdb010c23ea2d2a0U, 0xbda12f9e3e06ef42U, 0x3e0d847e3eac5fb9U,
  0x3e90cf783b5a86dcU, 0xbe863b72bd401c1dU, 0x3e8e9e69be4cb55bU, 0xbc54e542be6211c0U,
  0xbe8ba835be0e9c29U, 0x3ddf64863e2660c4U, 0x3e5d9de4bdf5cdd4U, 0xbe26d751be4975c9U,
  0xbdb7008f3cf2eae4U, 0xbdf86b473e5c585bU, 0x3c94cdbb3c97f4d8U, 0xbcc0e9f0be4a6ef2U,
  0x3ef0a5313d1e3011U, 0xbed9782fbdac5e4cU, 0x3eb9a8bdbd898148U, 0xbdfba38f3d8db35aU,
  0xbe772f24be4dbb48U, 0x3ec8b42bbcb458deU, 0x3e0e53763b3a1186U, 0xbd482cdcbe7757b6U,
  0xbe4962763e954927U, 0xbcfbf81d3e776420U, 0xbec239ce3c3568cbU, 0xbe172758bebeae79U,
  0xbcda377abd3388abU, 0xbd695f55be023bfeU, 0x3e8b51ad3ecfa469U, 0xbdcf4f65bddb964bU,
  0xbdd14a273c6af456U, 0x3e456f5b3e72b22eU, 0xbe40a7d03d6a34d4U, 0xbe493466be063b73U,
  0x3e8e66133df9eb0dU, 0xbda199f8bdb13e76U, 0xbe14b043be1caf9bU, 0x3e044e1e3dae9c2dU,
  0xbc1f590d3defafd8U, 0xbe9b5950be354b05U, 0x3e795c40be09091fU, 0xbe7950c33da69d5bU,
  0xbd8da7ebbeb3566aU, 0x3e5ae2ee3d6b7493U, 0x3db493b23dd72c99U, 0x3d1ff14cbd707ae4U,
  0xbe11bcdbbd3e1d99U, 0xbd8a9c46bdd0f901U, 0xbe9d461b3d9f1c82U, 0x3cb34da6bda661acU,
  0x3e50eced3dfd0b58U, 0xbdbeaa2bbd1e28a5U, 0xbd1f356b3cb19431U, 0xbddf26ba3e299403U,
  0xbef7a1503ca302b7U, 0xbdacab33bd56069eU, 0xbdbd71843eaee451U, 0xbe1a2e30be97d1c2U,
  0xbc9fb2003e38a6dbU, 0xbd41e0fbbc5af23dU, 0x3c34ea3cbd28ba64U, 0x3a9980443ca7ba33U,
  0x3e4cbc40bd576563U, 0xbe6a1509bd28e6e1U, 0x3ec18469beab6797U, 0xbd1c74ac3e02b32eU,
  0xbde1327bbe526d4fU, 0x3d1c1bfd3da47117U, 0x3e1683693debbe3aU, 0xbdbcca663d38e2feU,
  0xbe94ed5f3e783376U, 0x3f09b7083ebbb86eU, 0xbdb2c9f33bf185d1U, 0xbd9a0a9bbee30b3dU,
  0x3e2adcb93e964300U, 0xbe3b0f2abd74157eU, 0xbe5816f9bc306bbbU, 0x3f1cb3b6bef50b07U,
  0xbe5486c3be83b471U, 0xbe8b0eb8bcd254d0U, 0x3d0900d33e54559eU, 0xbe52306e3d9c5110U,
  0xbe16929f3d85a393U, 0xbeb5190f3d94eeb1U, 0xbd3a9a1abe19a720U, 0x3e90ffc23e12bd9cU,
  0xbea1a6cc3d55e5d1U, 0xbe5950d9bd7b94b2U, 0x3dea13eabe89471bU, 0xbeaf38f43e3a8ac1U,
  0xbec730b0bf072f66U, 0xbd40bdb13dd48809U, 0xba453d573e9a0a78U, 0xbda513023cd6b8baU,
  0xbd1484afbcf8d87aU, 0x3f0c670a3e8ffe9cU, 0x3c89bbc63ec495b1U, 0xbc884ccabe60b63fU,
  0xbd99ba02bcf9dd24U, 0x3d6dc92e3c84e388U, 0xbe291a37bd64df1dU, 0x3e03b916be877980U,
  0xbe30a56fbe156efaU, 0xbe566bb93e970b90U, 0x3dbc22873e4b5bf6U, 0xbd8b1addbc0a9f9cU,
  0xbe4daa393e3b57e8U, 0x3e9c21563eee46c0U, 0xbeb07f35be550f53U, 0xbdedf7bc3e31717dU,
  0xbeab0cd73e641027U, 0xbe0d2508bf021976U, 0x3dfc293abdc37e61U, 0x3bf0a3083f041462U,
  0xbe2256e3bef2eacfU, 0xbda64e213ea040d0U, 0x3e9496e23e17a3aeU, 0x3da4cd1b3d2e4af8U,
  0xbe275581becd853cU, 0xbdf609fa3d3dcf48U, 0xbe7040423e9d856dU, 0xbe34d433be5ee41fU,
  0x3ec7f5013dd7742eU, 0x3c085658bcadf58bU, 0xbdaf833bbda0c1c3U, 0x3e9432ccbcc67f89U,
  0xbe30f2ac3d4ade9dU, 0xbe6fcfc6be675b06U, 0xbe6f54103de4df68U, 0x3e90be2bbe3a1549U,
  0x3dec024e3dea2203U, 0xbe0c8a23be440b4eU, 0x3eb7deeabdbd1f40U, 0x3e181dbcbecb86a2U,
  0x3e4afbe83e4cd5c0U, 0x3e1b171b3d7bc426U, 0xbe9e6828bed2d4bfU, 0x3dc29d15be81d886U,
  0x3ea6d6c3be442504U, 0xbe893a243ca6c980U, 0x3df6a8d63e64e974U, 0x3dc1e7353ba1113fU,
  0xbe7a2771bf181017U, 0x3e5c4851be086d6eU, 0xbd2f484bbeb4303bU, 0xbe60902fbe346e3cU,
  0x3cdb5984be7509c8U, 0xbe8aeaafbe32de6bU, 0xbe9ef765be06040aU, 0x3e8445953d96a522U,
  0xbe6be1be3d8ce3b6U, 0xbeb6600b3cf272d4U, 0xbe41003f3e324a69U, 0x3d86b6393e2697b9U,
  0x3e44bbe3be14c048U, 0xbdcf66073df29617U, 0x3ccc80bdbafc65e7U, 0x3e31a3a4be1f6ee8U,
  0xbe5f48ca3e208655U, 0x3ec865103e57a79bU, 0x3e60bc48be28fcd6U, 0xbe8b999bbcdbe4caU,
  0x3ea62700bd5ef4ebU, 0x3df9fc72beec7108U, 0x3ea530463ea7bceeU, 0x3d7206d4be8b3560U,
  0xbe806fe4bed07ccdU, 0x3eae2508bd52011eU, 0xbdd9704dbe3346e2U, 0xbe3478debddd1c2dU,
  0x3da9a9dcbdd3904eU, 0xbdfbf28f3e84e2a8U, 0xbdec0c76bc80010cU, 0x3e443f613b54dd23U,
  0xbdf036ffbd12093fU, 0xbe41175e3db2c457U, 0xbdd2b2c2be279231U, 0xbe693f2d3c1feb04U,
  0x3e8f82d1be9a96e7U, 0xbd8889d93dfe99dfU, 0xbee94a913e3a492aU, 0x3eb3c0b83e2aa6b6U,
  0x3d1cfd4fbe843c58U, 0x3ebfc720bdcdc5a4U, 0x3dba9502bd905a00U, 0xbc89ed893e268d27U,
  0x3cb477e43e94d44fU, 0x3e78de203e085eecU, 0xbbe5d75fbe7b5211U, 0x3efd2b1dbe8ace3cU,
  0xbdf4bd64bcd68997U, 0x3d309eaa3d8e4429U, 0x3e4acae13e88f010U, 0xbea4c9013cd0efcfU,
  0x3a1e194dbebdbda1U, 0x3e94dd95be85928eU, 0xbbe03179be55573aU, 0xbedd5438bce8ece2U,
  0x3e26d45f3e5b7c2dU, 0xbdfe66723d60d066U, 0xbe90bec7becf2ef3U, 0xbdd112c0be046d0bU,
  0xbea2319ebc8ae9b0U, 0xbd6fabcf3c43e4a9U, 0xbe39a4863d9afc08U, 0x3e0c0b043e3191bcU,
  0xbe176818be488921U, 0x3e24d45fbe2f605eU, 0x3d8a96c13c4eb792U, 0x3c77f2f03e0503adU,
  0x3d9e28d63e9a31ccU, 0x3ea0e2ec3de41751U, 0x3da692f7be8a6853U, 0x3ec969263ba9b07fU,
  0x3c536eee3c0c47d4U, 0xbe0ce36d3d09807bU, 0x3e31f1823ebc3059U, 0x3f1e1c173d18cd4bU,
  0xbe46702dbe305c87U, 0x3d759638bdcfcc61U, 0xbdcf120abda6682bU, 0xbe8e33233e8e129dU,
  0x3ea8ff7c3d7b5cf0U, 0xbdb2b4913e1743bcU, 0xbe1c09b1be2f2c22U, 0xbe6356643e3cf066U,
  0x3ded1788be5d78f5U, 0xbd394c3c3e1cf8baU, 0xbe9cf6043e9234e0U, 0x3eec91b23e00dfe0U,
  0xbe5b5fa3be157c66U, 0xbe85bc7dbe031dc3U, 0x3d2a63663ebad148U, 0xbddd380f3d51af41U,
  0x3d884df7be942810U, 0xbe1f2b38be0b4488U, 0x3c0481f03dd3264dU, 0x3ed291c33e940386U,
  0x3e22686dbb6d5c2bU, 0xbe6c6eb8bf001bfeU, 0x3db9c1903e9042c0U, 0xbdbefad73eaf86f4U,
  0xbe35bcb2be4386c4U, 0xbda958333d68863fU, 0xbd9c46483e77fe1dU, 0xbbb553e0bc009ef4U,
  0x3e88186f3eebf9caU, 0xbd6932623e0cf83fU, 0xbe0e5de8bd88318eU, 0x3d7026ff3e3a6df6U,
  0xbe5c08e4be7a4e19U, 0x3e50f11d3d39a4c0U, 0x3eaf002b3eb84fc7U, 0x3d9b2ca63ecf8c5dU,
  0xbc6324f7be82fed8U, 0xbdda1961bd96bef1U, 0x3d9a94bf3e044b12U, 0xbe4f6f843e452233U,
  0x3d5bea28bea2fd3cU, 0x3ddc1607bdc5eafbU, 0x3d94d7913d516a0aU, 0x3e81f92a3e0fe083U,
  0x3e5112393e91633bU, 0xbe0d2a19be6a38a2U, 0x3e4f2acc3ee0c673U, 0x3d6b35e93bfa3e49U,
  0x3d4a16bdbb023e85U, 0x3ea2efb43ec3b725U, 0x3e2c9cf13e608e18U, 0xbe8c16cabf12c9b0U,
  0xbd8ddd883e0f5501U, 0xbe28ce923e8b41b9U, 0x3e2d505dbe0461c6U, 0x3de52e6f3e717a5dU,
  0x3dd090f53e0204e6U, 0x3e07bc5c3c05cdb6U, 0x3ef856e43e8ef7d5U, 0xbdf213dfbd83dc2bU,
  0xbeaaef6ebecd5f7fU, 0xbe0ef7bf3d080bd8U, 0xbcfa176c3ea0ab47U, 0xbe54ba98bcac771aU,
  0x3c9fcf5bbda51730U, 0xbde8cad5be137099U, 0xbd7ac7793e3269dfU, 0x3eb565a33e8bf923U,
  0x3e22c3a43d95d76aU, 0xbe3560b3beb09b5fU, 0x3f05233d3cfdb8f5U, 0xbe9efd41bdce34d9U,
  0x3e5ab80a3db2e37bU, 0x3e023d9f3db581adU, 0xbe5f0ad93d0cf6f9U, 0xbe652dddbe8c0302U,
  0xbd5be074bc88eacaU, 0xbda8ab94bdeeaf62U, 0x3e8a43c8be217ebcU, 0xbd71dcfb3d9567bdU,
  0x3f05041f3dca83b4U, 0xbe45488abebf4ff1U, 0x3e1c939f3ea8c7ceU, 0x3e7bd224bec1a4f8U,
  0x3e814e66bda4d6e6U, 0xbddc25b53d944c41U, 0xbcab3d00bd13b36dU, 0x3d8dfa5abeb04477U,
  0x3e594e2dbe9e198bU, 0x3e343dadbe85e7c3U, 0x3e2200d43e636bbaU, 0x3eb72415bdb497f6U,
  0xbd01d6973cc7d531U, 0x3dc1e598be0ee84bU, 0x3ea01cf0bd8b7ffeU, 0xbef8498b3e22beccU,
  0xbe420bd7bcb5e113U, 0x3bf452ee3e056273U, 0x3b20498abd683e9aU, 0xbded15fdbdaf5bc8U,
  0x3dc35466be099b91U, 0xbdd2d899be072026U, 0x3d89da983de10fdcU, 0x3deacfcd3db36b84U,
  0x3ea34eae3e15f821U, 0xbe2c0c8dbed8702eU, 0x3e65da46bcc05a25U, 0xbd90448a3c70dde0U,
  0x3ebb0b12be33c7f2U, 0xbe9c7fae3e435496U, 0x3da732b4be41f08bU, 0xbe7024a8be9f7501U,
  0x3e376ff8be377e3eU, 0xbd5ce161beb674b3U, 0xbc9b3e033e52628fU, 0x3ee304033e14d5ebU,
  0x3eb0e03d3d934610U, 0x3e34ac62bd873b22U, 0x3f054db7bd7a1d23U, 0xbed36f77bde63276U,
  0x3efece863db53688U, 0xbdc7a475bddb49c4U, 0x3ee73513bbea212aU, 0xbe9255473df56469U,
  0xbe8a4fa2beb82eb5U, 0x3c6fbcacbd0e98fcU, 0x3cf2ed5a3d6db1d9U, 0xbd2cd1b7be83491dU,
  0xbe5f606c3c868e73U, 0xbda0d2993d24ca5dU, 0xbd8b24a83e35fbb6U, 0x3d24cbdabe89da17U,
  0x3e5e83e2bd17436dU, 0xbd94a8ecbe1c7ed6U, 0x3ea56c813e44b60bU, 0xbd90e6593ca63369U,
  0x3da45fffbdf40374U, 0x3efacc08bdb8feceU, 0xbd8449a2bd0352b3U, 0xbe46301dbdac858bU,
  0x3ea317cebdf64dfeU, 0x3ba52a46be46c26cU, 0x3c30a03cbe22aed5U, 0x3eb13d79be4774a0U,
  0xbc90a37e3e185eb8U, 0xbdc8f75abebef580U, 0x3e486d08bcc705e3U, 0xbe00c04ebd15be42U,
  0xbcf398a5be8a65a5U, 0xbe1f6e403c9ceb4bU, 0x3c8c2835bdbceb3eU, 0xbc0fb2df3e302a47U,
  0xbef85f7abdc84b9fU, 0xbd93842fbccf52fcU, 0xbe9a42883e489ecdU, 0x3e0598d2bd9d9068U,
  0x3ea08bcc3e39d2fdU, 0xbc5fc93f3cf1eb12U, 0xbea15064be16fe0cU, 0xbe9d12223dd0ec2cU,
  0xbf177357bd56cd66U, 0x3de255233cbed76eU, 0xbe3370e03e0d2778U, 0xbd78191dbe824e33U,
  0x3ef47768bd2846b5U, 0xbd493203be0265f5U, 0x3de4eea5be16ee62U, 0xbd1109ae3c966da7U,
  0x3e86b76c3dbc7dd1U, 0xbe34520dbe32237dU, 0x3f0cfe7bbe099eccU, 0xbd7188013e337db9U,
  0xbd985a61bead3416U, 0x3b017dc5bcda35e3U, 0xbf18d6d0bd6a4f23U, 0xbcede09c3eccaf60U,
  0x3c895d103e35c163U, 0xbe91c4dbbd9191ebU, 0x3d517ced3e49db5eU, 0x3c89f8ae3eb8485fU,
  0xbe220839be8543c1U, 0x3ee69d3d3e8457f3U, 0xbd2570203e11deccU, 0xbcf010bdbca4ea45U,
  0x3d7384423edec468U, 0x3dcba79e3ef6fcaeU, 0xbe84363bbea49b80U, 0x3e245daebe8da129U,
  0xbe39fe683e6298adU, 0xbd3569663e2ca3bcU, 0xbd9d96743eabb330U, 0xbe13b8d9bd8e57fbU,
  0xbe5089aebee09bcdU, 0xbe77fc31be042b83U, 0x3a56c6b6bd727fecU, 0x3e0c41463e783853U,
  0x3da13c363ecb8796U, 0xbda75f223e84c9d5U, 0x3dbd91b5be93f2fbU, 0xbd3e1fea3dc2cb31U,
  0xbe0559363db06264U, 0xbd68888bbdde8821U, 0x3bc23ef5be97fcb1U, 0x3e88fd263e33056eU,
  0xbe12d746bc507928U, 0x3d07aaeb3e769bf0U, 0x3d39a13a3eb8e90aU, 0x3d853a913de07668U,
  0x3dd173fe3f1917dfU, 0x3db6c3893d8b5796U, 0xbd1480f8bde04bf6U, 0x3e9da1cc3e0d0c1eU,
  0xbd9811743e086c14U, 0x3d8c2f823cab2898U, 0x3e74a8603f16bb85U, 0x3d3072853e6cdf87U,
  0xbe246ea2beab2069U, 0xbe418da53dffe881U, 0xbe63f4b03d92fa27U, 0xbdc883b73e45e12eU,
  0x3e86ff493cfbc8a1U, 0xbda7b2ed3d34c786U, 0xbe220321be21f776U, 0x3e27321d3e36c20cU,
  0x3dd664073e7a26aeU, 0xbbbbae69beb39b36U, 0xbc645a003e09de5dU, 0xbe714ef1bda2a21aU,
  0xbe72b987bd9811a5U, 0x3ebda64fbe8161ddU, 0x3dd62eb9bde1fb34U, 0xbe4d31d93e288928U,
  0x3d9038603eb9f5ebU, 0xbdc8b52e3e4067f9U, 0xbe9c6d8fbeac2018U, 0x3e64ff1fbdad7d22U,
  0x3e3b2670be4bc7f1U, 0x3d0c407f3ebef3c4U, 0xbe2a155e3cda88e1U, 0x3e8a70393e300f92U,
  0xbe1c7b28be8b19ffU, 0x3e29b5fabe0eec44U, 0xbddc9c1b3d78c993U, 0x3e40e03e3e499143U,
  0xbed2cfbb3f02303aU, 0x3e92dba03daa1b95U, 0xbeee3291be0b0a9eU, 0xbd0168d93d5bac1fU,
  0xbe809a04be108a85U, 0xbe3c46553d2cb532U, 0xbc9518603e1f0413U, 0x3e59a9003e285b4bU,
  0xbe7046b8bec5167eU, 0xbe47b788be567529U, 0xbceb4cdb3c0db3acU, 0xbcaed1103e3cceedU,
  0x3d8bd8963e9d78acU, 0xbe20a6e73e786947U, 0xbeed61f9be9619b6U, 0x3dd3e0403e42c2aaU,
  0xbeb2d4a93d6ddafbU, 0xbd8340013e9c76dfU, 0x3e351318bb97ab17U, 0x3ee347333dbfe464U,
  0xbe3c4f60beb4ac58U, 0x3d2cdbe9bd90ebe5U, 0x3b4dd804be916789U, 0xbdecced03ebaf807U,
  0xbdbb9a0b3d7a9499U, 0x3f02a3bf3e6516faU, 0xbe0f61ebbec0a343U, 0x3e0268febeb116adU,
  0xbe64f39bbe20ff17U, 0xbe886d683e98bb0eU, 0xbe829aaa3eb0d4d9U, 0x3ec2d0873e8eaf17U,
  0xbe577f07be4b1f12U, 0x3d478f77ba3121d5U, 0xbd83bd503e232f22U, 0x3d1454793e849651U,
  0x3cad08603f0986ccU, 0x3e4ce09d3d877afeU, 0xbe90bb9c3bc6a7c9U, 0xbe378ec8be09f01bU,
  0x3cdb38b23ed27a44U, 0x3cf0a18e3eacfb64U, 0xbdc1ccaa3e7543a9U, 0x3d7309903d4e32afU,
  0xbe59442dbebe7943U, 0xbdc842b5be43bdc7U, 0x3e0bfb7a3e8c2721U, 0xbe51744dbd455dddU,
  0xbdf340b4be498d28U, 0x3e8574d93efb6be9U, 0xbc43d50c3b0a424fU, 0xbd378a45bdd00d5fU,
  0x3e9c75dbbc97d9faU, 0xbe1b58933e2c402cU, 0xbdfee2e13e6126b5U, 0x3c37ce263dca47d2U,
  0x3d5133d6bdfdd0bdU, 0xbec8a683bcf6ec77U, 0x3e5d13943e408bbdU, 0x3cfdf0ba3e4804f5U,
  0xbeb9d0bf3e0bd7b1U, 0x3e912ae33e9f998dU, 0x3d8565a8be1185a7U, 0xbde5a2233d2475b9U,
  0xbe035d8d3e63234fU, 0x3dabe3d33eb61063U, 0x3d3b131bbd2ddeb0U, 0x3e0c5e60bd57e536U,
  0xbeb5e6953cf20c72U, 0xbe31f8323cd68778U, 0x3e4f88963eb32148U, 0x3dcdde133d93ab5eU,
  0xbe76abe73e306f7fU, 0x3df366393d9ade51U, 0xbec605ecbdc63a32U, 0xbe83380bbdeec5d8U,
  0x3d179ccd3ded0beeU, 0xbe70c63b3e94c88eU, 0xbc6f6da1bc99bec8U, 0x3e8245e03ebfbd96U,
  0x3dd69aecbd8a391dU, 0xbe872c523d879e14U, 0x3e9c30a3bd84a124U, 0x3d5bfcb4be4061bfU,
  0xbeabe7ccbe1e8196U, 0x3c1da21e3e9b3b83U, 0x3dcb26a9b96a0e60U, 0xbddad1c3be0827b7U,
  0xbe2095bebdc22967U, 0xbdb31de93db7087aU, 0xbe0b96b33e7c075fU, 0x3d86d9a33d8a0287U,
  0x3b1a175b3da9d4c2U, 0x3eb5bfeb3e87ff5eU, 0x3e6ef00ebbbc9415U, 0xbe44c0dcbef17d76U,
  0x3e62d5f33e451736U, 0xbe3c398a3e491eceU, 0x3db06b8ebe09adddU, 0x3e05b97f3ec21513U,
  0xbe994e3b3bab2c54U, 0x3da268ebbe00922eU, 0x3eb3142d3ebc8073U, 0x3d72d67c3e92a552U,
  0xbe87e53ebe5eb3e2U, 0xbe4e664dbe517d72U, 0x3d2772d13ec0bf20U, 0xbe0631613e0b7c10U,
  0x3c838bc3be21ffd2U, 0xbe504b51bf128d41U, 0x3d983451be167307U, 0xbe37ddd3be9422bdU,
  0x3dd5a6543e42e75bU, 0xbd0ceef9bda66f38U, 0x3e60bbc8be8738d3U, 0x3d7b4d163e84c7ebU,
  0xba3a37ce3e510d78U, 0x3e8371f03e8c906dU, 0xbb874c233ea50b87U, 0xbea35cf4beeac1c8U,
  0x3d963b133c92c4d3U, 0x3d527dbd3e0a84aeU, 0xbae6d6eabb85de7cU, 0x3df765023dbfe12dU,
  0x3ec590ba3c9f552cU, 0xbb880b62bc0016d8U, 0x3ed7d3e43e901fc0U, 0xbda2e2af3e06d66bU,
  0x3afb9b04be4a8297U, 0x3e3350ee3eddb24dU, 0xbe59ae57bcb8b8fdU, 0x3d9bc8f6bd8deadeU,
  0x3edd1aa73ebf920fU, 0xbdad7f2ebca0c58aU, 0xbe26905fbeb53de8U, 0xbddc12363ca0aa30U,
  0xbdd2d8523e5d7bedU, 0xbe004baa3d8c99ceU, 0x3bb7075abc367b40U, 0xbe1a0a68be254f7aU,
  0x3da4fc573d8c3e31U, 0x3de44dfc3e9fc10dU, 0x3ed965383e2b9836U, 0xbe4f5929bedabf3eU,
  0x3daedd713de17b73U, 0xbe1714e43d408f0bU, 0xbfcce281bf12e46aU, 0x3f0afda63d746278U,
  0x4008f9e7bec06025U, 0xbedd1244bf962766U, 0x400c6fd83fa7cfd9U, 0x40040c773f821285U,
  0x3fb7fd9cbf157718U, 0x4018ab3d3f768dbaU, 0xbff149123ea7b3b2U, 0x3fde12eabed7f140U,
  0x3f7463b2bfc7b485U, 0xbff5958abf2e5326U, 0x3e0168c0bd888636U, 0x3d33ec953dd4e52dU,
  0x3e5b882abe11d357U, 0xbf07040ebeb87bccU, 0xbee3835fbee2f96eU, 0xbef58e923e8af13fU,
  0x3f00dcfcbd399f30U, 0xbe38e6853ea65bdaU, 0xbe7523853ee2123fU, 0xbee624dc3d425010U,
  0x3e743c173e9db9e2U, 0x3eaeabdfbe979406U, 0xbef53d123eb0485cU, 0xbf0f2cc0bc810e6fU,
  0x3e55cb76be05fc11U, 0xbcffe59f3e40b206U, 0x3c290d35be69d366U, 0xbe77ff0dbe89ca37U,
  0xbeff1bc3be135aa1U, 0x3ec91968be6105e6U, 0x3ef7be463dd3d795U, 0x3eb010413ef3f52aU,
  0xbedab4a3be80b8cfU, 0xbed845bdbf000f36U, 0xbf0196743eae3ddbU, 0x3ed62e7fbe897aa7U,
  0xbead888dbee7fccdU, 0x3ebaa68bbeedf8ceU, 0x3edebe493ef1f977U, 0x3b8621103ec59d00U,
  0xbe4e7c5b3ec23055U, 0xbea0ddfe3e97ed99U, 0xbebbf60dbe914540U, 0x3eea68e9bebb6200U,
  0xbee7c9663eb95609U, 0xbd09b7ecbed8dd09U, 0xbe3f9e11be9b40f9U, 0xbecd1e5abe90471eU,
  0x3ed300e7be7a933fU, 0xbd861f743ebc4eafU, 0x3ddea0fdbe846a32U, 0x3dbdb446be497377U,
  0xbe0677913e822edbU, 0xbea77b8dbec405a9U, 0x3e811d14be934f6aU, 0xbf045771be9f86abU,
  0xbe88a372be9d264aU, 0x3ed530973ed7b796U, 0x3e142545be995320U, 0x3e2958babee0e0a1U,
  0xbece4a343ef621cfU, 0x3ecaa11a3d960b45U, 0xbeeea30c3e9fcb0eU, 0x3ea93d2bbeb0ab0fU,
  0x3e9dee0fbf0659d7U, 0xbe26c9883eacfb18U, 0x3df5cc50bedecb02U, 0xbe9ff01ebecbb7edU,
  0x3ebb246abebca3d0U, 0xbec98c8d3e1ae266U, 0x3eab9a8dbebbd927U, 0x3e68cfac3eb62ea6U,
  0x3d882be4U,
};


ai_buffer g_model_data_map_activations[AI_MODEL_DATA_ACTIVATIONS_COUNT] = {
  AI_BUFFER_INIT(AI_FLAG_NONE,  AI_BUFFER_FORMAT_U8,
    AI_BUFFER_SHAPE_INIT(AI_SHAPE_BCWH, 4, 1, 12624, 1, 1),
    12624, NULL, NULL),    /* heap_overlay_pool */
  };
ai_buffer g_model_data_map_weights[AI_MODEL_DATA_WEIGHTS_COUNT] = {
  AI_BUFFER_INIT(AI_FLAG_NONE,  AI_BUFFER_FORMAT_U8,
    AI_BUFFER_SHAPE_INIT(AI_SHAPE_BCWH, 4, 1, 13604, 1, 1),
    13604, NULL, s_model_model_weights_array_u64),   /* model_weights_array */
  };


/*!
 * @brief Get network activations buffer initialized struct.
 * @ingroup model_data
 * @param[in] ptr a pointer to the activations array storage area
 * @return an ai_buffer initialized struct
 */
AI_DEPRECATED
AI_API_ENTRY
ai_buffer ai_model_data_activations_buffer_get(const ai_handle ptr)
{
  ai_buffer buf = AI_BUFFER_INIT(
    AI_FLAG_NONE, AI_BUFFER_FORMAT_U8,
    AI_BUFFER_SHAPE_INIT(AI_SHAPE_BCWH, 4, 1, AI_MODEL_DATA_ACTIVATIONS_SIZE, 1, AI_MODEL_DATA_ACTIVATIONS_COUNT),
    AI_MODEL_DATA_ACTIVATIONS_SIZE,
    NULL, ptr);
  return buf;
}

/*!
 * @brief Get network weights buffer initialized struct.
 * @ingroup model_data
 * @param[in] ptr a pointer to the weights array storage area
 * @return an ai_buffer initialized struct
 */
AI_DEPRECATED
AI_API_ENTRY
ai_buffer ai_model_data_weights_buffer_get(const ai_handle ptr)
{
  ai_buffer buf = AI_BUFFER_INIT(
    AI_FLAG_NONE, AI_BUFFER_FORMAT_U8|AI_BUFFER_FMT_FLAG_CONST,
    AI_BUFFER_SHAPE_INIT(AI_SHAPE_BCWH, 4, 1, AI_MODEL_DATA_WEIGHTS_SIZE, 1, AI_MODEL_DATA_WEIGHTS_COUNT),
    AI_MODEL_DATA_WEIGHTS_SIZE,
    NULL, ptr);
  return buf;
}


/*!
 * @brief Get network weights array pointer as a handle ptr.
 * @ingroup model_data
 * @return a ai_handle pointer to the weights array
 */
AI_DEPRECATED
AI_API_ENTRY
ai_handle ai_model_data_weights_get(void)
{
  static const ai_u8* const s_model_weights_table[1 + 2] = {
    AI_PTR(AI_MAGIC_MARKER),
    AI_PTR(s_model_model_weights_array_u64),
    AI_PTR(AI_MAGIC_MARKER)
  };

  return AI_HANDLE_PTR(s_model_weights_table);

}


/*!
 * @brief Get network params configuration data structure.
 * @ingroup model_data
 * @return true if a valid configuration is present, false otherwise
 */
AI_API_ENTRY
ai_bool ai_model_data_params_get(ai_network_params* params)
{
  if (!params) return false;
  
  const ai_buffer_array map_activations = 
    AI_BUFFER_ARRAY_OBJ_INIT(AI_FLAG_NONE, AI_MODEL_DATA_ACTIVATIONS_COUNT, g_model_data_map_activations);
  
  const ai_buffer_array map_weights = 
    AI_BUFFER_ARRAY_OBJ_INIT(AI_FLAG_NONE, AI_MODEL_DATA_WEIGHTS_COUNT, g_model_data_map_weights);

  return ai_platform_bind_network_params(params, &map_weights, &map_activations);
}


AI_API_DECLARE_END
