
/**
  ******************************************************************************
  * @file    model_data.c
  * @author  AST Embedded Analytics Research Platform
  * @date    Tue Jan 17 17:45:32 2023
  * @brief   AI Tool Automatic Code Generator for Embedded NN computing
  ******************************************************************************
  * @attention
  *
  * Copyright (c) 2021 STMicroelectronics.
  * All rights reserved.
  *
  * This software is licensed under terms that can be found in the LICENSE file
  * in the root directory of this software component.
  * If no LICENSE file comes with this software, it is provided AS-IS.
  ******************************************************************************
  */
#include "model_data.h"
#include "ai_platform_interface.h"

AI_API_DECLARE_BEGIN

AI_ALIGNED(32)
const ai_u64 s_model_model_weights_array_u64[ 1701 ] = {
  0x3e05b37cbf0b99bfU, 0x3f6e8fa93f314d50U, 0x3ec2ec964007dd68U, 0x3f31375dbfdfde3dU,
  0xbeb09089bffefc8dU, 0xbf26b4fdbec3908dU, 0x3f893c41bdfe423eU, 0x3f474a55bf5b53eaU,
  0xbf971788be94af45U, 0xbea03e433e0f280dU, 0x3f9595ebbee032b4U, 0xbf8eb386bfce9337U,
  0x3f5ec9d7bee581abU, 0x3ea9241cbf5aea81U, 0xbf80de2e3f0bd11bU, 0xbfbbf87bbf25f1c4U,
  0xbdf7f6d03f57b41eU, 0x3ea5d1463f3a28e4U, 0xbff5e8c3bf2d5cd2U, 0x3f318c6e3f5539fdU,
  0x3eb16b403fa2c67cU, 0xbf744d473f5b2efdU, 0x3f068314bf7776d7U, 0x3eb7d1d0bf744de1U,
  0x3fa628d13f35a507U, 0x3e11ae92bea72403U, 0xbf704246be121c0dU, 0xbf67a85abe003a72U,
  0x3eb688083eced24bU, 0x3f28a56cbe6be5aaU, 0x3f2906a1bf7946adU, 0xbe78b5a53e13aa6eU,
  0xbf3eb96f3eaa101cU, 0xbea0f046bf5f25f5U, 0x3f8584bfbf201de2U, 0xbe11abf6bf45f0cfU,
  0xbe049d4d3f93a51cU, 0x3d313c88bea76823U, 0x3f443d5cbecc77eaU, 0xbf78f0bbbf230d04U,
  0xbf161f0fbceef583U, 0xba8d93593cf34802U, 0x3ee95d923e89fcedU, 0x3d581d863ed14d7cU,
  0xbfa6d9963ef59eb4U, 0xbf822e95bcbe95cdU, 0x3fa4c00dbf34c1eaU, 0x3f6c3e4a3dc9862bU,
  0xbf299f2f3f57672eU, 0x3f3d97273f8b9675U, 0xbeefead5bf785f5dU, 0xbf4edf553f7b75b8U,
  0x3fb2946e3f0a1508U, 0xbfc0f1673e67c403U, 0x3f39630dbea51075U, 0x3f865f8e3f13cb0aU,
  0x3cd3924f3c7c588aU, 0x3f6c143dbf417a4cU, 0x3f26e353bf849175U, 0xbe89973d3f3eb3fcU,
  0x3f6652863f19f316U, 0x3f71a7ed3eda5bf8U, 0xbcf8b47c3d0c8f35U, 0x3f47b9cfbf745986U,
  0x3ea7255dbfa79713U, 0xbdc5d7d63f0fb806U, 0xbed84f0e3cbea14aU, 0xbef7c9d63d07d341U,
  0x3c42eaa5be3f919bU, 0x3f1c01c53ef419daU, 0xbf0ea14fbf4cddabU, 0xbfb3d60bbef0ea3bU,
  0xbf02a2cabf456615U, 0x3eee74a2bbc4ec85U, 0xbeafbfb7be636784U, 0xbf125c7b3ec6bfd1U,
  0xbf63c51fbf726ce5U, 0x3e0eed09beb03c3aU, 0x3f1bba6a3efa6b84U, 0x3d0f74ec3e0fe9e9U,
  0xbee9f3043f78c45cU, 0x3f25b7fa3f495e3eU, 0x3f88d622bf3d6dc6U, 0x3d942c38be280b41U,
  0x3d8d2c143f258a9eU, 0xbe1e83c9be8f5eb4U, 0xbcf23c4b3f37613cU, 0x3e5e034d3f76588fU,
  0x3e85bcddbf364feaU, 0x3ede69f93ec0f694U, 0x3f7c7ac43f04d9b8U, 0x3ee196ca3ef06845U,
  0xbf6247d73e3efc9dU, 0x3f4e811f3e191d54U, 0xbeb92e63bf1fdf9bU, 0xbf5297dabf6e41d2U,
  0xbf136136bf87a1b2U, 0xbef3a0fc3d090692U, 0xbf73b8163e56eddcU, 0xbe9bb809be25fe78U,
  0x3e23b3453f567286U, 0x3e101f23becc2aa2U, 0x3cb4d8e7bf4782d2U, 0xbeebca29be32dd7bU,
  0xbeee00f33f0cbe3fU, 0xbf13930bbef45a68U, 0x3eb5e1183eb922b8U, 0x3e822d823e9f3cc0U,
  0xbe33d1993f19d048U, 0x3f2ec42fbdc5bd63U, 0x3f7d69cb3edf6778U, 0x3f9ad4803ec83fdaU,
  0x3e790655bf55dd6fU, 0x3e6b3b613ed98d1bU, 0xbeb7bad0bd261270U, 0x3fa587c1bf2fcc45U,
  0xbeaf44003eb071abU, 0x3f551691bf61935fU, 0xbeb96b08bd6742d0U, 0xbf40d6d8be8121b1U,
  0xbe87e079bf23e55fU, 0x3eb542d6bea1ca27U, 0xbf9e3c37beb4fa2dU, 0x3f7dd3ef3e8db50dU,
  0x3eae4f9dbefb4bc2U, 0xbf8d7fd1bd05c719U, 0xbf0d016bbf11e727U, 0xbf0cc7383ead2c18U,
  0x3e4442773ea2d45cU, 0x3e4ff8dd3d484979U, 0xbe9df0203e280ce1U, 0xbe95cc833ea4469fU,
  0x3f9ce5eebe06ed8eU, 0xbef6ef93bf3ab4f8U, 0xbf8b836a3f85efd7U, 0x3f47597fbe350655U,
  0x3ee8de8abfc9d8bbU, 0xbdbfb0c5be7afb36U, 0x3f7bfa6f3eeb0296U, 0xbe425bafbe1f0e19U,
  0x3d7956d73f3c75d5U, 0x3f71c77d3ee46c5cU, 0xbf11b740bed26d51U, 0xbd5cfb7bbf1c80caU,
  0xbf7d1ce2bec396bcU, 0xbf984356beab8011U, 0x3f784f433e7415c9U, 0xbeac3914bdc5bd05U,
  0xbeb026e3bf5f0efcU, 0xbee8440a3e10fc56U, 0xbf8e2ce13de01cfcU, 0x3e0991e5bd24fa5eU,
  0x3f85b0b3bf4fe591U, 0x3f0395f1beeeb089U, 0x3e5918ff3f65580fU, 0x3f29fe703eb41ee4U,
  0x3e9e0c9bbf94167fU, 0x3dc28288bfe82345U, 0x3f440ea8bf7534c1U, 0x3fef1dc53e97e589U,
  0xbf812f97bf111a46U, 0x3f5da4933d3f6a75U, 0x3e6162dd3f6f6583U, 0xb9a4a0d93ddd9cf8U,
  0x3f6071eebe11b2cdU, 0xbf24251ebf3f98a7U, 0x3f56ebe43d7f49fdU, 0xbf0ed5233d737decU,
  0x3ed1c025bf0ce2a6U, 0xbf1f8be3bdb99720U, 0xbe815f67be00a215U, 0xbefe6a04bf45693dU,
  0xbf8369f5be65bf6dU, 0xbc433a21be942f60U, 0x3f641c44bf213703U, 0xbfa9902cbdf0f043U,
  0x3e00cbff3e82cd92U, 0x36ba7d2d3f278d0eU, 0x3e9bd440bea077feU, 0x3f6f46c2bd4a072aU,
  0x3f78373fbf190259U, 0xbf5bc41fbe90b177U, 0x3f4faea3bd148295U, 0x3cf9f4793e2a27b2U,
  0xbf91106cbe6743efU, 0x3fb928203f0981adU, 0x3ea86d3a3eca3b46U, 0xbdfd35fdbea02b60U,
  0x3f9a1877bf033396U, 0x3e08c09e3f0ec50cU, 0xbf45afe3bf103b11U, 0x3f01cbf5bed7b2bcU,
  0xbcdd73013eb6d333U, 0xbf3586e9bee8b02dU, 0xbe65769f3f405be8U, 0xbec14098be83747cU,
  0xbf82b6e9bf1005caU, 0x3e0707313f602087U, 0xbdd145213eef0280U, 0xbebdd5913e932e4fU,
  0x3d7414ab3f84a6c7U, 0x3fa5176fbfb3143aU, 0xbf8019ab3deb6581U, 0x3efa0d2dbf2fbaefU,
  0xbe355c233ecf62aeU, 0x3e80f6e43cd1e6fbU, 0xbf03c9d43e5c5e2cU, 0xbe88d4bcbecf8b8fU,
  0xbf4eca323e853c68U, 0xbd60d582be0691f8U, 0xbf2d45a7bf72c502U, 0xbeec819e3f4dfa0fU,
  0x3f888bd9be89eafaU, 0x3e4a08efbd7e4f5eU, 0xbdb0b0c43f795fc3U, 0x3f82e23abf442ad8U,
  0x3f48dbdb3f177b53U, 0x3edde4e93fc332d9U, 0x3d84e9613f258b11U, 0xbed0c6cd3c4fb5ddU,
  0x3f8ecc49be12af50U, 0xbe5fe2c2bfc6277aU, 0x3ed9ef3fbf80adefU, 0x3e8c8f1d3f36f347U,
  0xbe40fb333e7640afU, 0xbf81cee9bff8fe75U, 0x3ea7d82a3f1915cbU, 0x3e3943813d96c512U,
  0x3e9e2416bf625b79U, 0x3f4fe2753fa84b11U, 0x3f1b86ccbeb26026U, 0x3e836913be905c6fU,
  0xbe9d2e26bf73efe8U, 0xbf3c202dbf4c353cU, 0xbf0fdfc6bd973bbdU, 0xbf810e063e758bbdU,
  0xbf9b91a93f2d564cU, 0x3ec885a13f48c846U, 0xbce4fe0a3ee3f02eU, 0x3e9409583e90eb50U,
  0x3f68a144bf69e623U, 0x3f20bd5a3f4a6430U, 0x3bfeccd93ec4c0e7U, 0xbe7966febf8ba899U,
  0x3ddd6c1f3eff8f57U, 0xbf8b53f43f318c05U, 0xbf32c132be2e137dU, 0x3f0bb4cdbf48bba4U,
  0xbf2fee33bd1c9e7dU, 0x3e4165013e3fd76eU, 0x3f506802bf30a61cU, 0xbe5e661ebf20acbbU,
  0xbf1b42debd1ce85cU, 0xbebab07f3e96103cU, 0xbe6c3cc2beedeb4aU, 0xbf849508bf473917U,
  0xbe1ca5df3f207d75U, 0x3f20aa6abf303063U, 0x3f147b893f7be252U, 0xbf3f3f063d06db1dU,
  0xbe5b9f8d3d764002U, 0xbe2c9ef3becd3205U, 0xbd21c585beffe883U, 0x3fd35f853eb2eb85U,
  0xbe862b67bd0bbd35U, 0xbf747ab7bf5edd82U, 0x3f220c5fbe607256U, 0xbe423db7bf862e55U,
  0x3ed21e52be51a515U, 0x3f662d60bf3ddc66U, 0xbdf71d9a3e88be79U, 0xbf55bba2bf3efbc7U,
  0x3ea2ddd43f145214U, 0x3c864a59bf5a421cU, 0x3f1e0661bf79998bU, 0xbf9b07743f60440fU,
  0x3f068ae6bf270a99U, 0xbefdcc97bf87be72U, 0xbdab7d133f008367U, 0xbf0cada53cf11100U,
  0x3f2ac93a3f4a4d73U, 0xbf37810bbefd7964U, 0xbf8c2c94bd2d1a5aU, 0xbd8b5fbebe04f42dU,
  0xbe9098523cdd4ca9U, 0xbf9aea173cae786fU, 0x3f50e56b3f174e92U, 0xbdb1760ebf273439U,
  0xbf9b377f3f4969bdU, 0xbe0f6e7abea96955U, 0x3ed923443dd07cc7U, 0xbee3ec30bf2a78b6U,
  0xbf20ef0c3f5f0995U, 0x3f033f283df10b4aU, 0xbe4664843f374746U, 0xbf4adb383ea1bba1U,
  0xbe818b223dac2b2dU, 0xbec83e14bff88897U, 0xbf7ee269bf49173bU, 0x3fabf3123f930df7U,
  0xbfbac285bfcb6d37U, 0x3cb4a68f3eb7d517U, 0x3f69fe783f98699fU, 0xbf2253b03f227f70U,
  0xbf1cf6773ffb633fU, 0xbf810a92be984ec0U, 0x3e4140363fb2e216U, 0xbf8c185ebe9adbefU,
  0x3e8c7ea1be984023U, 0xbdd8ccfebf0423ebU, 0x3f43ab253f84b3d0U, 0xbe92c2e3bd34966eU,
  0xbe89aed8bec068f8U, 0xbf2d58093fa11ca5U, 0x3fceb373bfc8f634U, 0x3f590bd7bea04c8eU,
  0x3d7e20963f67fc83U, 0xbe7ac6c73e9b954aU, 0x3f112f8b3eabbc11U, 0xbf8b75d8bf1d59caU,
  0xbf362848bfc5fc83U, 0x3e7ff23fbe51e990U, 0xbfdb52eebebba164U, 0xbe1a81073fa65175U,
  0xbea476f64027bc84U, 0x3de5f6223f87e8aeU, 0x3ff2a40d3f4f8250U, 0x3f08dca43f34dbfaU,
  0x404ddbfabff78db6U, 0x3f5f74a240125079U, 0x3e233efabeb0cfd2U, 0x3d5f12093dc62b56U,
  0x3f428485be431d37U, 0x3ef9d822bddb1257U, 0x3d479f8d3e8add3aU, 0xbe823d8cbeb8b233U,
  0x3dda3a0c3e6b27e9U, 0xbe8e449f3e05976aU, 0x3d48404a3e62e58fU, 0x3eed5c97bddcf3ddU,
  0x3e1af728be4b6010U, 0x3b81190abf33fbd6U, 0x3bae2eaf3ddd9edbU, 0x3d12a4603ecc1bdaU,
  0xbdbbc33f3d864d13U, 0x3f259723bf884d39U, 0x3e5667923c826887U, 0x3cfc0ec6bddb80b5U,
  0x3e3d236f3e7d58acU, 0xbe982a0dbe89378eU, 0x3e044d283eb75969U, 0x3ba8a85abec06a72U,
  0x3dd0b064beb11129U, 0x3d28588fbe47e5a0U, 0x3e18e5d7be4cf36eU, 0xbeb7b751bf13dabdU,
  0x3d15edde3daafd35U, 0xbe0d72863e56ed5cU, 0xbec393943eafdd57U, 0xbe7b2a21bda346c6U,
  0xbf1f9135bdfb2b35U, 0xbc8e6248be480d7eU, 0xbc19e3e13ea9b0cdU, 0x3eb72c0cbf0fa249U,
  0x3e63e313beb052dcU, 0xbca7d1c6bea697c9U, 0xbee332c9bab52e78U, 0xbeac9d153dbcf335U,
  0x3ec38cc13ef5cfeaU, 0x3f5d32aebe6453dfU, 0x3f0c16f3be405bd9U, 0x3dcddcdebe1a5a85U,
  0x3f18abecbdea6a62U, 0xbec7b090bccfe47bU, 0x3e386972bebcac24U, 0x3f511f1bbf0c34e8U,
  0x3e3f86cb3ddf0d96U, 0xbe09ca56bf0b5cd0U, 0x3f695378be6fc82fU, 0xbe40b0d6be4b3a66U,
  0x3eb00be13f0903f4U, 0x3f1f1fb5bed92d08U, 0x3ee279fbbe86141eU, 0x3daed285be51f102U,
  0x3e25af66be8f68b8U, 0x3ed13aad3e2c4b77U, 0x3ea5d515befd561dU, 0xbeda6721be980ce8U,
  0xbd115beb3eadf3b6U, 0xbea6cd663e651124U, 0xbe89c7813df9cb6eU, 0x3e380e5e3d8af029U,
  0xbe6aec6abe909f4bU, 0xbe305a0c3e54c3e8U, 0x3e88b86fbebf5f7dU, 0x3e79395e3f0d15e2U,
  0x3df1ad00be926d69U, 0x3d7e3b8dbcd96c0eU, 0xbdc418debe9e733dU, 0xbed098a0bd56f3eeU,
  0x3da756c23e1ddc66U, 0xbdd8f1383ea95a14U, 0x3e4817d8be247655U, 0xbdc63e543ef8b62cU,
  0x3d6d7a18beeff5c7U, 0x3e2c813a3e9d2958U, 0xbe3f27313eba6be5U, 0x3eb554883c813f9dU,
  0xbe0f10acbd888e13U, 0x3e328cf23ede8e27U, 0xbe854666be2c1830U, 0xbdd1aabfbe386f41U,
  0x3eb2dd6ebe5bb3edU, 0xbea9e1603d8f7d50U, 0x3eaaa881be13694eU, 0x3c3a96cb3e34161bU,
  0xbc6a622abe79624aU, 0x3f0a14ea3e3d76adU, 0x3d1be43b3f097a0aU, 0x3d9bdee93db57772U,
  0x3e8526ddbea7d316U, 0x3f50338c3f0e6841U, 0xbda85d7ebed4f4bfU, 0x3e20d2d93e524703U,
  0x3e0553e53e3d41f8U, 0xbe8f31cd3e6bdec4U, 0xbef24575bedf1bfeU, 0x3db849153f456ebeU,
  0xbf1571bdbf46d5bcU, 0xbd88e3513e89d1e3U, 0x3d5279483e4dec35U, 0xbdd91a083ec0c79eU,
  0x3e91a3a8be6df86dU, 0x3f7c753e3e62cb63U, 0xbeb34292beaacaacU, 0xbec5a1233f134841U,
  0xbe88e713be50f849U, 0xbe20f5dd3e93486bU, 0x3c95ac353e48deadU, 0xbedda8433dd747b9U,
  0xbe6dcd41be077cbaU, 0xbd6bb4583dca3d1aU, 0x3e2983e93e308447U, 0x3da84bb6be092e95U,
  0xbe7e658a3da08379U, 0x3e16796bbd2d1588U, 0x3d635f6f3dbf2a8eU, 0xbe89ef573e7a989cU,
  0xbee270623bb52c54U, 0x3e34fd273e297ed2U, 0xbe4e86043f0506d2U, 0xbe13dfa4beca8cf3U,
  0xbe0eb600bdb764bcU, 0xbeb627ca3eb94626U, 0x3e0be6d4be454ed0U, 0xbcd96168bd1dae49U,
  0xbe601d1c3e9dcebfU, 0x3e91dbcbbe761a9fU, 0x3dc43b85be502f73U, 0xbb3d96c53db2f701U,
  0xbe5c2d133ecdbdedU, 0x3d804b443e099844U, 0x3dfe04523e923cf4U, 0x3e3207403d19a2e2U,
  0xbe9e115ebe7fe490U, 0xbe5426363e237070U, 0xbe2132f3bd0e6dbcU, 0x3e5ca750be246055U,
  0xbe6a044ebe27e910U, 0x3e3023d93c024659U, 0xbe9ecb753e2e87b3U, 0xbf0833893f38b675U,
  0x3d4b601e3e1ef353U, 0x3e785289bd901d1aU, 0xbe483a3c3e242fb4U, 0x3ef8a4cabdfc8be5U,
  0xbf1832d2bf018d12U, 0x3bbe7ad63ea6d8a0U, 0x3db6ebadbe8887afU, 0x3e87ee8bbeb9887aU,
  0xbdc6a8bf3ea68633U, 0x3eb94165be71ffaaU, 0xbe570e6a3d37bc96U, 0xbe0409c03e4db42bU,
  0xbe775ab7be9b1883U, 0x3e169b93be3bd633U, 0xbe8fdd053e19dd9aU, 0x3db7980ebe246695U,
  0xbedd470a3d7e098eU, 0xbec1e2b93e8ff2c5U, 0x3ec017e4bd353df6U, 0x3ea7cfa23ca0453bU,
  0xbe9741a13d5fd30dU, 0xbdd4bb4e3d2a64e8U, 0xbeda7a31be3837ffU, 0x3ef2ca3abc83826dU,
  0x3ee0006bbe5dcb93U, 0xbe07c30bbe884ba8U, 0x3deee5ba3d8c77d8U, 0x3e759c423ea207baU,
  0xbe0f85ebbd3a8895U, 0xbc15492d3e3e7675U, 0xbea2d4a0bd04da42U, 0x3e035cd4be934de8U,
  0x3ca60f2ebd13c922U, 0xbe8e2f693db8f534U, 0xbeddef523eff26adU, 0x3f01441a3c59515dU,
  0x3f2d7082be84ab91U, 0xbc1082d5bee59359U, 0xbe90a2ef3dae5d80U, 0xbe8e498abd9942a5U,
  0xbf2b39d23f478b63U, 0x3d98f1303e44dee2U, 0x3e9e97fabeb7476cU, 0xbdcdf663be3175c1U,
  0x3cb6a16f3dffb82eU, 0xbebd1ecb3d30883bU, 0xbf2075053d3d399cU, 0x3c94726b3af64701U,
  0xbe8e53ddbd772878U, 0x3e29ab32beb421dcU, 0xbe3e30aa3f1b9b00U, 0x3d1a9134be06cd4bU,
  0xbee217e93e9996a0U, 0xbf0011d73e980c01U, 0x3c751ad8be9707a3U, 0xbe52a6e4bda1c8aaU,
  0xbcbeac7f3ea7fbe3U, 0xbda4aaf3bd659be7U, 0xbefa81053f27df89U, 0xbcd5a5b03e45b911U,
  0x3ed9ac3ebeb5c494U, 0xbdc5bec9be38b7c2U, 0xbd129d733e8691d7U, 0xbedfcdf53d551eb3U,
  0xbf70dd403de40e01U, 0x3f038cc2be8d50a4U, 0xbd4dca063d0b8ef8U, 0x3e9fb641bec85f65U,
  0x3deb61cc3dc923b6U, 0xbe67dfdcbe7f4594U, 0xbf00f5233f15e09eU, 0x3e2186ca3dfb206fU,
  0x3e369405bf141503U, 0x3d567606be98bb47U, 0xbe8a31c43df82a47U, 0x3e2fd2d3bdfd34d6U,
  0xbe129eaa3e9a76ebU, 0x3eff74dd3e174bf1U, 0x3e863599bd42f9b5U, 0xbdff3c75be79bf94U,
  0x3e5c64003d9c1485U, 0x3e8954de3e0cdb17U, 0xbeeca3bcbee2e1b7U, 0x3e9acafebe0b40f7U,
  0x3e4688ee3d12aecaU, 0x3d0f094fbed2de13U, 0xbe6e3e74be4d46a3U, 0x3ceb08153eb890aaU,
  0xbe81b54b3d70a821U, 0x3e804f153dc78b50U, 0x3f1a7cee3dafe3cfU, 0xbba3d1a9be9bb7fbU,
  0xbe06635dbebe39c3U, 0xbdf53e4e3e133d6bU, 0xbecc118cbe0f65feU, 0x3f1bd4b93eacbb91U,
  0x3ecb2fdfbed1f34bU, 0xbead9c92be94b61bU, 0x3e3da9493e86f15fU, 0xbe086430bd14a7f6U,
  0xbe72b2ef3e6cd379U, 0x3e30cea6be124d96U, 0x3e8c474ebcb9e221U, 0xbe8becf0bf19b3feU,
  0x3d68dd3cbdfb63fbU, 0x389cca9bbe6f2102U, 0xbec89a0d3eecad08U, 0x3ea1c3cf3e5d8536U,
  0x3e945c9fbd4b5ddcU, 0xbe2e6c22be6ceac9U, 0x3e23db8b3ee732dbU, 0xbe063a193e86e191U,
  0xbf29adc23ecfd457U, 0xbde9e904bd62dbc0U, 0x3ea8105dbe5f23d2U, 0x3d66f3dabe67bec5U,
  0x3ec81fcfbd6723baU, 0x3dd0f42cbea04f51U, 0xbf5fd3b93ed4f4a4U, 0xbe4009f63eecd348U,
  0x3e897e2fbe34543fU, 0xbe5a057dbf57f3bfU, 0x3e4ff8823d4fffa3U, 0xbe3eb33fbe425765U,
  0xbf206db93d75605dU, 0x3e62a1053db36903U, 0x3edb37f4bec8fd01U, 0x3eaa600fbdf6dc9cU,
  0xbebff6ee3ecd6b50U, 0xbe037cf3be15fc11U, 0x3f092da33f1d15e1U, 0xbe486d43bc6c2214U,
  0xbf06b5143e314460U, 0xbe8472d53e6b9acfU, 0xbd55ba5cbe54c89eU, 0xbeb1d52c3ddfb636U,
  0xbda77a5d3ea35952U, 0xbae3744f3e76e13dU, 0xbebc50a1bec88976U, 0x3ebc67ec3e1bbed6U,
  0x3e610e733f02dc1aU, 0xbea05009beb10bc4U, 0xbd17160b3f092abeU, 0xbe9b0465be54a4b0U,
  0xbf2e38a73f161b9fU, 0xbd4c1875bc84e4c3U, 0x3ee14dd0bcfb3872U, 0xbe0f57d6bdc2f6f0U,
  0x3ede31c43dc52e61U, 0xbef756703f00376eU, 0xbf3910e13e4ffcd3U, 0x3df00b8b3f05cc8bU,
  0xbe0c0d8c3d83b883U, 0x3d97c3b6bef0d7b6U, 0x3e161cfabe5615c9U, 0xbefe46bd3d8dc5b2U,
  0xbe90a05cbeda46a4U, 0x3deb8b61be7f0e76U, 0x3ea3d7243ef35fcfU, 0xbed03e97be7f6972U,
  0x3f2fa30f3da644a6U, 0x3ec257aebeb06cc1U, 0xbe9732953dd412e5U, 0x3d3d8fd53e3fb3d1U,
  0xbef0c5183e53388eU, 0xbeb6f0aebce4b462U, 0xbdd039013e8cac19U, 0xbdf943aabdedd2dcU,
  0x3f1c565bbcbc7d18U, 0x3f1042993da382ceU, 0x3c90c06fbf07d93bU, 0xbd18971ebed087a7U,
  0x3f022abf3c241793U, 0x3e691adbbe8fec47U, 0xbde38249be4ef84cU, 0x3de2db923e1a64e4U,
  0xbeb5bb5a3e0aa332U, 0xbf0c6c923e29c757U, 0x3de6dad83eb3f696U, 0xbe6e561fbf203eefU,
  0xbf1da9823ea34b09U, 0x3e673a283f329bdcU, 0xbe277b63be0c1d75U, 0xbe4139133dcea792U,
  0x3e6b03843d40cee5U, 0x3f06a51dbe88cc9dU, 0x3ef50edd3e495b5bU, 0xbe09bcddbe6f0768U,
  0xbd372d95bbaab292U, 0x3d9e78b63ebec84cU, 0xbf1510b9be48dcd2U, 0x3e4fc199be17ab7aU,
  0x3e8ed1af3d4b9aebU, 0xbe1b0578bf01814fU, 0xbe29ae2f3d63b551U, 0x3d5c1dbd3ea17847U,
  0xbe336953be40f32dU, 0x3d85536d3d227003U, 0x3f4205aabda556dfU, 0x3cefb26bbdb52e11U,
  0x3e327dc73c953ac0U, 0x3e6692d83c35dbd0U, 0xbf308024be1dd1e0U, 0xbaadfbef3f16a406U,
  0x3ea96827bd7edeb6U, 0xbdb67208be3f8905U, 0xbe2c7f79be4310b2U, 0xbe155bbebe464395U,
  0xbece70533db11c17U, 0x3f0e5f953df2c390U, 0x3e088e3e3da7a0f1U, 0xbd9eeabfbf0c7c32U,
  0x3dfd51f2bd7c6355U, 0x3e0409ee3e6389e7U, 0xbf2a54ee3eb300c1U, 0x3e05e8bb3f009485U,
  0x3f04cf3bbd6a63c5U, 0xbecdd4a8be5c5d10U, 0x3e469c68bcf85124U, 0x3e5de3fa3d2ebbaaU,
  0xbef25d523ea105fcU, 0xbd157867bd1ad4bcU, 0x3e8d89dfbf146698U, 0xbd445cc1be8c44eeU,
  0x3e336dfa3e279882U, 0xbdcebb803e04d51bU, 0xbf12135a3e53af47U, 0x3e57da6fbdc94978U,
  0x3e8ddb48be9ccfbaU, 0xbda67618beb5d716U, 0x3e89cff7be7dd260U, 0x3e661c043ddd8794U,
  0xbf53e008bd797080U, 0x3e0391953e2972c3U, 0x3d96522bbf0b8879U, 0xbd38e6b1be931c58U,
  0x3ea8c0ebbf12ee39U, 0x3e5078f83d3de164U, 0x3f880dd1beba446eU, 0x3cd0ea63bec10475U,
  0x3d200ecdbcd3365eU, 0xbddcb71f3e0b43b5U, 0x3e0217233eb2a4a7U, 0x3e025cd43c0c9603U,
  0x3e3eae4cbe5ddf7fU, 0xbf02eb513e0a177aU, 0x3d25199fbc91ad17U, 0xbeb952a23d9c7ca8U,
  0x3f4fb519bd47ff5fU, 0x3e8685d7bd8abde1U, 0x3eab8d32be925750U, 0x3eaa7f09bd3f1957U,
  0xbeffec443f15898fU, 0xbd02b2723e817dabU, 0x3e4ab750bd00cccbU, 0xbdd1a6553d048eefU,
  0x3f03d3053e46d467U, 0x3ef7d3e8bcce8b00U, 0xbe9c96743d9e4a56U, 0x3c12b372be3665e3U,
  0xbc45da84be58235bU, 0x3eba55e8be8eb18cU, 0x3e8822abbea4045cU, 0x3ed6f3a8be4cdae9U,
  0xbe0e99d23e6fb92cU, 0xbd8f47833e5c629cU, 0xbf05ec01bdc4e646U, 0xbe7cd52e3cc49e83U,
  0x3e31d5b3bddabc43U, 0x3e86ab09beeb7b3aU, 0x3d9792813ecd2d22U, 0xbe679d3d3e509af5U,
  0x3e6e7052beadf5a8U, 0x3e7771693e145017U, 0x3f62dbb9bd899646U, 0x3e608e0fbd933a12U,
  0x3ea1b7a7bd5a09daU, 0xbe0e9725be6ce7b0U, 0x3efc6952bea33301U, 0xbe37504b3ee2c898U,
  0x3dd4a050bedc41fdU, 0x3db23237bef84eb4U, 0xbe27c302be57d46eU, 0x3dda10f13d5fdde7U,
  0x3ea3a7ddbda8a321U, 0x3f2241f83ea53da1U, 0x3f11de8cbe9ee12dU, 0xbe1c5b85be1e97f5U,
  0xbdb6ab223e582803U, 0xbf1affa53eb1609eU, 0x3ed747f3becbcc50U, 0x3dd16f9a3ed772a7U,
  0xbe59a47bbe939214U, 0xbe48e681bdb83fa1U, 0xbb59f2c23e4cd304U, 0xbe1e7340bccc1c74U,
  0x3dab9095bcdf6683U, 0x3e5638c8bdaa6fc3U, 0x3e5eca93be4c370eU, 0xbd308fbabe0fe52fU,
  0x3ea84b37bd11e15cU, 0xbca4ff153d78bcaaU, 0x39284beabdf61473U, 0x3dba386e3dcd52c3U,
  0xbd568697bf205c38U, 0xbd35de67bddd04c6U, 0xbe0146b13e1cbfe1U, 0xbe918dee3ec31585U,
  0x3e5d6b86bdf28006U, 0x3e7efea33f412c05U, 0xbd33a101bea91526U, 0x3ec88d313e859d56U,
  0x3e81a41d3e8eccc2U, 0xbe880bcabe59c255U, 0x3c498eebbf06b933U, 0x3de2f7433ccea58bU,
  0xbe820555bed40ebcU, 0x3d45486c3eb43186U, 0x3cbc93723d3d2ebfU, 0x3d446cb83e38f81bU,
  0x3e9e367ebeee890eU, 0x3ea8ac0b3f696922U, 0xbe25adbcbe5e4752U, 0x3e7063ec3e20d500U,
  0x3e92f606bc392a11U, 0xbe65e2f13e015819U, 0x3e8842f6be251414U, 0x3e8e11193f1b999bU,
  0xbe63e3fbbf0838ccU, 0xbcd64994bdb3f4cbU, 0x3e1075a63da3a489U, 0xbe46e7813d8d4812U,
  0xbdc402b0be6de0cfU, 0x3c94d51a3e90cb8aU, 0xbdad9134be3783f4U, 0x3d3971043d7878f3U,
  0x3ea50bffbdb9ac3fU, 0xbe76d3cd3edc2d25U, 0x3e912ebabece1e06U, 0x3e3f8f2d3ef07c77U,
  0xbe419de5bea86682U, 0xbc31c2613c1b4c26U, 0x3d802c053e7953aeU, 0xbdf87cf53ebf3fa8U,
  0x3e9231a5be62ca80U, 0x3e60e9313e1c817dU, 0x3f30d699bf0a5964U, 0xbe1d630ebe2f9f59U,
  0x3e058d81bb173ac6U, 0xbe9cf566be44ea5eU, 0x3e172c14bd819841U, 0x3e0b1110bcdb1dcaU,
  0x3e96be95be2aa3dcU, 0x3e61b06fbda7fc68U, 0x3e89ea12bd588033U, 0xbe5bbcdbbe11a14aU,
  0x3ec3a532bdf6c4f7U, 0x3e49b2c43eb24b2cU, 0x3ecd46f8beadba6dU, 0x3ef7afc8bef118feU,
  0xbd1f65773e50ec98U, 0xbe7a493dbeb4077aU, 0x3e955f17bdbf0381U, 0x3ec54dd3bc51db60U,
  0x3e8a85e2be76779dU, 0x3e9b000bbd2e86c9U, 0x3e7404373ea6229fU, 0xbdd16a27bebc87efU,
  0x3d717200be6f1f45U, 0x3dd53115beb50d97U, 0x3e892c34bed0052eU, 0x3d3dba0ebd78569fU,
  0x3e638630bd1005d3U, 0xbe89d5abbe344298U, 0x3e832575bedd7f28U, 0x3eaf7138bc6991bdU,
  0x3f14ac2abe195feaU, 0x3eaf09e3be1b8ba4U, 0x3bbae4dc3d8b6776U, 0xbe478405bdf1422aU,
  0x3cc5014dbe2530ccU, 0x3ea2d89a3e09dcb3U, 0x3f6399bcbf0b26aeU, 0x3f476f3ebef5de36U,
  0x3f12fea4bdf69affU, 0xbea72d08be493fa6U, 0xbe9642d5be88f5eeU, 0x3caec5f63ee60c1bU,
  0x3eaaabdebf218f26U, 0x3e3f0bcebc600602U, 0x3dafdcf43e370eb5U, 0x3e07c0a6be66f0a0U,
  0x3f02e9913d87b344U, 0x3ef06e8f3d7a9e2aU, 0x3eb72ddbbebaf9fcU, 0x3f80a6d6bf1e2022U,
  0x3ec9f3a2be80a0bdU, 0xbebf31c3be381dcaU, 0x3eb48b59beefd567U, 0xbcc5a4103eed01a9U,
  0x3ebb7376be477fbfU, 0x3cc2abd7bd8e6a76U, 0x3e6c140e3b6f10a9U, 0xbe433a47be1c9ea3U,
  0x3dc11fbebddc6f91U, 0x3e72e081bd73ddbcU, 0x3ca3c5b1bebe0e87U, 0x3e7cf9d7bedec539U,
  0x3e97acda3e122426U, 0xbe4890d8bea0c125U, 0x3e91808dbe7d34d3U, 0xbd13e9d73dbd16c7U,
  0x3e9ea6ef3d95d550U, 0x3f09995fbe06c809U, 0x3e854f18bdfa6ec8U, 0xbf01a53abeb00c03U,
  0x3e975029be79b40dU, 0x3ded64a9bc28a6b5U, 0x3e4960eabd71dc8cU, 0x3e94ea843d2239ddU,
  0x3e5f7c94bdad6cb1U, 0xbeb3d4d0be8b4036U, 0x3f0168b93d8f65ebU, 0x3ba8b557beb02f07U,
  0x3e0353763b4072c3U, 0x3ed10065be8546e1U, 0x3e9296e23dd60c8bU, 0xbe0db697bf2214c2U,
  0x3daac162bf1d5113U, 0x3e92230b3e3af5cdU, 0x3e83d726bdeb7e24U, 0x3f0cd91a3c296e86U,
  0x3e65ee7b3e2a5c2eU, 0xbead669fbd97809cU, 0x3e6d6e9f3d3f42b7U, 0x3e2ae8f13bef1e27U,
  0x3ef87b0fbe9195daU, 0x3f0bc02abe80f080U, 0x3ee5785dbe031abeU, 0x3cf27b4cbf130c50U,
  0xbc84ba5fbe775b2cU, 0x3e3c35273e58aad9U, 0xbc9f3cb7bee3d1adU, 0x3f48500ebea01847U,
  0x3e860128bdbc597bU, 0xbe7b9f88be9301e5U, 0x3e09fea1bd87413aU, 0x39d3080d3ec832f4U,
  0x3e0ca106be1fdd72U, 0x3f7323e2bee62bd3U, 0x3f090ed8bc0ac6fcU, 0xbe4d814ebe1f1383U,
  0x3df94399be4929c3U, 0xbba4f5e7bf29afd5U, 0x3f0c57653e490c4cU, 0xbe6df37f3e9280bfU,
  0xbd6be1973eebe1e0U, 0x3dcc81ca3f188b25U, 0x3c5a0d1d3db9d029U, 0xbece4eb2bdde2871U,
  0x3e6a65563edc4993U, 0x3e793eb73d6c6d83U, 0xbef083413e326fadU, 0xbcf1c5e2bdea80c7U,
  0xbd9728403ea71f4fU, 0x3cf4f9babed44d43U, 0xbd7058b73dc6706fU, 0x3e57a821bdd6e1ccU,
  0xbe8a36313e94a4b3U, 0x3cd420793edcf36dU, 0xbddc7442bd28bf69U, 0xbf2a91ccbd21b0a9U,
  0xbda31a973f448f56U, 0x3d7c87c7bc1d6815U, 0x3df0572fbde4ab56U, 0xbd2408fd3e322b75U,
  0xbea23c8e3da8c4c3U, 0xbec5eacc3c7f85a2U, 0xbe5521e43f02b17fU, 0xbe85d0adbe90f06eU,
  0xbe357dc6bf10aa63U, 0xbe56b9d43df32df0U, 0xbe9572873eabd731U, 0xbdc88551becbc83fU,
  0x3eb3a1c93e0b6a4eU, 0x3e0eaa7dbe226cf9U, 0xbee40958be127d59U, 0x3b3f2fe93e288a17U,
  0x3ed36795be43cf92U, 0xbec737d23da0d3cbU, 0x3e4656833db0c711U, 0x3e793ea23e4c6b0eU,
  0xbe7bdd51be029da9U, 0x3c32638b3e848ecbU, 0x3dbe359d3cdfa21fU, 0xbebe63eb3ee1c704U,
  0x3dfe6eadbce029efU, 0xbe901836bed3ca0cU, 0xbe767413be2c6cc0U, 0x3ea11bdd3e16bfc0U,
  0xbd2bf0543e1aede7U, 0xbe563f253efc84a1U, 0xbd09ae563c8de148U, 0x3f059df7beca19fbU,
  0xbd3e54bd3ea83091U, 0x3dab63cb3ece62d5U, 0xbe8f3ff83f039e5eU, 0x3e916180be31b047U,
  0xbdbbf7c1be95d9d5U, 0xbeff44353eb5ef94U, 0xbef39649be5aacc1U, 0x3ec12b883e510a3cU,
  0xbe8386c73d94e24eU, 0xbd27d6723e60e1d0U, 0xbee1f76ebd736668U, 0x3dc07ae73e45d7e7U,
  0x3e14f43abde18468U, 0xbd62a9fbbdc59175U, 0xbe42a340bd23309aU, 0x3e20c6063eaf6607U,
  0xbece3569be27acf6U, 0xbf0966013f2c5980U, 0xbe89099fbe42a0e2U, 0x3f023b4b3ec6bf66U,
  0xbddc73db3e08c84dU, 0x3f10976d3e9c0ad3U, 0xbe986ca4be9d6f6dU, 0xbee86dcb3e8127afU,
  0xbec97ffdbe027be7U, 0x3eadfdf03f114cadU, 0x3e2745793d800e8aU, 0x3e4bb5263e3af708U,
  0xbe4673563e3cb8d8U, 0xbf356d613ef3ff7cU, 0xbe9ea8f3be29f3b5U, 0x3dcb09033f02ddd7U,
  0xbe8a36043db7be24U, 0xbdde6d7b3e9a409dU, 0xbf2993f1bd3cc795U, 0xbf0296203e4c3dd4U,
  0x3e5f3e0ebdc4480eU, 0xbe1de06d3ee223bfU, 0xbdc62fedbe17a8aaU, 0x3ebd18b93ebd3510U,
  0xbe3df71ebea06744U, 0xbf3678133e277a03U, 0xbe7f8bb93e53b0e1U, 0x3e53bf243f0d5668U,
  0x3df63b2b3e0370e5U, 0x3ec4c84e3deab8deU, 0xbde018d7bf2c31d0U, 0xbe9f7b93bc6614dfU,
  0xbe0f99a83ed9e63fU, 0x3d2fba34be7046b5U, 0xbd4fed06be9a9277U, 0x3c4bd9fe3ea5f032U,
  0x3e1d65b0bdead065U, 0xbf1527953ec40a31U, 0xbe5276823f2182dcU, 0xbdcb9a723f195459U,
  0x3ea05fedbd4def43U, 0x3e4b5872bec7bd69U, 0x3d407c793ea58d78U, 0xbe8ed45d3efa84ccU,
  0xbf0ac8d03e678e3dU, 0x3dbf612d3e639b0aU, 0xbea25e8e3f01780cU, 0xbe9ae99fbe7c0096U,
  0x3e8ce5a13e2cf5abU, 0xbedc0775bd3383b1U, 0xbe17ed693e032878U, 0x3ecb7a5d3f03d752U,
  0xbe0d7ac5be05fd04U, 0x3d859e5fbf1edcccU, 0x3e4c90bd3cb63ffcU, 0x3dcdb058bd7d51adU,
  0xbee12fd73ee81ab2U, 0xbe87ccc93f2b59daU, 0xbe7982c3be077caaU, 0xbf0173ec3e9ec29eU,
  0xbe07c16c3eb251f9U, 0x3da392eebe067421U, 0xbe7fdcb8bdfe9bf1U, 0x3db28a683f0605e7U,
  0x3d40a530bea8b3c1U, 0xbd806d243de75a7aU, 0xbd8699873d8f8848U, 0xbd11903a3de0b508U,
  0xbe06095abdb23f7aU, 0xbe7e64213e1fc650U, 0xbe2509043efe825aU, 0x3d931f6bbc85fb60U,
  0x3dbf73253e8dfb7dU, 0x3ddb16e5bdce30f3U, 0xbe8cd278beb20bc4U, 0x3e9037f63e81023bU,
  0x3ed4d1d2bdf29769U, 0xbe011d583eeea828U, 0x3d285b773e44d2ceU, 0xbf06f6e2bd09032fU,
  0x3d039ffabd0b1930U, 0xbd7f79693eec5ee0U, 0x3da02114bdbd2db4U, 0x3d61652d3ee23b43U,
  0xbe5653dabe930a13U, 0xbea0c7543dd6e3b5U, 0xbef0ab5ebe6faf5aU, 0x3ececebf3ed09388U,
  0x3c2ae56cbdcef069U, 0xbdd71d6e3f0d1889U, 0x3bd69f64bd058615U, 0xbe897a533e357d99U,
  0xbeb3862e3e296f12U, 0xbe5172f13f5aa780U, 0xbe993ee0bc856274U, 0xbd34bb43bdeee319U,
  0x3e6205b9bc927154U, 0x3ea953e6bda33b76U, 0x3e06f26b3e5c5fa8U, 0xbe3f35533daaa069U,
  0x3c8c1e6c3e5a3a7dU, 0xbe60a977bef7664aU, 0x3f0a662b3dc11663U, 0x3da8f0fcbd1db63aU,
  0xbec35a19be2a203aU, 0xbe769716bede6780U, 0x3d05169c3f1aeb23U, 0xbe5d23bdbdc89c75U,
  0x3d7f13f83f17e2fbU, 0x3de0b6bd3e1fad55U, 0xbec155ef3d3b6b13U, 0x3e323f8fbe2fb70fU,
  0x3d00130d3ee83af6U, 0xbea49d22be4bd12cU, 0xbd50cb7a3e0c43e0U, 0xbe01b3e7bd3e8c18U,
  0xbe52c07d3e5532faU, 0x3dbc60cbbe2cb71cU, 0xbea37bf5bce51152U, 0xbe248691be9b452dU,
  0x3cf889d13dedb4ccU, 0x3dede89e3e1e8e9fU, 0xbedab6a3bba75bc3U, 0x3c90637ebde280dbU,
  0xbec8100f3e97365eU, 0xbe9dac2abf1869d7U, 0x3ce34a763e67bb27U, 0xbef7f010bdb38f4fU,
  0xbebca21cbe49cff9U, 0x3eef015eb8fd4f2fU, 0xbbfbec753e12c3a7U, 0xbdd9a6f3be41e382U,
  0x3d0e12f83dc02e51U, 0x3e98428dbe201b4fU, 0x3f1587b0bf15c351U, 0x3f017459bd05074aU,
  0x3d36a7f6bc553d2eU, 0x3d9bfe54be32de7fU, 0x3ea267533ddfe40fU, 0xbf0dc6abbeb8cfd7U,
  0x3e29e915bebeae93U, 0x3d2fea74bf11fd93U, 0x3cd5afb73ef90ec2U, 0xbe505fe8bf46032aU,
  0xbd38ed3e3f12bcc8U, 0x3e05b6ebbe1a95dbU, 0x3ebcd5b1be522d62U, 0x3f3fc3c3bdbcc518U,
  0x3dc58042beb5dd0eU, 0x3e5edae4bd271b84U, 0x3f754bdbbe8d3872U, 0xbe715cd3bac926cbU,
  0x3eae76d3be303062U, 0xbeb6e96d3ebc9ebcU, 0x3ef606e9bd9c9ba6U, 0xbd5df83fbdf3761fU,
  0x3f19e52bbe6e1570U, 0x3e5ca1cebe350555U, 0xbf049550bcd1ca1dU, 0xbcff60dbbea5fa92U,
  0x3f4394f8be8e87e1U, 0xbdce98663e1ce956U, 0x3f815cac3e144c22U, 0x3f1a4592bf20ae79U,
  0x3ac0fd2c3ee7878eU, 0xbeff7cd7be80d457U, 0xbea1c7f33d4fd0dbU, 0x3da8594cbdd12e54U,
  0x3eb23144be402364U, 0x3e94940dbf07cdcbU, 0x3e15b6033ea8be98U, 0xbe9592023e603ef9U,
  0xbd9f51d13d23401cU, 0xbe98c924bef78711U, 0x3ec15ce1be37ea63U, 0xbdce7de5be3c9756U,
  0xbea05d0c3da0f128U, 0x3ed5afbfbec8793dU, 0xbe3a024bbe9c82a1U, 0x3e39f047beb15801U,
  0x3ed6899dbd2a4ed8U, 0x3ea9f1fbbe8c0707U, 0xbe49e8b63d66859dU, 0xbebb97263e4a2d23U,
  0x3edae512bf0652ccU, 0xbea192783e868bcdU, 0x3f4b2633beba4b5aU, 0x3cc0dea1beeeb460U,
  0x3eab176b3ecac38aU, 0x3d6ecbf9bd359007U, 0x3e1100643d3c05e1U, 0x3e35101cbeafae0cU,
  0x3f24981f3e1cc946U, 0x3f3b17a5be9f4fdeU, 0xbdd930f7bed9966cU, 0x3d83ac43bd0f83eaU,
  0xba8fc824bdb48c89U, 0xbde0d0ecbc5fd96dU, 0x3edd821fbe2696bdU, 0x3f0417adbf1b6a9dU,
  0x3ddb2b4c3ed80fb3U, 0xbda4f2703ec785caU, 0xbd2b03b33d9f98ecU, 0x3ee5e5603e9622f5U,
  0x3dfdd094bf68bec9U, 0xba08b1dcbe1bac1aU, 0x3ead2e2ebd1854efU, 0x3e05bae0bec0bf0fU,
  0x3cd4dc043bca599bU, 0x3e5a806d3e351b06U, 0x3ee088b2bf0493aeU, 0xbe9495efbdb537e5U,
  0xbe2ecfe63dd4bc07U, 0xbe8201333e97a6f2U, 0xbd26a234bd290722U, 0x3f1512c8beb80e9dU,
  0xbd4f33cfbf03f1e2U, 0xbdcd51d93ecaae51U, 0xbe23114f3d908972U, 0xbce8b292bd5f541cU,
  0xbddf723c3d1fc529U, 0x3e98741d3d728e10U, 0x3eda8643bedcc74fU, 0x3e22571fbd88f3d1U,
  0xbe169a9e3df75819U, 0x3d261626bdb128ecU, 0xbdc4aa2fbd380adcU, 0x3ed1aac6bbca29c7U,
  0x3ee94f5ebed9a11aU, 0x3d75264c3ebceaa8U, 0xbe2d962b3ed4165aU, 0xbce131cd3c6c9798U,
  0xbcf4af0abe2da650U, 0x3ecc01a7bdd90bb7U, 0x3e8404a93e92d98fU, 0xbda0df2ebedb817dU,
  0xbcc85f553d6a6a38U, 0x3d0506e53d67c976U, 0xbed0e1403e32306fU, 0x3ef3e02dbded93f3U,
  0x3f08a756bebfd08cU, 0x3da7dcabbda1fa4aU, 0x3e22f0733e7ed74aU, 0x3eb1f55fbd02c7ceU,
  0xbde94985be3ac08cU, 0x3d77b7ba3db58880U, 0x3e7d25c0bdb559ffU, 0x3d2b7ec2be617cf1U,
  0x3e7af4b3be4ea471U, 0xbe5a285cbe1bca59U, 0xbe4349143efcf147U, 0x3ee72fb2beb47cbfU,
  0xbdb328dfbf265859U, 0xbc9b5c023e2b8fbaU, 0x3f2b7746bcd3a86cU, 0xbd66e141be9b1ac5U,
  0xbb4644a23df70239U, 0xbd32eed5beb42c15U, 0x3ee67e75bc128508U, 0xbe1ed1be3ed93b37U,
  0xbf062bfa3db2a65eU, 0xbe3201473de96eafU, 0x3b1268933eb81c6eU, 0xbd171d60befacea2U,
  0x3eaa685c3e9ae457U, 0x3d0bebe1bd461861U, 0xbf2da4f23e301ad7U, 0xbdf3a6dfbdb49a48U,
  0xbeb988b83e8b7297U, 0xbd80914c3b118769U, 0x3ec72bda3dbe7ff0U, 0xbea03d893e9d2f77U,
  0xbe4c08f3be83e119U, 0x3ec135293f13857aU, 0xbdb15c433eee2bfeU, 0xbc1e7d2bbe1885c9U,
  0x3f099cebbd3d808fU, 0xbe2d3f2c3e458c7eU, 0xbf1094cabd1f330dU, 0x3ed78c9b3e5a6104U,
  0x3d97c0d93da4a1a6U, 0x3d421400be779886U, 0x3ec5dc2cbeb0b952U, 0xbf00480c3e05fc5cU,
  0xbe679aabbe6ecd58U, 0x3cedef4d3d40c6fcU, 0xbf0a6d7c3e55b2f7U, 0xbe1e7e12beffabc7U,
  0x3e0ab6383ee1cd29U, 0xbdfde1503c980066U, 0xbeee374f3eb4ccd2U, 0x3e697fbd3d353fdcU,
  0xbf1673683e39bd6eU, 0x3bc48af4be256fe1U, 0xbd572c0fbd54e429U, 0xbe477b42bddd1f6aU,
  0x3e436a5a3e1d8c3cU, 0x3f269d1dbddac1f8U, 0x3d30e968bd0eb602U, 0x3e90ef4ebea5c100U,
  0x3e408c223c79b091U, 0xbecff0c2bdba91dcU, 0x3d8ce910be56af2cU, 0xbd8f51a73d8f0954U,
  0xbddd1ed4be04010eU, 0x3f03b06fbf150bbeU, 0x3e71b5b43d87161bU, 0xbe9f4f7abe0de693U,
  0xbe07a9583d4c9927U, 0x3f12de603eca35bcU, 0xbf0a2c8e3ddc5024U, 0xbd5dadf73e90127fU,
  0xbf32a87cbe827a53U, 0x3e8cb4953e957a2aU, 0x3defd316becc7090U, 0xbebe119e3e7a2e13U,
  0xbda815df3db8345dU, 0xbe47f1063dc2286eU, 0xbea8100f3dfaa5a6U, 0x3e63bdde3e772c7cU,
  0xbe51fbbabded70f2U, 0x3e56d608be96b910U, 0xbe14d6523bb81affU, 0x3eb18a193f040f5dU,
  0xbe8309b9beee68e1U, 0xbd37b581be80a2a4U, 0x3ec5beb8bea09146U, 0x3e7273423d9edfb3U,
  0xbd6465c43e1db90bU, 0x3f1c57643e8b57bdU, 0xbef0c4bb3e796a71U, 0xbebbeaf13f0246f7U,
  0xbec6560bbe63002bU, 0x3e5463bf3ea6f10aU, 0x3e863b063e2495c1U, 0xbe8f33703f5666aeU,
  0xbf6d0e063dbcf5a3U, 0xbe8ef4e63f0aed84U, 0x3e4bc27abf00a173U, 0xbd976ecabd3c9debU,
  0xbd787772be732cccU, 0xbc9433013eac9da0U, 0xbeff8edf3ec2ea55U, 0xbf15eb493f56c4efU,
  0xbea00b0ebe92e997U, 0x3de0ebeb3f006de1U, 0xbda9122e3d9a0aeeU, 0x3dd80c393f22f678U,
  0xbf24f370bea1c00aU, 0xbf0075df3db077e1U, 0x3d76c449bced587fU, 0xbd12eb2a3ec70100U,
  0xbda68d513e8c5a39U, 0xbe74a858be771e6fU, 0xbee3acb63be8e762U, 0xbe949d57bc3d53e2U,
  0xbde81e053e91e99aU, 0x3daf1ebbbd34823cU, 0x3f15f8d2beadf5baU, 0x3db3c0bebe429d73U,
  0xbe86d9633d6d80f7U, 0xbe4b459abdcac6f1U, 0x3efe4d963c95825dU, 0xbea2012ebdb29f52U,
  0xbbd21ba23e93c684U, 0xbd8f47dfbe9fca6eU, 0x3ef2c933bd931a2dU, 0xbd6b7d463ded0a86U,
  0xbeaaeda4bd481b12U, 0x3dfe34eb3d4c7a69U, 0xbea46fe03e8d0fe8U, 0xbe4813ab3c9cb6e2U,
  0xbdea6ddb3e850ae5U, 0x3c87c4cc3e004babU, 0xbf1734e53e3ec4feU, 0xbda82ee1be23fad3U,
  0xbe60d3a53e5c54ffU, 0x3c9ee1f7bed19e75U, 0x3e9bc60d3e5cf3f7U, 0xbeb4e70f3ee26bd1U,
  0xbd27ac9ebcce5cbcU, 0x3e2fc7623e84dfb9U, 0x3d03f6d03e92ae61U, 0xbc067556be753a40U,
  0x3e21807dbde456f5U, 0x3e010e153e7ea4bbU, 0xbe9b9ccdbe3b2387U, 0x3e0a77cfbdb31a3fU,
  0xbe7762873e8fc24aU, 0xbc31ccaabebb6f3fU, 0xbcd81d173d053521U, 0xbef69df1bd86e330U,
  0xbeb5821ebe102600U, 0x3e949f813d03ee3aU, 0xbebcaa783e838dccU, 0xbe5829e6be9e974bU,
  0x3e06c9683e6a1b0eU, 0xbeda63d43e48331bU, 0xbe2e09be3dd4000dU, 0x3e8e3396bd433f95U,
  0xbef65f043c425deeU, 0x3e8d3ecbbbcd9638U, 0xbd4fdd2cbe7f5875U, 0xbe09d8e5bd9d456aU,
  0x3ed50f40bed09211U, 0x3eec2becbdfc2211U, 0x3e0209563ed06140U, 0x3db37be6bed25346U,
  0xbe729b0a3e0b82c3U, 0xbec22cb9bd3de4a0U, 0xbd38cf70be81f6b1U, 0x3f21f5d7be745238U,
  0xbdd40c12bd5385deU, 0x3e886b9fbf0197f8U, 0x3e3ad8363e35d7c1U, 0xbe07f11dbdeb1a6fU,
  0x3dba3cae3c340760U, 0x3e2d14303de4cd1bU, 0xbe85602c3e8b0d13U, 0x3e032c44bf41fc97U,
  0x3f5e48ec3ebfdf52U, 0x3e0a92053dc7d42cU, 0xbf2857a4bc33cce9U, 0x3e271e08bb818090U,
  0xbe831f993e881bf2U, 0xbe975bb5be1d4691U, 0x3d5862febe3edc54U, 0xbdcd1a9d3df16602U,
  0xbe97172f3e06e007U, 0xbec85c69bdc479a4U, 0x3e439dec3e7d2c2dU, 0x3e0b4c47be5f3f6aU,
  0x3edf36eb3e8afbc4U, 0xbd9b91073eb41460U, 0xbecb77873d80916aU, 0x3e49e06c3e406e02U,
  0xbc903c963eae7c95U, 0xbee3dd2ebd6b0683U, 0x3e52c67dbe32b4c4U, 0x3e16f18dbeb7a7e7U,
  0xbece9d99be94ed11U, 0x3e9e3b4b3ef482f7U, 0x3e2fd6c33f1569b9U, 0x3dd2a571bf36257dU,
  0x3ec943a9bc9da6edU, 0xbefe360a3db1a1f6U, 0xbeca50493d4ef8b3U, 0xbe1bcf3abe575762U,
  0xbf477f54be404a6cU, 0xbe6a6e0cbed18f7aU, 0x3ef05bcf3ee866c1U, 0xbd0fcd493e04292bU,
  0xbeef6a4f3e9cbad3U, 0x3eba356c3d002ddaU, 0xbe8460cdbf0b16d6U, 0x3ebec5f43d08bdcdU,
  0x3eade3c2be3f34d8U, 0xbe3fe3bbbddeafe5U, 0x3f1d3a2fbe8e68f8U, 0x3f1aa837bb958cb2U,
  0xbb2a1fd63e80ccc6U, 0x3e83a460bf1cc956U, 0x3f32b052be6ac090U, 0xbe9ad2f3be4221c9U,
  0xbe725a283dd57c76U, 0xbdb29f95bdae013fU, 0xbe3b47603e149879U, 0x3ce0070dbee4fa25U,
  0x3c3eedb73eb33438U, 0xbddd736fbf0c2b0fU, 0x3dfccc9bbe64290bU, 0x3f2f31ab3e7d847fU,
  0x3e734234bf2cebb9U, 0x3e81cdc63edd01acU, 0x3e72ef7fbee8cfa4U, 0xbe9602a4be7ad99dU,
  0x3daf9aebbdfbd9baU, 0xbe5bf4923e83dfc7U, 0x3e70d00ebda70407U, 0x3ddc5efd3eac9d77U,
  0xbe1a271ebd7e8d81U, 0x3e695879be297d88U, 0x3e977aa93ea0c1c8U, 0xbc93dae63cd89dceU,
  0x3d5d382fbe883dbbU, 0x3ca3cefd3cc0613aU, 0xbdb7520dbeb857a7U, 0xbdd664f43e27fcf0U,
  0x3d5d5a953d44e424U, 0xbcd5544d3e9ea6e7U, 0x3e8a639fbe8165caU, 0x3f010c523e8b8e94U,
  0xbe2d8151bebc8eb1U, 0xbde3c3113ebc87caU, 0x3d12ef10bc74ebbbU, 0x3d9dd3293e2470e3U,
  0xbe706e6fbdd7ba58U, 0x3e1d42433f08280fU, 0xbe42f060bef590daU, 0x3cbde442bd64ecadU,
  0x3de248133d8f76a8U, 0x3c189ec43ed700f2U, 0x3e83b664be1ec515U, 0x3eaaf5fe3f02dd51U,
  0xbd76b29dbed4cb88U, 0x3e6c9cd53e388f01U, 0x3e2a2b87bc7057d1U, 0xbeb38e0d3e909e3dU,
  0x3ec75b40bd506df7U, 0x3e40cadf3f62bf8aU, 0xbe7dc252bef5fbd0U, 0x3eb4b8ce3e17f79dU,
  0xbd1e63833d68fcd8U, 0x3d107eecbc86314eU, 0x3e9203f1be7588daU, 0xbd2b4df03de5de57U,
  0x3d43089abc4dafbcU, 0xbcb359233d5b7d70U, 0x3cacb4d4be328056U, 0xbe10df7b3da20a87U,
  0x3ea187acbe9fa9c8U, 0x3ee890563f366d01U, 0xbdf39bd5bea38388U, 0xbe435c3abd8aeaafU,
  0xbcb5821d3f0b376bU, 0xbe3f20633c9c9d1bU, 0xbc7f4edebd72f8d7U, 0x3cf49e633e23c08bU,
  0xbd8d9f633c4a8fdeU, 0x3eec55a03d827e36U, 0x3e2a62e6bdae5a94U, 0x3d9084cbbda2a4a6U,
  0xbdbf4d7abc1865bfU, 0xbddf9850b9868aeaU, 0xbe49e811bd82a120U, 0x3da4555f3d665fd1U,
  0xbeb0a0203e620c40U, 0xbe1b5c063e8804e4U, 0xbe58de783e062361U, 0xbe846c213bd6c0faU,
  0xbacb30d9be01e1b3U, 0x3efe8763be9fcb30U, 0x3e14c0e83e31f9f3U, 0xbde23e243ddff0e8U,
  0xbdae26763de7f7a4U, 0xbe79a8a13e97d0f8U, 0xbe4478653e65a736U, 0xbea0010a3ac80c4eU,
  0xbd6db398be84eb65U, 0x3deaaf743e1e4842U, 0xbf09ca373da41508U, 0xbe168954ba972e65U,
  0xbf158c813f050924U, 0xbd3ae39e3e2d419aU, 0xbd30d1d4bf033117U, 0xbe07abdf3d5c7fd7U,
  0xbc5f03403e889878U, 0x3d555c423ebeb9cdU, 0xbeb946d03e88ca45U, 0xbe7a4d18be313582U,
  0xbe96271ebd26f093U, 0x3e74ea493e8c2a81U, 0x3ec5dd033e30a7a2U, 0xbf14456b3dadf096U,
  0xbe99ad9a3f350123U, 0x3e49a98e3df116adU, 0xbe21326bbeacebb3U, 0x3df0cac23e1a5d57U,
  0x3e4655c43e932677U, 0xbe0b9dd83d2597b0U, 0x3caf2ca23ead5867U, 0xbecb77c73dc8f558U,
  0xbea81da4bcb77688U, 0x3e64dcabbda08e5aU, 0x3d467e713d4ca681U, 0xbe6694213ed5bc74U,
  0xbe8f48b8bd823eadU, 0x3ed15dc8be96bc06U, 0xbe0f04dabd640446U, 0x3c2c8f183ec6d4d6U,
  0x3e8b194cbe4e65f2U, 0x3ed5850fbde8a9b1U, 0x3c638a40bf3142ccU, 0x3cdbb91b3e33684cU,
  0x3d9026833ea88b58U, 0xbe35e9e5be01080fU, 0xbd867898bd4c3ea5U, 0x3f09c3b43e0f04f0U,
  0xbdcf82babf01930bU, 0xbe4940e73e9773c2U, 0x3e07899abe80df11U, 0x3b0a434a3d17f7a3U,
  0x3da038fbbef644c2U, 0x3ef80c9dbd41157aU, 0xbe8a6854bdd31cddU, 0xbe2f0ba13e6bad14U,
  0x3e38e9613e5b8ce8U, 0xbdbcfa35bde09bd5U, 0xbc7764cb3e034149U, 0x3e8074073e24df95U,
  0x3e2c1066bd849363U, 0x3ea5bd4cbd0b2ad2U, 0xbbf3e1493e16b8f5U, 0xbda7eb36bb274d9cU,
  0xbd6d5d99be585843U, 0x3ec0cbe4bdca30d8U, 0x3c88b89dbd754794U, 0x3e3a21a73db475d5U,
  0x3e83b40a3d3c8e13U, 0xbb013c16be81d90cU, 0x3e7127b3be927b16U, 0x3dd61fcbbcc6fb13U,
  0x3df138d83d10f6eeU, 0xbe3b2bfebd1c4083U, 0x3debca403ca2aff1U, 0x3c9d61203c684adcU,
  0xbe8cdd98bdb45a69U, 0x3cb14fa43e32c405U, 0xbc7b5733bf01f544U, 0x3e27c8c9bd518cbfU,
  0x3f0229433e414a9aU, 0xbde7fe3ebc971dd6U, 0xbe8cbe8f3e14fd35U, 0x3ea021143d4e68e2U,
  0xbd746392be87c8a8U, 0x3e36a3a13d76bbdcU, 0x3e6db1933c161c64U, 0xbe0c051abec8981eU,
  0x3e30b7fc3e72830fU, 0x3e5667f0be5111f9U, 0xbe98c808bec3e73fU, 0xbe0d61c83efe0f80U,
  0x3ee3aa97bc9a41abU, 0x3e6109b4be149bcaU, 0xbfbab0be3fbb4f21U, 0x3f04bb05bf2beef6U,
  0x3fbdc055be8a2415U, 0x3cdd2690be0f0362U, 0x3d82b98ebf88ed9eU, 0x3f3084a83e4caeb9U,
  0xbee24027bfa24d07U, 0x3fcdaa333fc6000eU, 0x3f0ab526bf28400aU, 0x3f2a4cd6bf2a1800U,
  0xbfe505ea3fa465b2U, 0xbf89a0e3be5b307aU, 0x3d1a79763e5898c4U, 0x3d2b6c78bcaa147cU,
  0x3eca7e783e1a514fU, 0xbdd2a722bf0dd0cdU, 0x3ef0b84c3f0b7724U, 0x3ee695673df76388U,
  0xbef14366bef5cf4bU, 0x3de24218bec8b86bU, 0xbef5ac323e9ec7a4U, 0x3e9d973abdb48a5fU,
  0xbf031a32bed8e8ddU, 0x3e7d2025bf02fff0U, 0xbee2cdbfbd3545f3U, 0x3edb6b59bee13048U,
  0xbec1079cbe604382U, 0x3efb3b04be0b71daU, 0x3df20c9ebe039cf6U, 0x3e1e3533bc0d7e23U,
  0xbed7ad46be9412a0U, 0xbef4e0f8be4b66b9U, 0x3eca4465bee5e5b0U, 0x3ea4a9e7bed7ffe3U,
  0x3edacab8beadc1b4U, 0x3dab829d3ecd990dU, 0x3e93315d3ef7b52bU, 0xbef1b410befa7890U,
  0x3ebcecc23eb77028U, 0xbef13cc7befb8a09U, 0xbed9dd7fbeeac394U, 0xbf1f8d823ef88478U,
  0xbe8ac25e3eaa85dfU, 0x3e4314a83e21402cU, 0xbf20d4d63ecd1bfcU, 0x3e785c953dc4c760U,
  0x3bd240d93ef7b2e8U, 0xbf1957123e855f78U, 0x3ea14b9a3df8d449U, 0x3d724e77be234726U,
  0x3e10dcd2bee01a40U, 0xbd850a743e9726b3U, 0x3e5b38cbbee1f0dcU, 0x3ea95071bf0aa712U,
  0x3eb8536d3e931a5aU, 0x3f00dfd93ecec854U, 0xbd9cc4d0befc97c5U, 0xbeea7579bec282aaU,
  0x3ecf56ff3e57b6e4U, 0xbb1f0700bee25b30U, 0xbefd07babeb7cc80U, 0xbf08ffcf3ea33238U,
  0xbeff412e3ee3cb52U, 0xbf00bc463e8cf021U, 0xbed2c2e4bebd1980U, 0xbe7c58b03e6be45aU,
  0x3eaa74ff3e87e482U, 0xbecc6b6dbebea32bU, 0x3f0b17a83ea4156fU, 0xbf1a3b8d3eefb009U,
  0xbee01090bdded4abU, 0x3f0d0da1be2dcf27U, 0xbede39b3beba6276U, 0x3ea310953ec7e4eeU,
  0xbf08c23eU,
};


ai_buffer g_model_data_map_activations[AI_MODEL_DATA_ACTIVATIONS_COUNT] = {
  AI_BUFFER_INIT(AI_FLAG_NONE,  AI_BUFFER_FORMAT_U8,
    AI_BUFFER_SHAPE_INIT(AI_SHAPE_BCWH, 4, 1, 12624, 1, 1),
    12624, NULL, NULL),    /* heap_overlay_pool */
  };
ai_buffer g_model_data_map_weights[AI_MODEL_DATA_WEIGHTS_COUNT] = {
  AI_BUFFER_INIT(AI_FLAG_NONE,  AI_BUFFER_FORMAT_U8,
    AI_BUFFER_SHAPE_INIT(AI_SHAPE_BCWH, 4, 1, 13604, 1, 1),
    13604, NULL, s_model_model_weights_array_u64),   /* model_weights_array */
  };


/*!
 * @brief Get network activations buffer initialized struct.
 * @ingroup model_data
 * @param[in] ptr a pointer to the activations array storage area
 * @return an ai_buffer initialized struct
 */
AI_DEPRECATED
AI_API_ENTRY
ai_buffer ai_model_data_activations_buffer_get(const ai_handle ptr)
{
  ai_buffer buf = AI_BUFFER_INIT(
    AI_FLAG_NONE, AI_BUFFER_FORMAT_U8,
    AI_BUFFER_SHAPE_INIT(AI_SHAPE_BCWH, 4, 1, AI_MODEL_DATA_ACTIVATIONS_SIZE, 1, AI_MODEL_DATA_ACTIVATIONS_COUNT),
    AI_MODEL_DATA_ACTIVATIONS_SIZE,
    NULL, ptr);
  return buf;
}

/*!
 * @brief Get network weights buffer initialized struct.
 * @ingroup model_data
 * @param[in] ptr a pointer to the weights array storage area
 * @return an ai_buffer initialized struct
 */
AI_DEPRECATED
AI_API_ENTRY
ai_buffer ai_model_data_weights_buffer_get(const ai_handle ptr)
{
  ai_buffer buf = AI_BUFFER_INIT(
    AI_FLAG_NONE, AI_BUFFER_FORMAT_U8|AI_BUFFER_FMT_FLAG_CONST,
    AI_BUFFER_SHAPE_INIT(AI_SHAPE_BCWH, 4, 1, AI_MODEL_DATA_WEIGHTS_SIZE, 1, AI_MODEL_DATA_WEIGHTS_COUNT),
    AI_MODEL_DATA_WEIGHTS_SIZE,
    NULL, ptr);
  return buf;
}


/*!
 * @brief Get network weights array pointer as a handle ptr.
 * @ingroup model_data
 * @return a ai_handle pointer to the weights array
 */
AI_DEPRECATED
AI_API_ENTRY
ai_handle ai_model_data_weights_get(void)
{
  static const ai_u8* const s_model_weights_table[1 + 2] = {
    AI_PTR(AI_MAGIC_MARKER),
    AI_PTR(s_model_model_weights_array_u64),
    AI_PTR(AI_MAGIC_MARKER)
  };

  return AI_HANDLE_PTR(s_model_weights_table);

}


/*!
 * @brief Get network params configuration data structure.
 * @ingroup model_data
 * @return true if a valid configuration is present, false otherwise
 */
AI_API_ENTRY
ai_bool ai_model_data_params_get(ai_network_params* params)
{
  if (!params) return false;
  
  const ai_buffer_array map_activations = 
    AI_BUFFER_ARRAY_OBJ_INIT(AI_FLAG_NONE, AI_MODEL_DATA_ACTIVATIONS_COUNT, g_model_data_map_activations);
  
  const ai_buffer_array map_weights = 
    AI_BUFFER_ARRAY_OBJ_INIT(AI_FLAG_NONE, AI_MODEL_DATA_WEIGHTS_COUNT, g_model_data_map_weights);

  return ai_platform_bind_network_params(params, &map_weights, &map_activations);
}


AI_API_DECLARE_END
