
/**
  ******************************************************************************
  * @file    model_data.c
  * @author  AST Embedded Analytics Research Platform
  * @date    Tue Jan 17 13:25:46 2023
  * @brief   AI Tool Automatic Code Generator for Embedded NN computing
  ******************************************************************************
  * @attention
  *
  * Copyright (c) 2021 STMicroelectronics.
  * All rights reserved.
  *
  * This software is licensed under terms that can be found in the LICENSE file
  * in the root directory of this software component.
  * If no LICENSE file comes with this software, it is provided AS-IS.
  ******************************************************************************
  */
#include "model_data.h"
#include "ai_platform_interface.h"

AI_API_DECLARE_BEGIN

AI_ALIGNED(32)
const ai_u64 s_model_model_weights_array_u64[ 3141 ] = {
  0xbdd0847b3d66ca2cU, 0x3e0785ebbd0539d1U, 0xbd255642bd960e20U, 0xbcc7902f3dd76dcfU,
  0xbd826ee83d2c173aU, 0x3e1eab433d48c93dU, 0x3d448a47b95d7f6bU, 0x3bfcdc56bcc8757fU,
  0x3c88e8973daf725cU, 0xbdde14153e018b39U, 0xbddd91b5bdcaaecfU, 0x3e2a1e903e269a90U,
  0xbd5d7bb9bdc5903dU, 0xbe15ba583d21bd52U, 0x3ded7f473d2ef656U, 0xbd3d0aa3bccbdb25U,
  0xbd7b35bd3dfaf368U, 0x3d8a41ea3e2d5b45U, 0xbd9ae170bdd71b8fU, 0x3daff9503c9c0994U,
  0xbcfc9dd7bcee2bc1U, 0x3c20f4debcd0c326U, 0x3d1adcdebdc80107U, 0x3dd53a6a3d721ec1U,
  0x3d8edf76bd86bbf3U, 0xbd5044483d0f7e82U, 0x3dc8b47f3db363beU, 0xbdfe08d43dbf31faU,
  0x3d10dbd23dfacb13U, 0x3df5c588be0b9428U, 0xbe191fc4bde41aa0U, 0xbb516dc83e41fcd4U,
  0xbd63fc8b3cd4c436U, 0xbdd59958bd7b8fa2U, 0x3dfd88c03e2e9afeU, 0xbdd113c3bddc7c50U,
  0xbd42ae46bc24e507U, 0x3e5a09893dc9c125U, 0x3dc7d75abd728293U, 0xbe2a6bdbbde7feccU,
  0x3e71bf613db21569U, 0x3dda3ccdbdc94f24U, 0xbe22ea2f3d81197dU, 0xbc9e52bdbdb5fa2bU,
  0x3dc0a234bcaa0f40U, 0x3cbe28a83c82fe47U, 0x3d287c933d76ae4bU, 0x3c36fefbbd867e94U,
  0xbd93e10f3e0a0cccU, 0x3b37ed60bdcd2bc1U, 0x3d93a565bdf73483U, 0xbd7638413e07ed18U,
  0x3e620a11bdc31cc4U, 0xbc462ecebddd43f7U, 0x3e4c25b83c0613d9U, 0x3ce00ea03d6ecb81U,
  0xbd98cd093d0f28abU, 0x3e2edafbbe05b1d1U, 0x3d4ca2e9be1e07aeU, 0x3e0201f13e1e55d4U,
  0x3e33b6323c7a1200U, 0x3ce24f11bdf8e3f0U, 0x3d71c9f3bb3cf177U, 0xbd467f97bdf7f171U,
  0x3d2c5e69bdb3a2bcU, 0x3bb3fd2d3d1fa940U, 0xbd968155bdebb1eeU, 0xbc33b68bbd57f097U,
  0x3c9a14bf3d9ecf0dU, 0xbe43962f3cd2abd7U, 0xbe0525a0bd6e4357U, 0xbdd3e5833e3b5229U,
  0xbdca97f13e037dddU, 0xbe3c12fa3d9cd83fU, 0xbd8dd6abbc1edcdbU, 0xbe7d13393da025fbU,
  0xbe6364fbbd0cca31U, 0x3c114c313debc40aU, 0xbe5867da3d52a4b1U, 0xbdf70d903e3f26b8U,
  0x3d38c71b3e0fe3d7U, 0xbd8d7ae1be277e72U, 0xbdb1d4a53dc743aeU, 0x3e2db602bdac1ad7U,
  0xbe074850bd1e0522U, 0x3cb832b93db46ba5U, 0x3db8614939989eddU, 0xbdf299313d3ce3d9U,
  0xbde5d0a4bcb0c263U, 0xbd6a62913d129eeeU, 0xbd435289bdc2fe63U, 0x3d2c03a7bdf43c4eU,
  0x3e54eeeabc2c0bd0U, 0xbd4fb0fe3e01506cU, 0x3d9c9fef3e010fb1U, 0x3e6aa8d2be1c80d5U,
  0xbd678a3ebded4a9cU, 0x3c2b020f3dd99d6cU, 0x3df892adbaf02a6eU, 0xbded3c9a3d7e169dU,
  0xbd1816cd3cb40ae1U, 0x399d4a923dc8448aU, 0xbd20ca193e1684d0U, 0xbd9878233decb2b8U,
  0x3e1b98f3be24d969U, 0x3d824ef03d72e7fdU, 0xbd0b81863de82ffcU, 0x3dbcd96dbdadd203U,
  0xbe3122f93db2e5aaU, 0x3e3a44983df9ff72U, 0x3d8d48913dd879d6U, 0xbdfc97ebbd0abbacU,
  0x3d5f84f5bdfc11eeU, 0x3df971aebdf9fdefU, 0x3da0aaa8bd633f5cU, 0x3e5a072a3de9215fU,
  0x3d918f02bdd8e9b2U, 0x3cf1ddcdbe01813bU, 0x3da197a0bdee73f1U, 0xbd9e5f72bdd840bcU,
  0xbd2297253d1fe337U, 0x3e2c2448be286c18U, 0xbd26dd933d8ed9b9U, 0xbdda93b83d8d29c6U,
  0x3dfd84b8be2d1a48U, 0x3b80df48bbe1e8e5U, 0x3d80a489bdc2b4b9U, 0xbd1e1936bcd23a8aU,
  0x3d67be223d9c527aU, 0x3e34c2aa3d6852a5U, 0x3bfaef45bd8a7e5dU, 0xbdf9406d3dec5589U,
  0x3dab1497bd064e0aU, 0x3bbf3117bd8b1bb1U, 0xbdc6a0c0bdce56d1U, 0x3d3cc8babdc5b279U,
  0x3d416ad1bda738dcU, 0x3d552d1c3dddb882U, 0x3d9df1b5bdc8508eU, 0x3e11e5d93d7f91faU,
  0x3df19b6ebdbaf278U, 0x3da239643dd050edU, 0xbc6212663b90f852U, 0xbd356c343dfab978U,
  0xbbcfa733bdf68e9dU, 0x3e32c18b3c3dc8a3U, 0x3d466ebabd07caacU, 0x3d968b45be333da3U,
  0x3dcf3919bdc6c299U, 0x3dbfd06dbd99cc0aU, 0xbc2c23cebe0b3067U, 0xbcfb3b01bdb2604eU,
  0x3d8ac1e23de92019U, 0xbd93ca91bdf04522U, 0xbc0edcc53e0de9aaU, 0x3dd62533bd99dda3U,
  0x3df934a2bdee44bbU, 0xbd74447cbd8d4b46U, 0xbd55de7abc980eb1U, 0xbb9981adbe0055b8U,
  0x3ce2c034bdd1716bU, 0x3deaeabd3e003dffU, 0xbcc427843da48c5eU, 0x3dc523c43d23f0b9U,
  0xbd509a7d3ddd91c1U, 0x3e02d4463e5107bcU, 0xbdbcb3ee3b191ebaU, 0xbd9360063de7ad16U,
  0x3cff4a003e0439edU, 0xbdcf05203e0f748dU, 0xbe19ccce3db015e6U, 0x3dea6fd9bd2a0fbeU,
  0x3dccfd56bcfd6f45U, 0xbe4e7cf83dcff966U, 0x3e2de1ad3e040a1dU, 0x3d0dea2d3c723b54U,
  0xbe7401b63e24ae99U, 0xbcbfb26fbd3e550bU, 0xbdc232bd3df13e35U, 0xbe30f8593dafb01eU,
  0x3dd31138bd98d8c6U, 0x3d1af29abda1a7a6U, 0xbdce25c23dd65404U, 0xbcde57c03d5d19a2U,
  0x3d3b9de8bdc125e0U, 0xbdb4eb613cbdc8bdU, 0x3e23ab973da9f415U, 0x3ccd8e893cabb93aU,
  0x3cffef5a3c286655U, 0x3db541813e2d11c0U, 0xbe17e589be2bad06U, 0x3d88479ebd792e20U,
  0x3ded9dde3b8f6413U, 0x3d43274dbe37699eU, 0xbd09b318bbff019fU, 0x3e024f4a3dfbacd6U,
  0x3d1b2c6b3d4cb8c5U, 0x3de1eb343cad94a9U, 0xbd363d2c3e233cbbU, 0x3dd4c1bebd7675ddU,
  0x3db9ea483dad58c3U, 0x3df690403e1673d1U, 0xbd5092b2bcfe34b1U, 0x3cb9aeec3e1341abU,
  0x3dd0f3ea3d8e1d36U, 0x3d6fd2b13bd1995dU, 0x3d96ab3e3cc66257U, 0xbc1cc919bdbb1cc0U,
  0x3b67a4d3be54f22cU, 0xbb347dfb3e0c2ac3U, 0x3dac12bfbcac6a34U, 0xbd5e9c60be4fd800U,
  0x3dfb4a91bc259667U, 0xbce72c85bd84c39bU, 0xbd8e9d27bdfe5c03U, 0x3da64e34bd842c3eU,
  0x3e122474bd7b544cU, 0xbe05aa33be1c2ecdU, 0x3e27b8b7bbf23b9eU, 0x3d55e5acbc8c3d17U,
  0xbde841343dc64391U, 0x3d684633bce16d38U, 0x3db20ea63dc4f488U, 0xba2b98f4be208035U,
  0x3dc4fdbabd973d37U, 0x3d91a2afbdf87359U, 0x3c6f9deebb1b7c0dU, 0xbd8ca34e3d89f769U,
  0x3dd5c34b3dde4b04U, 0xbdf3c13fbd40d8dfU, 0x3e452c223c1e8b35U, 0x3de14a37be1714cfU,
  0x3dc101e9be00bd85U, 0x3dff35953da284e7U, 0xbdab430b3d85fd2aU, 0xbcf80fc93d7270f6U,
  0x3df8fae1bc9a8f75U, 0x3e0c54bf3c6e0d26U, 0xbd882e843d051ed8U, 0x3e284ee5bce5741aU,
  0xbd4af4e83c49b0c2U, 0x3db7f44a3dc4b46fU, 0x3e0969d6bd9e5b8fU, 0x3cc98febbe0b317fU,
  0xbdd62bef3d099428U, 0xbda621163d930294U, 0x3cc0595bbd9d763cU, 0xbc535d81bc748e58U,
  0xbd898e653da67563U, 0xbcf58959be3ffb45U, 0x3c5b0d3d3e14f19eU, 0xbe138e203d4102cdU,
  0x3d58fa6ebe616b02U, 0xbd68e34f3dae55f3U, 0x3e22d589bd7a2e12U, 0x3d2aa8cfbdf833d6U,
  0x3d8e0fee3dcfd134U, 0x3e21d88abb917471U, 0xbde7fdb5be4d1b72U, 0xbd87db643cb807e8U,
  0x3dbb68583cfe7404U, 0x3c03e299bdcdb52bU, 0xbd66031dbdcb115bU, 0x3e8976fa3e0e4e97U,
  0x3c718080be234d2bU, 0x3dc2e4aabc605dceU, 0x3d8eca423d25e64dU, 0xbdd38ee7bd00742aU,
  0x3dc861b3bcd3f677U, 0x3e4f4529bdae879bU, 0xbe317ac13cf5ac6eU, 0x3e1f46ffbdb73f65U,
  0x3db8148d3df5aba3U, 0x3d5119e6bdc10a0bU, 0x3dc912ba3d1dbf37U, 0x3df179723d005370U,
  0xbbdd7839bd66ba10U, 0x3c6222b43dd2fbf5U, 0x3d3464bf3cc2ff20U, 0x3cb7101c3b4481dbU,
  0x3df838893caf9638U, 0xbd92a2babacb1543U, 0x3d137271bdefae3bU, 0xbba834a93da90a1dU,
  0xbcda46b23cf51483U, 0xbdc58b163ddcfb2bU, 0x3db58f85bdfaf71aU, 0x3c6a215fbd4715adU,
  0xbe2ea5543d4383caU, 0x3e5b12423d80ae78U, 0xbbf69e15bd57a20fU, 0xbe1ca2c23d7e52dbU,
  0x3daab2bfbe10c5adU, 0xbded9901bd8e9bebU, 0xbd7d90c8bd14fa65U, 0x3d897b7cbd0fd66eU,
  0xbcbe59a43d434622U, 0xbdf5bb4b3dc4f421U, 0xbe5532aabab7e016U, 0x3e4f60433e0a5ae8U,
  0xbe2c63203d59add7U, 0x3bb77e7cbd7439a6U, 0x3d3854743d2d9705U, 0xbd64e48d3e77c574U,
  0xbdd9323abdf93343U, 0x3e39e36b3d8c2b04U, 0xbcbee86f3e71574bU, 0xbda4d424bd2b7967U,
  0xbd882b9fbdaf4de4U, 0xbcf0e3c73e04a5bcU, 0x3e0914be3e08763cU, 0xbd20eec53db2ebc1U,
  0xbe3ec2d33e6655d5U, 0xbd5ee7713d920d17U, 0xbcf65bdabdc7e40cU, 0xbe52df0e3e66b776U,
  0x3daff11e3d0531ecU, 0xbdbf7ffe3dac91aaU, 0xbe645b253e066156U, 0x3e075c823dbbd7c3U,
  0xbe370907bd9ca26dU, 0xbe3a208dbd2971f4U, 0x3e143f493cf4ef01U, 0xbe84fa253e0a64fdU,
  0xbe29a2c5be4cf2cfU, 0x3e0827403e53296fU, 0x3e157eefbccfc17fU, 0xbcaabd92be2ecb2bU,
  0xbcce91d1bd8983c9U, 0xbe711eb3bc51760fU, 0x3d190d533d5f7dbcU, 0x3c7266ba3e64b036U,
  0xbe10ed0a3e121bd1U, 0x3c1847f8bbade4c4U, 0xbe0cd1e13a13d4a0U, 0x3e0438ee3da7bc1bU,
  0xbdb0000c3d45bcb7U, 0xbdf28b213e813e80U, 0xbe4c64e83e32a972U, 0xbd3353023caad102U,
  0xbe267cfdbb7aa1cfU, 0x3e56b2a23deeecf4U, 0xbda5ce93bd608562U, 0xbd8026333e6fe3c2U,
  0xbdc165203e165ec4U, 0x3cf27e65bd3a9933U, 0xbe3029a2be06f2d4U, 0x3debbf9e3c9b5492U,
  0x3d1b60b73bc3a2c0U, 0xbd30b9853c8c242aU, 0xbe205b5a3d369788U, 0xbd467f2bbc17601dU,
  0xbdf9d7c6bdec9bdcU, 0x3e2283bc3d67b8a2U, 0x3e31adef3e195ac6U, 0xbd74ee653e08bc64U,
  0xbe328b833b896760U, 0xbc36a2c7bc824e04U, 0xbd9d2c9dbe5d2492U, 0x3da7cb23bcd602d2U,
  0x3e115a253c6ee034U, 0xbd809376bc8303d3U, 0xbdade5fc3cf9872bU, 0xbdfb67c7bd3fd94bU,
  0xbc3047e8be15d0b4U, 0x3e821eaabd0e135fU, 0x3e464e54bcab6987U, 0xbd860c81bdbff3efU,
  0xbe06b4da3e3203b8U, 0xbd5c7975bda080a7U, 0xbd54e555bdfa66a4U, 0x3e3618e23d85d1f2U,
  0x3df798df3da386e3U, 0x3d2059b3be3abeb0U, 0xbded990a3e3b998cU, 0xbd4c13c53c58c00eU,
  0xbcb7b45ebe376646U, 0x3e2e28403dbeb509U, 0x3e2422383c3113c3U, 0xbd8c0bbcbe6201f2U,
  0xbde968a53d87c9abU, 0xbd1f20e1bb20909aU, 0x3c9e7d53bccfba2aU, 0x3e2bda953e0d9521U,
  0x3ca5f67f3e38fcecU, 0x3c13d152bd2267b6U, 0x3dea6e6cbdb01cdaU, 0x3de057923df32f98U,
  0x3d2555be3d2b433eU, 0xbd391d33bd0f4cd5U, 0xbda955193dd4d29aU, 0x3db8f1b93d8182aaU,
  0x3d10c206bdf426d9U, 0x3dac9c453ccc042bU, 0xbd69133ebc16dc52U, 0xbcc0516b3d55adfeU,
  0xbcf58cc13dfa06b5U, 0x3d6cec4cbbdc8ca0U, 0xbc71bbb63d2db02bU, 0x3de8d80b3d3b510dU,
  0xbda04e9b3d0f2583U, 0xbcd06ed23d7c73c5U, 0xbae7ed293e0510f3U, 0x3da6d90dbc2cc6e6U,
  0xbdff53bebdfee7c9U, 0x3d48ca793d84477aU, 0xbe08fd42bcceb004U, 0x3d74227c3814f078U,
  0xbdb564503c3ae408U, 0x3d74043c3d8ed47cU, 0x3c32c677bde95716U, 0xbc850e643cee0c97U,
  0xbdfb612b3d11e27bU, 0xbc898a54bd82c122U, 0x3ba2bf903acb85aaU, 0x3dd449e03e20ddedU,
  0xbcab7350bd6527d9U, 0xbd7244163e08dc00U, 0xbd6d44953deb5c12U, 0x3dc182593d142336U,
  0xbcb691d73d0ad99cU, 0xbc3633003df23e6aU, 0xbbd5b8a4be79cf34U, 0xbdde0e8c3e0bb49eU,
  0xbdcad8adbcc59718U, 0x3db996463c78dde5U, 0xbd575c9ebd2277bfU, 0x3e0a0be43e315c7eU,
  0xbe15e2fcbe9787e0U, 0x3cb868663e1b69dcU, 0xbdfd5a7ebd6eaba6U, 0x3dedded0bd87d765U,
  0xbd1cf278bd8807e7U, 0xbcda59b43d813185U, 0xbe1c99a6be94905eU, 0xbce5efc03df0771dU,
  0xbce11beb3d24eaacU, 0x3cc15728bdb6b59dU, 0x3d4c1564bdbecf1aU, 0xbe0f0fe03e585c4dU,
  0xbe079e8a3c4c8c54U, 0xbdcc47b63cf304e8U, 0xbd87f116be000633U, 0x3d714e693d9a370bU,
  0xbbf3d51c3da4541cU, 0xbe10402b3e3417ceU, 0xbd90756e3dbbaf77U, 0xbd242bcd3d6e1e6eU,
  0xbcd2302bbb1e902eU, 0x3d8d074b3d201ebfU, 0x3d65989f3c9da80fU, 0xbdfe602b3e6ab4ceU,
  0xbe0ebe353d83d867U, 0xbd78a00b3de072a3U, 0xb9a482b4bd9d7690U, 0x3d47ff813c38e4c8U,
  0x3e2f8b983ae26c50U, 0x3d728a2b3db9133dU, 0xbcf37987bd8087c8U, 0xbd3b85c5bd5b23b1U,
  0x3e09d05fbe2a0343U, 0x3e433737ba4561aaU, 0x3e317c893ce72794U, 0x3d1925853cc8547fU,
  0xbc9a09cc3d81cc4fU, 0xbe26e69a3da9ef61U, 0x3da9f604be5b955aU, 0x3e52720e3decb1b9U,
  0x3dc0c4173d7eeffcU, 0xbd1bbfdfbc4decd8U, 0xbdbf252f3ca41598U, 0xbe24f0ae3d8fa49fU,
  0x3cb9002fbe153b4fU, 0x3d9d77293dd005a4U, 0x3decd8f93d381965U, 0x3d26dd563d308b75U,
  0xbddd11783e20ec40U, 0xbd72881dbd3fb51aU, 0x3cdb6287bc4c8fdfU, 0x3d8ce5643d7a27f5U,
  0x3e8ea7f93e0999c2U, 0xbd3b872cbb6ac6bfU, 0xbd90383d3e4f7c10U, 0xbe14f036bcdd10c5U,
  0xbe253e23be09b361U, 0x3da69a3a3e105fc6U, 0x3e30d5703c38a36dU, 0xbd62ba123c96c8deU,
  0x3cc38fb43de18c26U, 0xbdb622cabd989a5aU, 0xbdebf7743ca0d54eU, 0x3defb24f3d097737U,
  0x3d3dae1cbd339727U, 0x3d3df788be078035U, 0xbcb890703e3e94d6U, 0x3d95fdfd3d5cce1dU,
  0xbdfbe90d3bf092b6U, 0x3d37a36ebd0a5e02U, 0x3e285349bd9ba335U, 0x3dae57c1be1a6af8U,
  0xbcdec3a43df5e046U, 0x3c979e5d3db44659U, 0xbd1f614a3c80c61dU, 0x3c0bc2af3c8cd8b4U,
  0x3b2115153c89d058U, 0x3cddcaf3bdf36280U, 0xbd52c6383dca2e75U, 0x3d7da258bad83052U,
  0xbdb70defbd2cf0f7U, 0x3d8deb513d6dbe29U, 0xbd3d0fe03daf063fU, 0xbd6d3c70bd2ae9aeU,
  0xbd25a0583e17fc0eU, 0x3e1a830e3d0be341U, 0xbecd93d0bd8b5ff7U, 0xbdb48580bd7389ffU,
  0xbccf6af73dba94aaU, 0xbd2c2d01be13c850U, 0x3d8328493e3a64d0U, 0x3d1c6a053e0d7fadU,
  0xbe97899e3da57367U, 0xbc28c2e3bcb35c73U, 0x3d11d5ab3d718785U, 0xbc243df2be0806d3U,
  0x3db5b4c63d9da5faU, 0x3e1475f03c5d0de4U, 0xbe95a6cc3cd4eb89U, 0xbd4b768e3dd2fb18U,
  0xbe7888b0bcc25cb1U, 0xbdbfdeb13e41be01U, 0x3d59adde3d9a3ef9U, 0x3dc0a2bb3e12a60dU,
  0xbe502b073debff92U, 0xbe738cdf3d3a5801U, 0xbe8e1422bd36ff0dU, 0xbe0f2a423e7e35faU,
  0x3e01c0d03e085924U, 0x3dd931fd3d4bafc9U, 0xbe41a30d3da5f3f5U, 0xbead5a54bd14609eU,
  0xbe73d0c7be41da81U, 0xbe0e12db3ded30e8U, 0x3d2692273da30c00U, 0x3d8dba5f3d9e8278U,
  0xbe36fae73c5535c1U, 0xbe86ee003d30f517U, 0xbe2cb9893e40fc4bU, 0xbd8dd0593e33880cU,
  0x3d745809bd1c6bb9U, 0x3e066e213c8d7166U, 0x3ceb77c9bc97b5efU, 0xbdd6c0e1bb53841fU,
  0xbe20235a3dd479dcU, 0xbd3164263e181631U, 0x3e1d6b33bc26f267U, 0x3de7d2843dd13d36U,
  0x3cc832c63de5e191U, 0xbdce26b13cb742dfU, 0xbdc666c43de0ce0cU, 0x3c1cf72b3e0a9064U,
  0x3e013e573d0ae575U, 0x3c2330793d63781fU, 0x3baa7df93d7f2c8aU, 0xbd828ccf3d541fe0U,
  0xbd9998d03dfcdf7cU, 0x3c3aaf083e74a1c5U, 0xbd50b0693d91a3c5U, 0xbce9d5ecbd4ca1aaU,
  0xbc104742bd28d5f2U, 0x3d9a5c053cf077d7U, 0xbde22d833c3477d6U, 0xbd3825053e9f60eeU,
  0xbd1ae9a33cd3d4fbU, 0xbdeefb1fbd0a54a0U, 0xbe3bf788bd2c8bf1U, 0x3d994ea23e2e9a0aU,
  0xbcb6cce5bd02debbU, 0xba955b733e931e2fU, 0x3c1ef02d3c12afd9U, 0xbdd8af0cbc3e44dfU,
  0xbe602b83bd98f1b2U, 0x3e0b78363e046a5eU, 0xbda9e1ac3c3f1b5cU, 0xbd1775e13e5462f3U,
  0xbd9613f0bdc7ca82U, 0xbdb69c133dbfc39aU, 0xbd1b1e0f3c0cd56fU, 0x3e2778f8bc23064dU,
  0x3d61694f3d12e2b9U, 0xbd47b1ac3ea0a627U, 0xbdffbd83be2e6507U, 0xbdba8f643daa5072U,
  0xbddb2c83bd8467c5U, 0x3d3e1ea9bdd68297U, 0xbd29f91dbb185b94U, 0x3d9dda7f3e9577f1U,
  0xbe2f4ad4bd6332c0U, 0xbc12a20b3d998e76U, 0xbdfdb906bdfd23d5U, 0x3d4d84c13d111ddeU,
  0xbd254884bddf8e94U, 0x3db690903dbbf808U, 0xbd9f32653dda0b65U, 0xbe0726403d000c8eU,
  0x3d9ebfc4bd644d7cU, 0x3bb1b3573cf0957bU, 0xbda0f74abdeafa4eU, 0x3da796513c0830cdU,
  0x3dbfd0c53d613be3U, 0xbceba249bd854b10U, 0x3db23673bd110274U, 0xbdb85f01bcd9d5faU,
  0xbe150262bd0465f8U, 0xbb80ac673cfb2a25U, 0x3d88a0253cbeb74dU, 0x3ab3014c3d7a5bd1U,
  0x3e09a1febdc07204U, 0x3d63f8ac3c2281b1U, 0xbdb80e10bd8d5cd0U, 0x3da3a0113d10a5c2U,
  0x3e0fa517bd885077U, 0xbda953a1be0aa22cU, 0x3e7d9bfd3de37311U, 0xbe39ce4a3d195afcU,
  0xbd1bf9babd09b3e0U, 0x3e03a6a9bce11f4cU, 0x3b4e60babce6dc0eU, 0x3ade3638bdea0ef3U,
  0x3da14d5f3cb330c2U, 0xbde65cd1bd9806d0U, 0xbb98d1bc3d270f9aU, 0x3d854456bc124abaU,
  0x3de5408ebdc75275U, 0xbdb86403be26880eU, 0x3dd966a33a23119cU, 0xbe49dee53cc2cfd8U,
  0x3d8b2c473d92778dU, 0x3e1f800abcf994e1U, 0x3c85feb33d8b2d83U, 0xbd2de736be41f001U,
  0x3e4c1a593dcea435U, 0xbc0864c93cb30cb7U, 0xbc7a19abbd23286eU, 0x3befee9d3d75d011U,
  0x3c4b6df93d383aa3U, 0xbd6e2638be2f8317U, 0x3dca8825bc7f6566U, 0x3d8dc97c3de16d0eU,
  0x3d82a1793c59e24cU, 0x3e0218053d5922d4U, 0x3dc455723da1cb30U, 0x3d845385be323847U,
  0x3e136aebbce2fc03U, 0x3d8782afbcde78feU, 0xbcf9fc143d8f7cddU, 0x3df1dafe3d30e2beU,
  0x3d808566bdf32122U, 0xbdbec3ad3dd76cc6U, 0x3cd7f88c3c03c257U, 0xbb9b85753c8cf7a4U,
  0x3cb5c3adbc263aa8U, 0x3c454f003da00b73U, 0x3c071e37bd1ac1a2U, 0x3bf454c33dfb1d2eU,
  0xbd28cf36bd965049U, 0xbd0a38a63e084cbcU, 0x3c35b6fdbdba3e0dU, 0xbcaf851abd5f474aU,
  0x3d6df5e9be17bbc5U, 0xbe0714893e31fb73U, 0x3cd9ecd93c820c6aU, 0xbe097e4e3e00aa2eU,
  0x3ddf34543c80013fU, 0x3e1144963e119e3aU, 0xbdc1164dbce6d772U, 0xbd6870fcbd210cf9U,
  0xbdb9ca2cbd33ddf6U, 0xbd8d6ccf3db03a2cU, 0x39c9042abdcf711dU, 0x3d90628e3e2089f3U,
  0xbb20b1ffbd986409U, 0xbe13141d3de7251fU, 0xbe121242bd4b3d4bU, 0x3d7b74f8bd4dbf3bU,
  0x3e11874abcb113d0U, 0x3dd0c8c53da7e8a7U, 0xbe0355ccbe0e4a71U, 0xbc57a82fbcf236a4U,
  0xbdda54b0bdac7e14U, 0x3d6c9b1e3d4fcd14U, 0x3df84d453c500153U, 0x3d88b1753cbad794U,
  0xbe081f89bd241ae7U, 0x3ae7a056bc81cc36U, 0xbe4dbf02bd590a1dU, 0x3e37c1a73dda8083U,
  0x3e303aa33da4261aU, 0x3d41b0b3bda3d40dU, 0xbdc5c508bd350d38U, 0xbd57c53a3da6ca73U,
  0xbe4a394ebdc711f4U, 0x3e3249773dd25a5dU, 0x3d5323293c2a2568U, 0x3d8ba2373cfcf952U,
  0xbd02fa05bd3cd627U, 0x3ce433fa3db6b193U, 0xbda99f69be2a4c46U, 0x3e1d35293da3a73cU,
  0xbd010fa03e3c133bU, 0xbbf7dcf3be0c758dU, 0xbcf4f0113c9fc535U, 0x3c02d2e6bc7e8d79U,
  0x3d851a373d23ed1fU, 0xbcb74e71bd94440cU, 0x3ca8ac743e3420b4U, 0x3d0f3648bd418cadU,
  0x3d4674743c06da34U, 0x3e09633ebc5c1197U, 0x3d78578f3da6a97aU, 0x3d07bfd63d02d74eU,
  0xbc84aff33e257da8U, 0xbcc8bf5a3c83c8bdU, 0x3d8f2888bc7d6867U, 0x3dce3657bde047e5U,
  0x3e08ee133e031dcfU, 0x3e044b373daa3408U, 0x3d1e39653e34921bU, 0x3ba609663b973770U,
  0xbd3d5b683cc34bffU, 0xbd8b66f0bd027a04U, 0x3d9ecc4abc27a11fU, 0x3d121e8fbc85035aU,
  0xbc4cf7963e1e1dc2U, 0xbd9e748e3d49e620U, 0xbc203fa0bdbd9db8U, 0xbd0874a83c7fd7afU,
  0x3e04adde3db87bb2U, 0x3df4161fbd66d967U, 0xbd13cf0c3e35cc67U, 0x3d53655a3da1d2e5U,
  0xbdfd7627be0acd67U, 0xbd2b0fe0bdbf69faU, 0x3e17381e3dd96bacU, 0x3d187a94bd64aeedU,
  0xbd3457023c37a136U, 0x3d49e9523c9cbdbaU, 0xbcf43750be0a12a5U, 0xbc29649f3dd0c077U,
  0x3ded2db23dbeb05eU, 0x3e1901463c4ca7e0U, 0xbd534c413e2c5360U, 0xbd37795c3d95e4d2U,
  0xbdcf24dbbdbeb94fU, 0x3cbe45f13da0024bU, 0xbcfb01953db5006eU, 0x3e82d5bebca76647U,
  0xbdbec13e3e093cb8U, 0xbca4586aba647126U, 0xbde8f937be425e22U, 0xbc946a893af7dd69U,
  0x3c8ad1d3bd7b3235U, 0x3e7833853d335fc6U, 0x3d09a902bd55eda7U, 0x3d63e7223d38a144U,
  0x3deb42053e6ae667U, 0x3d558496be10b3aeU, 0x3dbb382c3c9a6518U, 0x3de8b7d43e459723U,
  0x3e157e59bd26a13eU, 0x3d8badba3cea835fU, 0x3dc6b52e3e79b9afU, 0x3dd3743fbdb15253U,
  0x3db703febda85e63U, 0x3d1bf5b53e584236U, 0x3d5f7f5b3d57e80fU, 0xbb95a3183bf2508eU,
  0x3de28d303e7139a7U, 0xbd4adb6fbd0fea70U, 0x3d9dc0c13d8157b9U, 0x3d16dea53e41275bU,
  0xbce7b5d83d0f454dU, 0xbc4cc1e53d973837U, 0xbce682403e390a2dU, 0xba9c4babbe197023U,
  0x3df1302ebc0bdc54U, 0xbdc968ab3d89c9ecU, 0x3c765e2c3e03cc8eU, 0xbd7f04e43e1d2153U,
  0x3d9bcb693d9d5574U, 0x3de2a2ddbdfbad21U, 0x3d90b03e3c93071dU, 0xbe0299093d7bf425U,
  0xbdefa7293e14616eU, 0xbd53e4ca3dee6c7bU, 0x3d54e44a3e334f5bU, 0x3dac3e18be2f4dddU,
  0x3c2a658f3c49d22dU, 0xbe26b8193c41de11U, 0xbbb2e5883e3759f2U, 0xbcbb26de3e1de4a8U,
  0x3d9a93193c967846U, 0x3d9febe3be1e2b8bU, 0x3e081d393d01e160U, 0xbc8d31063c6976afU,
  0xbd62d8a83dfe83d9U, 0x3d93898b3e559ce8U, 0xbc1001cf3cf8c134U, 0xbd5bdab1be2c80bbU,
  0x3dba8afd3deea26aU, 0x3d844264bd841984U, 0xbd6b2df53d94d023U, 0x3dd9bd723da24324U,
  0x3d821cf23ca04235U, 0xbd2e54d5bd85daa8U, 0x3d42dd3abc52a459U, 0x3dcee224bdb3c36dU,
  0x3df493103e2af8d1U, 0x3c64958fbdaaf4b5U, 0xbbeff0c4bd2c4f08U, 0x3cf3892a3daf1cd2U,
  0xbe0131833ddafef2U, 0xbc3c5a13bdbb77b5U, 0x3d7245763df93562U, 0xbcfc13babe30ae9bU,
  0xbd42075bbd947ea4U, 0xbc5ee7fe3d9e4f9bU, 0xbe0e5eee3c5a9a50U, 0xbdd86359bd8bdb85U,
  0x3e0433ea3d0081d4U, 0xbbf2ae32be3f1031U, 0xbb0153f43dacdc17U, 0x3d61704f3d9f8227U,
  0xbdd4512cbb6855b6U, 0xbda923bf3c56da29U, 0x3c1dba563d99291cU, 0xbd8889d3bbf0c687U,
  0xbbcb3329bd684df9U, 0x3dca9ab63e080fc7U, 0xbe190c1a3e047f7cU, 0x3b9446363d2377f2U,
  0xbde028723dbfb126U, 0xbd54bee9bd769e04U, 0x3d9c6f81be0ba4d0U, 0x3db34cd23d340a3dU,
  0xbd58af8b3db9560bU, 0x3dcc5cc73dc0cfefU, 0xbe04c1ba3d5a3e36U, 0x3d40dec6bc429046U,
  0xbcaf43e3be34604dU, 0x3dcf3c503e0151cfU, 0xbe01eb373e16ab7aU, 0x3c7145963cc62cceU,
  0x3de31e08bd1199e1U, 0xbb26b33ebe0eb338U, 0xbd9ca7c9be30b592U, 0xbdc6f042bc244a09U,
  0xbd5e7a5fbd1af572U, 0x3dc6f6783d916c5fU, 0x3d84f1ff3c08222dU, 0x3dd03e64be4d7ae0U,
  0xbd98b877be1986f2U, 0xbddde2403d7dcd30U, 0x3bc33218bd03af7eU, 0xbcc300763cbe9f13U,
  0x3e0688d53d8c4874U, 0xbcc62cd0bdbcd56aU, 0xbc97347dbd318814U, 0x3c3b6b823d5a526fU,
  0xbdc280393d7d34abU, 0x3cdfca97bd961a7eU, 0x3e0ea654bd09c39cU, 0x3c3c2a5dbc41ebc2U,
  0xbd9c00da3b80dfa4U, 0x3d9b2c67bcc1a42aU, 0xbcba9ee73db5f5c5U, 0x3da5a26d3dfa7168U,
  0x3dcd8b16bc8ed7d1U, 0x3ca233083c0df181U, 0xbd8c8b9dbd281a5bU, 0x3c5bd708bd702353U,
  0xbddb936b3d5d2015U, 0x3e4591513d47d8dbU, 0x3d096e143c9df874U, 0x3dc7ff893c313102U,
  0xbdd28e8fbd15f128U, 0x3cacb7933db72480U, 0xbe09277bbbcf1dc6U, 0x3e81bce43deccbc7U,
  0xbe4323a5bdbc9baeU, 0xbd3770ca3d4885beU, 0xbdd4f5fbbd920278U, 0xbdc18db43e49012aU,
  0x3c25580abd279947U, 0x3d7ca17bbd9d9023U, 0xbe4d5241bdbd229aU, 0xbd6357ee3d1187b7U,
  0xbddcc99cbda621b6U, 0x3ab16fca3e365426U, 0x3da8c156be4346eaU, 0x3e1bbe8b3d44458dU,
  0xbd8f3718bcba92ddU, 0xbe05f282bd92f026U, 0xbddf9f9f3cb3fd96U, 0x3cc728ae3e5b9777U,
  0x3de35587be39f048U, 0x3e31c961bca160a4U, 0xbc2873febd8bd223U, 0x3db09410bd939f77U,
  0x3e04a968bdcd5424U, 0xbe093c683d51ea2fU, 0x3e8f31b2bd381b07U, 0xbded15573d08dec4U,
  0xb8e1fdfe3d93ab3cU, 0x3dac604bbd602c47U, 0x3d76c809be0119b5U, 0xbd595412bd3dd7cbU,
  0x3eb77fecbcf63574U, 0xbe7b231abde4c19bU, 0x3cd556403d271f92U, 0x3dfef2903bff96d7U,
  0x3d523c053c83f9ccU, 0xbd5331043d3d2c27U, 0x3e636f95bd02fa74U, 0xbe4f6101be114c47U,
  0xbe0d9438bc6997a2U, 0x3b448f483d92220cU, 0x3cd494e4bd466330U, 0xbdb19cca3e082590U,
  0xbe3f59f9bd487e20U, 0xbcc85f383da7a008U, 0xbe1c2dbebc301aedU, 0xbc01329f3d33521eU,
  0x3dca3dc83cc99564U, 0x3d6ec4033cfa2894U, 0xbde4e4cdbdd03291U, 0xbe0492a8bd6bf1f1U,
  0xbe2488553d8fc0d3U, 0xbd9421f43e0073feU, 0x3d8b738abcb2ad5aU, 0x3d79d7113e234b7fU,
  0xbdd498de3d60ab30U, 0xbd8ccc273dec44adU, 0xbe0acc383be0d47aU, 0xbd419e573e365a35U,
  0x3ddcf5383d8809e4U, 0xbdcab3dd3d432ff4U, 0xbdc0ee1ebdbcb886U, 0x3d82e4423d79a168U,
  0xbe1c7b2ebd0c93c7U, 0xbaf3dd0d3e52f5daU, 0x3e21132f3d9a6252U, 0xbdd14cb33b0cac44U,
  0xbe1c2aa1bc76879dU, 0x3bf468183e08bff2U, 0xbe08e0e2bdcf9548U, 0x3b7b1c313e73f75cU,
  0x3d8fab423e1de2a8U, 0xbd61581e3c7f49f9U, 0xbe6e5473bdc225bcU, 0x3ccc161b3d575751U,
  0x3d4c6a633d98187dU, 0xbc3344973e1d93efU, 0x3bd279e4bd52b4c4U, 0xbe38d4b13ddc6fd8U,
  0xbd1a8d8bbde90610U, 0x3defa6ab3d91f2ffU, 0x3d9f9422bd48f828U, 0xbbccee073e5cc9f4U,
  0x3d0432f83d4f2405U, 0xbe362f96bb20d689U, 0xbd6775eabd858224U, 0x3cbb1d6c3d5b3b96U,
  0xbcd18008bdaabc56U, 0x3c956ed13e4d14a5U, 0xbd152fc4bd4364e5U, 0xbe37c7643d582d14U,
  0x3d8f018cbd1f9dd1U, 0x3d04d3b93cc6a5b7U, 0x3d061a2b3d592443U, 0x3d966513bdcb7350U,
  0xbd92ea233d34077dU, 0xbde23f863d6bf2e6U, 0x3e84e34e3d23a157U, 0x3c1d508cbcfbffb0U,
  0x3e2041b63cd9fac0U, 0x3dbd9d48bc7cb7c3U, 0xbd8f6075bd8318c6U, 0xbd5955d0bc8ba8f3U,
  0x3e869395bdb0ca9aU, 0x3ce55995bcd70087U, 0x3e617c0e3e0a4022U, 0xbd0a77e5bdce0f58U,
  0xbd5209e53c98c482U, 0xbe10b0a83ba20929U, 0x3e88d7483a8a7401U, 0x3d0a9ca63d33f951U,
  0x3df699153dd5bbd5U, 0x3ccfcfb2bcd9ae6dU, 0xbd926eb1bcfba68eU, 0x3cec7aff3d1a6b99U,
  0x3dd3f6c3bd370b55U, 0x3e8619febd834baaU, 0x3dbd5e593ddf70c9U, 0x3db9e807bbebd637U,
  0xbe18344fbd85ad27U, 0x3ca09e7fbbec4c00U, 0x3db629d7bc1f53caU, 0x3dea441abd97da6fU,
  0x3e2666d43e029666U, 0xbd3d8bedbd5e0b45U, 0xbdcaf6e53c02e7bcU, 0xbb8a01743ddabc70U,
  0x3c7742b63d033213U, 0x3e25256ebd9c31d2U, 0x3aa0dd553dfaa528U, 0x3d8fa18cbe643536U,
  0xbcbd78cc3c615df7U, 0xbe1869ea3d773bf6U, 0x3e8f10babdbb1656U, 0x3e51ecb53cb4de0bU,
  0x3d82cdb73dee0a73U, 0x3b6a2b1cbdc26523U, 0xbc0114c4bdbd7d33U, 0xbe1d68363cf9d950U,
  0x3e5bcaa9bd7e5c1aU, 0x3e01f77f3c5d8833U, 0x3bf54cf43e30194eU, 0xbc971362be4a0c96U,
  0xbdaa9e17bd184b5aU, 0xbde87df33e137d85U, 0x3e59c64bba1e80a4U, 0x3e04b8d83c163cbaU,
  0x3cd98f8a3cd9d03cU, 0xbcc68edd3dfd40ecU, 0x3d5cc6b13df9974bU, 0x3dbbe8efbe0e06caU,
  0xbcb191e33dbd6860U, 0xbdc19aebbcd8d6daU, 0x3d52b0fa3e0904a5U, 0xbe0926133e123355U,
  0x3d6053b13deb2f66U, 0x3e132145bd5f4179U, 0xbd342c403dd1cc7bU, 0xbd96ab003d7f32e6U,
  0xbc6ca5bf3dc3c99bU, 0xbbfc9ce73de3b2d7U, 0x3cac159e3d03e380U, 0x3dc473c7be2579ffU,
  0x3da419233d8481a0U, 0xbe07347b3d544c03U, 0xbdddedb73e46ea0bU, 0x3d2767203d663b1aU,
  0x3d01570d3d1f4ba9U, 0x3e0045cdbe2939f5U, 0xbcd00c923d9aef92U, 0x3cb80db7bc8d8d4bU,
  0xbd853db13dc1b1e4U, 0xbb55a94b3e21705dU, 0x3d458e123c7c1ed2U, 0x3d9cd628be50cae7U,
  0x3cf0ca743df1dcb7U, 0xbb7edd8dbcb12293U, 0xbd8490883d7df8d4U, 0x3d1bc65d3e547e1aU,
  0x3d25ba04bda04c62U, 0x3dc87934be0f0039U, 0x3dc762a43d2d573dU, 0x3dcf74d33c869aaeU,
  0xbdcc09713cf8d866U, 0x3d27b338bdbc5171U, 0xbd60018e3d679b1dU, 0x3c2ae0a33d67003bU,
  0xbd1571dabc5c9109U, 0x3e0e0721bc5bc500U, 0xbde350acbd3d13a7U, 0x3b7b4749bda658a0U,
  0xbd5e48053d4f1e1bU, 0x3dbe0d723d80fa17U, 0xbe312e36bc0048adU, 0x3e036b4bbb7053e9U,
  0xbd9f7226bc4bb9d7U, 0x3d1413a33ddd34c2U, 0xbe148c573d9b2ee4U, 0x3d82c3e8bd353db5U,
  0xbe394e92bda43887U, 0x3dade988bb98843eU, 0xba50ddd23d56844dU, 0xbbcb269cbe644a69U,
  0xbda2671a3dcfbfe5U, 0xbd506288bd9be4aaU, 0x3ea0eeaa3bf9573fU, 0x3d86da14ba1ea340U,
  0x3de9efe3bd85e13cU, 0x3dcb2f06be5749deU, 0x3d9a49d33dc8f3ccU, 0xbdb8b692bdb8a20aU,
  0x3e3bf0dabd61f805U, 0x3d93c2713d9f0eddU, 0x3dbf2f313b96f986U, 0x3cdc0baabe450f8dU,
  0xbd899d70bb48d0eaU, 0x3d1af3ffbd3e65faU, 0x3e1382e93c159c2eU, 0x3d0371e5bcf36121U,
  0x3dd51fa73d281cd6U, 0x3d170b5fbdefa79fU, 0x3d87dcb53dd6f3e4U, 0x3da17523be17c1efU,
  0x3e931e9e3dccb398U, 0x3d47bfeebba6f9a8U, 0x3d9e078a3e225f3bU, 0x3daa527abd9d7aa6U,
  0xbc36f4d53da5c870U, 0x3d42d778bda25691U, 0x3e67b9b73d8eeee4U, 0x3bc0e5bb3d94bfd8U,
  0x3c93e5e53da23a77U, 0x3df397a6be2656ddU, 0x3d8d1460bcead26cU, 0xbce35a34bdc531e0U,
  0x3e4ef9453dda1c6bU, 0x3c8e5e84bda246d1U, 0x3cff92343e0c7164U, 0x3d32b19dbe19695dU,
  0xbd86da2d3d810b1dU, 0xbc42197a3d736e2cU, 0x3cc729963c58a88cU, 0x3e435ddd3d765c3bU,
  0x3d834ae2bb81e6b0U, 0xbd97f8d8be01af3aU, 0x3d1f2192bd4ca215U, 0x3e1d9614bd3b9c29U,
  0x3dce1a2bbb0273d3U, 0x3e44c8febd3384ecU, 0x3d1293e93db96c69U, 0xbd3e0558bd273081U,
  0xbdd1d1783d342520U, 0x3dbf6516bd63d3c1U, 0xbdb01b4a3df082cdU, 0x3e4aaecfbc4f5ed1U,
  0x3dc1aed5bdb78519U, 0x3dd1f270bceb7f50U, 0x3d0383b9bdd80902U, 0xbd8f078bbe2f7f60U,
  0x3e90f8d23d3c7634U, 0xbdd95ca5bc7518baU, 0xbcbd83a73cb78d3fU, 0x3d99b6703dceb19aU,
  0x3daa4db5bdd14ff6U, 0xbd715d51bdb569cdU, 0x3e0e74443dc979e9U, 0xbdc05e95bc99d9b8U,
  0x3db2cbb3bcf50ceeU, 0xbcb0d9a23c7190fcU, 0xbca2662dbde0bdecU, 0x3b90c13cbd88929fU,
  0x3e367de13c3809d6U, 0xbcd31a98bcdc3b94U, 0x3dd7336e3d330a1cU, 0x3da759c63d59181fU,
  0xbac464483d0a747fU, 0xbd2065c5bdf1c246U, 0x3e6682353e25d4a8U, 0x3d0b0790bd40d4d2U,
  0xbc382a943d904c71U, 0x3b1a556a3d2c43d6U, 0xbd08a9f23bc19411U, 0x3d88411abe2ad22aU,
  0x3e86640b3c7f29ddU, 0x3e16146f3dcdef4fU, 0x3cdae0f13dbc340fU, 0x3de39011bd515af2U,
  0x3bbe733e3cb7f1f3U, 0xbc0e662bbde97b6cU, 0x3e581ecb3e1bdbeaU, 0x3de46da83d378cf9U,
  0xbe2cf50ebd8f2fa0U, 0x3b00fbbd3d6de1e8U, 0xbd66a319bc3a28d4U, 0x3d28c0a73cb0a254U,
  0x3dd6bc023d9e4bb4U, 0x3da97af4bd2d0050U, 0xbd9d5e9b3b950d69U, 0x3d3abd34bcb65002U,
  0x3d79bf6bbdd931daU, 0xbd52be7d3c584314U, 0x3e0bee783d68741aU, 0x3e090b1cbde32780U,
  0xbcbe97ca3c8fbd33U, 0x3d278c3abc55b4ccU, 0xbc3cb919bda1e074U, 0x3c619740bcb43cb4U,
  0x3da09fe23d0f848cU, 0x3cb47aaebddd9556U, 0xbcb234913c9ade69U, 0x3d0ad8acbdcbc014U,
  0xbc3fdd24bc2aa17aU, 0x3de9f9343de83c02U, 0xbce0293bbd03bac8U, 0x3e52914d3c5a5999U,
  0x3dc5f14a3cf3ac9aU, 0x3dd1f9ffbb9b38a6U, 0xbe2932593db19d48U, 0x3d5fc8bf3e35b227U,
  0xbe0252b0baa4a769U, 0x3e8f39683daa9809U, 0xbd8050743d32ebd8U, 0x3da70a08bd5e265bU,
  0xbdf615b2bcee08a6U, 0x3e2d08c53d94327cU, 0xbe0063afbd0f4d79U, 0x3e8826a73dcb89bbU,
  0xbdcb0151bd1933c8U, 0xbd90d252bdbc3266U, 0xbcfe92e2bd3a9f37U, 0xbd5e219a3e4eeae9U,
  0x3e00fd80bd3da514U, 0xbd2bc2e2bdd067f4U, 0x3c8f0570bda53d2eU, 0xbded786bbdd8622dU,
  0xbdba3fbdbdd8f605U, 0x3cadeb113de448beU, 0x3e6953c0bd4956e0U, 0xbd0e0f13bde7d65cU,
  0x3aa6c22bbd7a6ccfU, 0xb6c15cb2be311e9eU, 0x3d1f622a3d22c7f2U, 0x3cb14f3b3e6ca2d6U,
  0x3e68e36abc5b48acU, 0xbc7210b0bd92e722U, 0x3d0d8b2ebc28d965U, 0x3d92bc5ebe104c3eU,
  0x3d9e792fbe5166caU, 0x3c23c26f3c581b38U, 0x3e89f9e73ccc4632U, 0xbd467ad2bbbbf0a0U,
  0xbd2c56e4bd31f6f3U, 0xba52ed12bd051bceU, 0x3cf53c6dbde39ee2U, 0x3d23670b3c9b225cU,
  0x3e976a983d7fbdb3U, 0xbcda5fc0be12de79U, 0xbd42feb9ba89661dU, 0x3d664394bde23f4dU,
  0xbd4e0ecabe61cdf0U, 0xbd9b73babd12c158U, 0x3e274e88bc8e2f69U, 0x3c24246bbc18659bU,
  0x3e4a01113dcdae75U, 0x3ac7e167bdc74826U, 0xbdea15cb3d0dd658U, 0xbdc39f9e3c5b267cU,
  0x3d9398b3bde1832eU, 0x3e2e1d0e3e07a8f0U, 0x3df329623cf36617U, 0x3d861f9fbdca7cf1U,
  0xbdcb20b0bc92ca5bU, 0xbd4c18773caf18c7U, 0x3df81b6dbdae6e01U, 0x3da572973cabaabeU,
  0x3e5c1cbd3c9b5591U, 0xbd7a0decbdb7ad83U, 0xbd1f71923df98a3cU, 0xbd1eadb93d940f5cU,
  0x3e143f273d066648U, 0x3d11f7db3d8d20ecU, 0x3e0f6b0d3e9e43f2U, 0x3d737d1dbded1d45U,
  0x3c9dafba3e6c73dcU, 0x3bf3f67dbd72b501U, 0x3e1118a13da40474U, 0x3c77b1153db4d9a4U,
  0x3c56722e3e892a56U, 0x3c755a72bdcfcda1U, 0x3e01c9bf3dd45f2cU, 0x3d1461713d1f54ebU,
  0x3e45ff953db1a05bU, 0x3e1eab133d844adeU, 0x3dd466fc3e4e9895U, 0xbd19f39bbd4f47b7U,
  0x3e02348b3e075979U, 0xbce5dce3bd9fae7aU, 0x3e4d9dd4bd3d7dfeU, 0x3c3fa679bbb3e646U,
  0x3e002f243e253793U, 0xbd462212be6e0249U, 0x3e461849bc322f8aU, 0xbdd0c79e3d58fc3cU,
  0x3e2204613d9b4a33U, 0x3d10ba2bbdf1c281U, 0xb8f87fba3e4456cfU, 0x3cd8bb64be21e7d2U,
  0x3e474cf63de49d44U, 0xbe1d1ea93c23e1b6U, 0x3e80817fbd25b80dU, 0xbd007732bd3ae80aU,
  0x3dda0a1f3d71540eU, 0x3d8d1c4ebe2c817cU, 0x3e5092c33df8416eU, 0xbdf88e463d8f7be4U,
  0x3df511a1bda17de7U, 0x3d5dda9cbdaadc7aU, 0x3dacb6a73d742ae9U, 0xbd061c48bde1f8dcU,
  0x3d5059233c2b9486U, 0x3d906e2e3d6af756U, 0x3d007d153d82ee3bU, 0x3d68deda3c553f1bU,
  0x3dea90debd3b882aU, 0x3d692d6abdcb66f0U, 0xbcf29f073dc8e141U, 0x3d26d7fb3ca5e79cU,
  0xbb7022cfbd0bab94U, 0x3cbafad83d99a01cU, 0x3dfcba2dbccf1b83U, 0xbd8317a0be0c056fU,
  0x3ce75d4a3da1249bU, 0x3e229727bca5bf21U, 0xbd20613abd0195edU, 0xbd75ee6a3d370942U,
  0xbceded4bbc9ea461U, 0xbcbd7f58be1497acU, 0xbdae2f9bbc86617fU, 0x3e1bf2b33d9dbfc4U,
  0xbd9f277d3e0349deU, 0xbcdddcadbcd2825cU, 0x3d16543e3d5430b1U, 0x3db44fe3bd092994U,
  0xbc079dc7bd98d958U, 0x3e1421ce3d6c2bc3U, 0xbc0269fc3cf68969U, 0xbc0eaa76bc9172afU,
  0xbd6bb7483dd54d7aU, 0xbbb5b84fbe1e1dd8U, 0xbd2f26e2bd33ada6U, 0x3e4de5eebc9a834fU,
  0xbcb6b1c33c0f1c4fU, 0xbbe85aba3d865225U, 0xbdae0db03d8134b2U, 0x3ddaecaebccc1342U,
  0xbd9f8edebdeff67cU, 0x3cde3faebce7ceffU, 0xbceeaeac3df5c6c8U, 0xbdbe2433bdc329ebU,
  0xbdb23f473d106efcU, 0xbc29ad173cf1e2dbU, 0xbd26bb5b3cc71732U, 0x3dc0144bbd3ae9d3U,
  0xbb81b6183e56ced8U, 0xbb197feabdb4e150U, 0x3d740a063d5f4b63U, 0xbd134e69bd1245e8U,
  0xbd757a8dbd400accU, 0x3dff9216bd02e8eaU, 0x3d8373d53e2023d0U, 0x3bc030f9bd6be971U,
  0x3c4f5e7fbc6c4354U, 0x3ccdc21abd4a5cb6U, 0xbda82bfabdf1802eU, 0x3dfccf973d9803d7U,
  0xbc37ec9b3c921d9bU, 0x3e11884bbd553f20U, 0x3d07412c3d8ec493U, 0x3dc3b689be1ed5f7U,
  0xbdcddacebe3530a8U, 0xbcce7a153d03389bU, 0xbdbf4aff3d47108fU, 0xbd170c0b3da34cddU,
  0xbd3415c53dd56162U, 0xbd24fbe5be227070U, 0x3d0146c7be133ad7U, 0x3be4fad8bd3753e4U,
  0xbc7387b5bd41c29fU, 0x3d8701ac3c223592U, 0x3b882f1abc936c1cU, 0x3d669f35bde30c73U,
  0xbe36a017bdc69c9eU, 0x3d1309773dfd69d0U, 0xbe6d5df3bb3d7c1eU, 0x3e35f2aa3d7e0e4dU,
  0x3df6423a3cdf4de5U, 0x3cac2596be4c6e67U, 0xbd4a9861bd90a850U, 0x3d8065963e19bd21U,
  0xbdbc7ec63d0259eaU, 0x3d5600133d569fe6U, 0x3e0298d93d951e83U, 0x3d6cde50bdd26ac3U,
  0xbe00b228be095ec2U, 0x3db8127a3dfa436aU, 0xbdc8ac49bd58ea92U, 0x3dd6f8163dbdca61U,
  0xbca0a887bde3a0deU, 0x3d1e3938be2b0be6U, 0xbbd2a8bfbbf30c9fU, 0x3e1b7ee23cccfcfeU,
  0xbe965f13bd8025a3U, 0x3daf20613d10532aU, 0x3dd3066bbe00bad4U, 0xbd6454a4be0b421bU,
  0xbd3e56663da09ac2U, 0x3e0c9aa73d636b2eU, 0xbe591aabbdd8fd5eU, 0x3db535a4bd2de4abU,
  0x3d173ac0be1fc2a4U, 0xbdab87c5bd5011feU, 0xbd1717dd3d8fa252U, 0xba1240da3e077a96U,
  0xbe72c3afbbc09266U, 0x3dc4cb903dddc630U, 0x3d655c183d7352f7U, 0x3d3dcd573deec87dU,
  0x3db711823dfda324U, 0xbdc73944bd54e56aU, 0x3de4e8193cc15f10U, 0x3d86e2e43e344682U,
  0x3dd736c23da04595U, 0x3e0482463e2d8b42U, 0x3d31d8853df43ac5U, 0x3ba75675bd89cfb7U,
  0x3ca3f405bdb17972U, 0x3de3a8d63e047c63U, 0x3db2a0fc3dbca15eU, 0xbd1988cf3e3d3240U,
  0x3dc0f5153d280e07U, 0xbbd32dc13cfea7d0U, 0xbbd39a69bda0a16dU, 0x3db241963dafe9a2U,
  0x3e0e2d203c2d125dU, 0x3e0e47303d2661b2U, 0x3e11843d3dccab30U, 0xbe0813d5baa695ceU,
  0xbc39284fbc7c57c0U, 0x3dc66e413c92c0cbU, 0x3d1562b63db0ca69U, 0x3d3557283d0afd07U,
  0x3d9d5e923e3dda2cU, 0xbbdfb238bd7e54c4U, 0x3e20f291bdf443c4U, 0x3bec1c163ca71339U,
  0x3d4e99473dffc07fU, 0x3d3b2db33ccda8ffU, 0x3dc3761e3dd3dac2U, 0xbd9c311b3d705d7bU,
  0x3e02f308bcaf4f06U, 0x3d90646b3e265c4dU, 0xbda9ab95bd03efecU, 0xbd311f7cbd447b4aU,
  0x3da9c2773e082545U, 0xbc3314b43c9bfabdU, 0xbda05ed5bd38f6ffU, 0xbd649d1c3d4eb121U,
  0x3d8eddde3d5c9097U, 0xbbb561c2bc4e18d7U, 0x3d403ca13da25f78U, 0xbd9ea45fbb76f2d6U,
  0xbe145217bd83d4e6U, 0x3c5d2b703d950d2dU, 0x3c787de6bcbe6786U, 0x3dd74886bd794292U,
  0x3c304e223dddb360U, 0xbd5fe11ebac50107U, 0xbe1f480dbdeffbdaU, 0xbdbd66073dc100bbU,
  0x3dcce75b3c562d5cU, 0x3e03fd26bd124e3cU, 0xbc99c5163e0dcdd5U, 0xbd9dbce83d9265dcU,
  0xbd3b835dbdd8bf05U, 0xbcd70c3a3ddd3ffeU, 0x3e2d59a33d88b5a9U, 0x3d261611bdb37d3bU,
  0x3d9fb21e3e314800U, 0xbdb4c94f3d715aa6U, 0x3dd8a71bbc289430U, 0xbdee996bbcbe4828U,
  0x3d6c29bd3c0916e0U, 0x3d6d49d3bc5cd5ebU, 0x3da4c6fd3e3cb337U, 0xbd8a8533bb2d9c1dU,
  0xbd43c4cd3c3e293aU, 0xbe049edabd312521U, 0xbd2fef7c3ccac73eU, 0xbcc30c0b3b108427U,
  0x3dbfd3ba3e136540U, 0x3ce6a02dbdcbb3bdU, 0xbc7c3bd0bd8f07cfU, 0xbdbb9ecb3dfd3880U,
  0x3cb3ac8cbd80a1a1U, 0x3d3bff5f3d8423d1U, 0x3de240943e4e4a00U, 0x3afb3796bdc2a915U,
  0xbd8efe11bd064402U, 0xbd9ca3b33d5e06c3U, 0xbd185652bd1b9112U, 0x3d24f6db3d8e8369U,
  0x3e3ab08c3cf6a938U, 0x3dc9a4bcbddd1fc2U, 0x3dfb85523db23debU, 0xbd3321903d833c0eU,
  0xbda0fac13d169852U, 0x3da5c0f43d9d99aaU, 0x3dab080d3dc6e4dfU, 0x3d88b674ba2d7a1bU,
  0xbdc10e2b3d32ae70U, 0xbe30080cbc001d78U, 0xbe254475bc82eeabU, 0xbb274f873e185967U,
  0x3dd0cdbb3e1b2c6eU, 0x3d83d6c83cce02c2U, 0x3c8bf6da3e058455U, 0xbe4d890e3cf0219dU,
  0xbd9d553abd0afc86U, 0x3da9a8393db891daU, 0x3dbc24873e482b6bU, 0xbd08dca8bd09aa3aU,
  0xbc2c04663c882e27U, 0xbe0fd89cbd1dda91U, 0x3d8dc4ffbdc7e84bU, 0x3d79cf22bcdebe59U,
  0x3d30546fbd4648e7U, 0xbdea9fa53d45396bU, 0x3decc5ab3d935a02U, 0xbcc285963d221934U,
  0x3ddf8b91bd96bb40U, 0xbd4a0cf0bc40e9a5U, 0xbd012cb7bd808e90U, 0xbe2359a63da71722U,
  0x39fe1c31bd3ded14U, 0x3d9dfb72bcfb67cdU, 0x3cf7c016bd9d1b75U, 0xbcbd78ccbd222bf9U,
  0xbc583a723d8f5592U, 0xbdc6af57bc4caef7U, 0x3be4232bbbbe529aU, 0x3cbe491a3da0a3fbU,
  0x3e1757133d80f1b3U, 0x3cd2dd9fbe918a86U, 0x3d8268bb3e51cf84U, 0x3d3d8d7e3d22388cU,
  0xbdd0dbf7bdc35422U, 0x3d151d4d3df0591fU, 0x3e68c0a23db76938U, 0x3d9457e5be95bd6aU,
  0xbdb84dc03dbedfc5U, 0xbc1f5c9cbcfbd90cU, 0xbe1c07da3d1efa72U, 0x3d3b4e203daddd93U,
  0x3e2c696dbcbc83aeU, 0xbd5c164ebe8cd822U, 0x3d1a70583e60cfc3U, 0x3d090e563d909622U,
  0xbd5edeacbc75126cU, 0x3d61b26cbbe12581U, 0x3d06fa133d3e2ea1U, 0xbd3087ce3e07ebb1U,
  0x3c236d583deb88f2U, 0x3a74c58f3cadd040U, 0xbea09ad53cdcfa4fU, 0xbe41f03ebc9f88c0U,
  0xbd4bc3e53d8c932eU, 0xbdb0ada13ddbf23fU, 0x3adc3d103e60a1deU, 0x3de746893c4afa38U,
  0xbeb2b9ce3d76c6f9U, 0xbe07a54f3da5de41U, 0xbe04179dbb59c184U, 0xbccc5f603de77654U,
  0x3e117b113e50fdfdU, 0x3da365c93c4db6abU, 0xbeb0c2ad3d8e0112U, 0xbcdbe69e3d1c73c6U,
  0xbca5ae543d1df367U, 0xbc0ecbc13db92ecfU, 0xbdf45142bd891c1bU, 0x3c59d52a397b596dU,
  0x3da884b7baa1744aU, 0xbd54a265bd05e3a0U, 0x3c768c9abcdc66efU, 0xbc4118563ded4e3cU,
  0xbe04cc9bbd8ce83cU, 0x3d200ee83c9d0a44U, 0xbd5fc8803e0e2fc4U, 0x3b0c217fbc916620U,
  0x3d7f3db0bd7221e8U, 0xbc80919b3e019b13U, 0xbd23451b3c980c05U, 0xbcf31054bd9702f0U,
  0x3c21a35b3d14ac82U, 0xbd9fb629bd030794U, 0x3ded04acbdccfbc7U, 0xbca0e530be27fbb4U,
  0x3d7bb58c3c854cb1U, 0x3c331a9dba4326c9U, 0x3e5369bbbd6fa142U, 0x3e4c238a3d87a886U,
  0x3ddc32f5bdb9a4b4U, 0x3da9e82ebe40da74U, 0x3da4ec273e17be08U, 0xbd14df4c3df1d94cU,
  0x3e3759903c5695d7U, 0x3df515643e00e926U, 0x3e4fa837bde41dacU, 0xbc284c37bd4a9c55U,
  0x3d3a89d53e3cd110U, 0xbd8a556fbcee60cbU, 0x3e4219003d819340U, 0x3d7dc5833d48f9cdU,
  0x3d2567f9be1f0aa1U, 0x3c0f1f49bce5d608U, 0x3d24f5cf3e9c4ef3U, 0x3d6bb5433da259b6U,
  0xbe854ff9be1d6ff4U, 0xbdea9ee73de50f58U, 0x3ca5464abd40f76bU, 0xbdc535a8bd048f03U,
  0x3d4632e03e88a6f4U, 0x3e1631b63d18222dU, 0xbe99477ebe13c995U, 0xbe19e3a93d5ae7ecU,
  0xbd32526ebe20b318U, 0xbd97a3303cd5288cU, 0x3d8ae0393e869e83U, 0x3d165ab33d622673U,
  0xbe903744bda60fc4U, 0xbe34d2903d1ab8a1U, 0xbd340ad13cb064cfU, 0x3dda67e3be1b0ef2U,
  0x3e6fcac2bcfbdcc5U, 0xbe3e03433ddc3558U, 0xbe24b8133dfe67efU, 0x3dc66d2e3d1c4c8dU,
  0xbe1a381fbd38a49bU, 0x3d9b8401bd77405eU, 0xbe1f83f4bd8c918bU, 0x3c1fc384bca5838aU,
  0x3e3bff0f3b2aeabfU, 0xbcde403abe003565U, 0x3b8401863e0afae4U, 0xbdbd8d6f3d8e8a76U,
  0xbdae92cfbcd13428U, 0xbe331f1ebd7ea622U, 0x3d229a9f3cb9e77aU, 0xbd8b22243dd1e34aU,
  0x3d89cb86bdd1b1f7U, 0xbcd2781cbe33ff30U, 0xbe05671c3dae9976U, 0xbd170f35bd6182b8U,
  0xbe0da7003c84083cU, 0xbce84b85bd17d972U, 0xbad2773cbe22c794U, 0xbdf292423dc999caU,
  0xbdfdcac0bd0e94b4U, 0xbe58c1c0bd4fb3eaU, 0xbb18a8a23cf3ae3dU, 0xbca4e8c73e0af11dU,
  0x3d07e1f7bd353705U, 0xbd7b3947be3c508aU, 0xbd6b78d13dcca397U, 0xbcba8a18bc6400f5U,
  0xbe2ec4f33d0e4831U, 0xbdad92afbc4a45d5U, 0x3caa9590bdfe30e0U, 0xbd6b18dd3ddddd91U,
  0xbe058ed8bd4fba48U, 0xbe57f741bd78fa60U, 0x3d3ebedb3d98c3dfU, 0x3cedf78e3df50ecdU,
  0x3daf97d2bd2e207fU, 0xbc460d1fbe113684U, 0xbda8597a3d1980d6U, 0xbd105320bb1a9af3U,
  0xbde58c0a3ba9d047U, 0xbd195f4dbd92f9e6U, 0x3d5f3dd8be15df61U, 0xbd826d193de3ffe3U,
  0xbd9e8b79bd4cba5aU, 0xbe0067efbd32b8a4U, 0xbd2638cc3cf09099U, 0xbd1f083c3dc2627fU,
  0x3d645a95bd9db6dbU, 0xbd468a6ebde3a64fU, 0xbdb5170cbb8d88ddU, 0xbc696fba3cd1ec61U,
  0xbdf360103d01dab0U, 0xbcaaa672bb5962faU, 0xb9a0f964bd4f8a6cU, 0xbc4b3c153db3cebdU,
  0xbcdfb9d73bba8b35U, 0xbdd8f541bd1fda12U, 0xbd4063f13c8b6d61U, 0xbbf7e4763e04dba9U,
  0x3d443227bdcdca8fU, 0x3aad90b3be3229a2U, 0xbd4195713d5ffca7U, 0xbd2aa9ca38854ec9U,
  0xbe21920e3d21dc5bU, 0xbd468569bd603311U, 0x3d5c2cffbd640a44U, 0xbcb833d23d7c451cU,
  0x3cb0b2afbc2e170bU, 0x3cfba05e3d128afeU, 0x3dd264203d58c7acU, 0x3d8dd1733d2daa58U,
  0x3ca31927bc6d3af5U, 0xbde3c4e1bdb96ef6U, 0xbdca3ca73d9d9b28U, 0xbd0bc5493df4f70dU,
  0xbe4d577d3ca0f06dU, 0xbc507130bd2a569dU, 0x3d9e29ad3cf690c5U, 0x3d1b6e553d8c30dfU,
  0x3c9b53543e339174U, 0x3d16d7e73cf6c0c2U, 0x3e1452363cd48c82U, 0x3d0407e43da2a56aU,
  0x3d0e13cc3ca79b8cU, 0xbd395cf4bded3b71U, 0xbd840cd33dd3b533U, 0xbb2be1143dbba838U,
  0xbe07f3df3d4bb546U, 0x3c99e69b3ca261d1U, 0x3d67fb863d2bbe02U, 0x3d8bf0e83dd5fa26U,
  0xbc3d08f13e25f3acU, 0xbcb1d4d93d038c75U, 0x3dbfbbae3d2b8740U, 0x3d52ff173d979a41U,
  0x3d321ad3bd4018b9U, 0xbd7a7480bd79c475U, 0xbcac32dd3d6c2a31U, 0x3d4843813dbdfb4cU,
  0xbe16f1283d988aeeU, 0x3cf2d7a43d06496eU, 0x3db7dec43cb4ce0bU, 0x3d6cfb853d613e55U,
  0xbd17a25c3e1896d6U, 0xbd5a5cbebb66afd4U, 0x3db2975a3ca888cfU, 0x3d3257ba3da6f0ffU,
  0x3d89f6a8bd546724U, 0xbb65c491bd08d239U, 0xbd5fc57abb1fe525U, 0x3d3276ad3d98d396U,
  0xbdda9db03d4ad9daU, 0xbd1c97a5bbaea368U, 0x3d4a03273d1f968bU, 0x3d57fc843d94ba8dU,
  0xbd44172b3e4eff17U, 0xbd5628d33c8d4771U, 0x3d9c34a13c8b07bbU, 0x3d32bb4a3d50663dU,
  0x3ceb855ebd752830U, 0xbd084e0fbd3ea3bcU, 0xbdb50c8d3c98db55U, 0xbd0249943dfdaf20U,
  0xbe1977e83c77e777U, 0xbcc011d1bd6ac01bU, 0x3d734e32ba082875U, 0x3d92e3443d98f925U,
  0xbd947b883e2b05a6U, 0xbddcfc563d1e745eU, 0x3db3ad483db26bb5U, 0xbc1a9d9a3cfcee02U,
  0x3cf1cb03bd885f23U, 0x3d0a84ddbd9bbefcU, 0xbd6e7a4d3dd613b8U, 0xbd8c76873bbed372U,
  0x3d8a027abd5a1a09U, 0xbcd2f71fbca95f81U, 0xbc4dc09a3e28de88U, 0xbc54ef95bbb9a435U,
  0xbdc004c53d806fd4U, 0xbd83524b3d47f3caU, 0x3d46361c3d5c11b7U, 0x39efc219bc01d3d2U,
  0x3d080198bda5cb08U, 0x3d092b52bd11ea85U, 0xbd7e645d3dc238c5U, 0xbd35850f3b9dd357U,
  0x3daf6684bd839208U, 0xbb9ff279bcaf29a2U, 0x3d6851753e16e0c0U, 0xbd3c95f13c823902U,
  0xbda5ea213d6a3cefU, 0xbd6bff053d850bf9U, 0x3daec6053da7dd45U, 0x3c60e0b13caacaacU,
  0x3ca2cd74bc849869U, 0x3cfbe89ebceb1b87U, 0xbcd6f3fb3dcc80e8U, 0xbda150eebca7130fU,
  0x3bbf2455bc8e5eaeU, 0xbc50b425bda04535U, 0x3bc281353dd4f53fU, 0xbc31da52bca14ae5U,
  0xbdb74f6b3dd82a7fU, 0xbd272ae33d9796eaU, 0x3da8701d3dc366dbU, 0x3d0fbc6d3c63c168U,
  0xbc818e28bd58a3e5U, 0x3d1f1390bc84ba83U, 0xba07afeb3dd75e87U, 0xbd4db33abcd51b63U,
  0x3d18f7a7bcde614bU, 0xbcb1e0b7bd236c18U, 0x3d2285413deceef6U, 0xbcf91547bcd56651U,
  0xbd618da13d5c052aU, 0xbd5099c13d34b5d0U, 0x3d3344303df50e13U, 0x3c1b3262bad59dd6U,
  0x3c055a1ebdae7529U, 0x3d64785e3c27a586U, 0xbd19ec0d3de88639U, 0xbcf22dfeba2d7b2dU,
  0x3cd3bc8ebd45e4fbU, 0x3b62b6fcbd495546U, 0xbb2a6bdc3df2efd2U, 0x3c7903a63caf4024U,
  0xbdd529793d7bf9d2U, 0xbd2dc1d2bd677b5aU, 0xbd69ff503e411093U, 0xbc488aa13dbd6965U,
  0x3c8fc901be37dfb6U, 0x3d1cc51cbe0a85daU, 0xbd6ee6193d1df320U, 0xbd95dc30be34ddbfU,
  0x3d375560bd4e81a5U, 0xbd1d5fe3bcbe48bdU, 0xbd1f2fd03cc497bbU, 0x3d6334043d71f9c9U,
  0xbd731ddd3df20b07U, 0xbd72d48dbd459ce8U, 0xbd1fcbf73e39951eU, 0xbd5c89f33dace9bbU,
  0x3b68ef18be322f02U, 0x3c17383dbe13b8c5U, 0xbdbc0bba3caafa4eU, 0xbd086b90be14ab59U,
  0x3d199cd8bc198a43U, 0xbc6f99fabd5dc59aU, 0xbcbaaa4c3bbb85bdU, 0x3de5faad3d110f3fU,
  0xbcd0ded23dcd755bU, 0xbca703debda0d4a2U, 0xbd093f223de2e27fU, 0x394ffcc23d9d156fU,
  0xbd0500afbe3c2467U, 0x3d484cebbe1af6e7U, 0xbd3f056e3ceae889U, 0xbd050c16be45c11dU,
  0x3d27c153bd1e938aU, 0x3cde3bfbbca51bbeU, 0xbbe89b6f3cea60f3U, 0x3db96e023d18f06aU,
  0x3ccc87b93d917d09U, 0xbca3feecbd42658eU, 0xbdb6c00e3e2a62eaU, 0xbcfe34c73d55648aU,
  0x3c885769be09a19bU, 0x3d50ca94bda71335U, 0xbd074f4f3d332e10U, 0xbd713d09be2015b8U,
  0x3d58ccb9bc3f4f51U, 0xbc48b550bc487e06U, 0xbced97d03db30257U, 0x3d7fabde3c4dbd90U,
  0x3c6713f83d9f1408U, 0xbcaadbe3bd803b1cU, 0xbd7b7e6c3e050201U, 0xbd00c57c3daeba10U,
  0x3c442d9bbe2704bfU, 0x3ccc4c00bd2c99f8U, 0xbcf9168a3d82ad33U, 0xbc854485be55e4adU,
  0x3d90fb90bd18fe22U, 0x3d850ebdbcb1d4e8U, 0xbcf90bd43c351e19U, 0x3d83067a3d2715bcU,
  0xbd7359c93cf8fa30U, 0x3d910c3fbd631c75U, 0xbd383cf43cf866b2U, 0xbc9970c73d8a8aecU,
  0x3afd0a55be1fedb1U, 0xbd62fe89be18f1ccU, 0xbd1b976e3da1da58U, 0x3cf95849bd1fedd8U,
  0xbdab29cf3d260810U, 0xbd18be3c3d11356dU, 0x3b66997ebcd00652U, 0xbd7de9833d86db3aU,
  0xbde125503dfb811bU, 0x3d39fa93bdd4ddc9U, 0xbde3de3b3cb27e33U, 0xbcbc50663dd3d496U,
  0x3d5a8893be010a37U, 0xbd32a4b1bde86bf7U, 0xbd21b2ea3d6b63dbU, 0x3d04a029bd04aeadU,
  0xbdf312853d9f881eU, 0xbd7752b63d2e13d8U, 0x3d8a22f3bdb579e9U, 0xbd714ed93de4e71bU,
  0xbe2496063dfdbe64U, 0x3d00d7a9bd9fefadU, 0xbe090b743c96bd4dU, 0xbcbaef043dddfb90U,
  0x3bb41f90be01f803U, 0xbdce3209bde3669bU, 0xbd320a7b3da77ed5U, 0xbb7d1543bd137a4cU,
  0xbdfb04643cacea07U, 0xbd4807f3baf27b06U, 0x3cac3126bda122a2U, 0xbbd4c8d23d3d557bU,
  0xbddc378f3dda529dU, 0x3cffc4a1bdab29e3U, 0xbe2a3d403d080f30U, 0xbd2fff2b3db79afcU,
  0x3d71f8b2be20e0b2U, 0xbd9d8869be15c1edU, 0xbd1a3ace3d1d7808U, 0xbc809a0abdb0142cU,
  0xbda7ddd03d1efcaaU, 0xbcce99bf3d411ca5U, 0x3d64ff66bdce10f3U, 0x3c82cc6a3daf75d0U,
  0xbdf6734a3e3c53d3U, 0x3cd058d5bde4a7afU, 0xbe24dc72bc2e0d7cU, 0xbd2b26483e12c075U,
  0x3c5e73b4bdf6386fU, 0xbd94e9fabe01b6ecU, 0xbd03a7b03d995693U, 0x3d032ad6bd6ee7a0U,
  0xbddad7063d6b0b1bU, 0xbd2ad31a3d159f62U, 0x3d4a4fbebd352b50U, 0xba1b80b23d8352ddU,
  0xbdc6a34f3dd3d769U, 0x3cd678813cf92e60U, 0x3d1a53a83da61c6cU, 0x3bf24aa0bceb6804U,
  0xbc12121bbcfbe2b7U, 0xbd25bc00bcba94d1U, 0xbd9d6c463d9c81c4U, 0xbd7f1524ba7316c5U,
  0xbdb5e844bd581d55U, 0xbc1f5defbbbd5ec2U, 0x3bad95adbd6e60cdU, 0x3e01018c3cd922fdU,
  0xbd9e2e4c3cbfaecbU, 0x3d342188bc5a6ecbU, 0x3d53b8a43dd0ce55U, 0x3bde3868bc820f95U,
  0xbc984d21bd8de6c4U, 0xbd641b51bd349394U, 0xbd72862e3c3a09a7U, 0xbd045c39bb71a92cU,
  0xbcfa8625bcf9c1ddU, 0xbb6d27253ca0fcfdU, 0x3c8aa8f4bca2eff2U, 0x3dd9e5c83d3d6788U,
  0xbdfe8c073b6c854eU, 0x3b5073d1bb48b910U, 0x3da705613d3b6e3dU, 0x3cbbb67ebcd360c8U,
  0xba0468f1bdc1be8fU, 0xbd9ab183bd39c84aU, 0xbddacccb3dbfc6afU, 0xbd17bd383b9a414fU,
  0xbd372100bcd649c4U, 0x3d05d830bd3c3334U, 0x3d0174a8bd08b9edU, 0x3d6e97973d9c2505U,
  0xbe0aa50f3d627c6cU, 0xbd3b868e3bf0cf95U, 0x3dddb6053d5b8a65U, 0xbabb8033bcab4674U,
  0x3c957d36bd2a389cU, 0xbddaa8583be11d3cU, 0xbd7f20e33d782865U, 0xbd98404b3c5c171bU,
  0xbd58613ebdaf75e7U, 0xbc767336bd20d88cU, 0xba30d4643a09ecdaU, 0x3d4ea60f3da1e292U,
  0xbde5919c3d08bad0U, 0xbd67742c3ca9e5e4U, 0x3d4ace083dd5d112U, 0x3ca592edbd082367U,
  0xbbb2e9f3bd274693U, 0xbdb1c65fbd3b3960U, 0xbda9af983ddb0b3fU, 0xbd22595d39cfb42cU,
  0xbd81674ebd6e08c1U, 0x3d447230bce6f23aU, 0x3cc1e49ebd898ceaU, 0x3cb361543d8b0127U,
  0xbd568e33bd4a5b6aU, 0x3b0d9ac43cafa7ddU, 0x3ce9b21dbcca77d8U, 0x3c38853f3da8c81bU,
  0x3d772236bc5d8cbaU, 0x3de56e0abbcd95bfU, 0xbd68dabd3def5f55U, 0xbcd629fc3c8b8a95U,
  0x3d09e1bd3c514b39U, 0xbbf5a2443cba9dc1U, 0xbc079414bdd9e6f3U, 0xbe25f4d53ca1bb1bU,
  0xbdb52592bd712585U, 0xbd940b95bc8b333fU, 0x3ce4f809bd8d39caU, 0xbcc579063d824297U,
  0x3d6dcddf3ca1414cU, 0x3ddc211ebcc5c3c1U, 0xbc8dd89b3dd44d78U, 0x3bb092f93d4f8b78U,
  0x3cd7522e3d9b758cU, 0xbbfeb4de3d3b4567U, 0xbb16b3c5bdebecadU, 0xbe40a0f13d0356d1U,
  0xbdd5e2debda6b026U, 0xbdd2c335bd8530ceU, 0xbd03984ebd8c6ba0U, 0xbce031a93d707f4dU,
  0xbbd8a1a8bd3c9de7U, 0x3dde3542bd94d208U, 0xb8d52bc83d60938dU, 0x3c7df3c53cb427bcU,
  0x3c14ab3a3d207e49U, 0x3ca45a0e3c0a2821U, 0xbd02e215bdd7fa60U, 0xbe0f1d973d7e86aaU,
  0xbd237ef6be00005dU, 0xbddcef18bce9a94eU, 0x3cc5fd4dbdba8539U, 0x3d0463bb3d5df978U,
  0x3d09354fbc728775U, 0x3dc3a883bd3cbf41U, 0xbd6f384b3d4af641U, 0x3c51f2303c98f753U,
  0x3d0693813cd04dafU, 0xbb6506493cdff908U, 0x3bcd243abdca0ee6U, 0xbdbeb8ef3d7f1351U,
  0xbb4f6e5cbe024993U, 0xbd09a3f7bd07624aU, 0x3d786e65bcd6b1caU, 0x3cb3c4063d933e3cU,
  0x3ca020743cfa1088U, 0x3db7e776bcbc1ff8U, 0x3bb34edb3dbe5e4fU, 0xbcf5044c3da62c8cU,
  0x3cd709a53d1deabaU, 0xbc908575bce045f8U, 0x3c2afb2ebd8405f4U, 0xbe2159583d064cc0U,
  0xbdd43a71bde56835U, 0xbe4b9dd33c9ca7cfU, 0x3d3fa0f7be0c814bU, 0xbd056dc43d0c2478U,
  0x3d2e4f9d3d0b86b1U, 0x3de9b81bbd51fabbU, 0x3d3ebdeabd9aa365U, 0x3c374ad83ddc64d8U,
  0x3c5c395a3d8b5c5dU, 0x3d08ce2c3c2352f1U, 0x3c0ea25ebdaa806eU, 0xbe29806d3d455e75U,
  0xbe06ec4abeb5d56fU, 0xbe427c4c3c4f5458U, 0xbb4a14a7be4bcb56U, 0xbbf647883d8b296aU,
  0x3c7f385f3d4e9ba4U, 0x3ddb0efebd4ec0f5U, 0x3d4b03f2bd96d45bU, 0x3d6e42403db15904U,
  0x3c5dbd153dde9362U, 0xbd0f291a3d1b2e58U, 0xbc375902bd78901aU, 0xbe88c1ab3d729e7aU,
  0xbe06d6a1be90398fU, 0xbe0b61bebcc647d9U, 0xbcc48bbfbe25a172U, 0xbcaae91b3db3614bU,
  0x3d37b2e33d8fbf84U, 0x3dac150abd001a74U, 0x3d0e49d8bdadd173U, 0x3d8c0afe3d41c4cdU,
  0x3d40f2fd3d961d46U, 0x3c9bc0d63c99346cU, 0xbccc990fbde8c89aU, 0xbe508f143d347117U,
  0xbddbca76be8606c4U, 0xbdf74e04bb7fe08fU, 0xbd1ca4d6bdfcad69U, 0xbd128bb43d157e7fU,
  0x3d7605db3d67e196U, 0x3df36034bd11771dU, 0x3bad1108bdaa89c7U, 0x3cea37e93dd9863bU,
  0x3d33287f3d68259aU, 0x3c5d04b13c906ef1U, 0x3b379f9bbd99556bU, 0xbdf6fd183c025a79U,
  0xbd93bcc7be84b47fU, 0xbdfa00fc3ceba807U, 0xbc6ca12abde72fb7U, 0xbd08f8753d8e9d83U,
  0x3d71621e3d90b062U, 0x3dcd9762bd200fcaU, 0x3d336e66bdc084d1U, 0x3d2108733e00a46cU,
  0x3db80dd83dbd33e5U, 0x3c2724033d0e3d9eU, 0xbd39eed4bd9dbcdaU, 0xbe3c55ffbd0118f1U,
  0xbe235869be2a6a41U, 0xbe46dc463d2c6363U, 0xbcda8e5fbde7ab1aU, 0x3d34dcd13cabba5eU,
  0xbd48b7473d7fc850U, 0x3d5100aebd20ee5bU, 0x3d25dc66be470161U, 0x3ccc4f953c3f2751U,
  0x3dbf4bdf3db17e62U, 0xbcc2998d3af21bb6U, 0xbd6ad0bcbcb7d218U, 0xbe7ef05abd7e71cbU,
  0xbe43af01be89134eU, 0xbe4d0ed23d889841U, 0xbca69a80bdc2b2ffU, 0x3d313caf3cde810aU,
  0xbd7ed2723d99a858U, 0x3d88555dbd4eb20bU, 0x3c1acea3be474b92U, 0x3d8c53a73bb5546aU,
  0x3d2f05323da44ce0U, 0xbd422bab3c44ff98U, 0xbd7128f33bee99b3U, 0xbe486bcebcf7f7d3U,
  0xbe36ec42be6a1918U, 0xbe3be4fa3d6835d2U, 0xbd6e63cbbdc9d315U, 0x3ce3e395bbaae722U,
  0xbd447c513db19d5bU, 0x3d129e17bc8cfff5U, 0x3d4be2a9be32e07fU, 0x3cd08d8e3b930789U,
  0x3d052ca93d1caeefU, 0xbd2ef6a43bf4210eU, 0xbd0ce70fbb9b53d6U, 0xbe57c64fbd7fe843U,
  0xbe24097cbe7028aaU, 0xbe4d0ef33dc1cf60U, 0xbc9f5496bdc23c12U, 0xbb74c755bc3354dfU,
  0xbd376d9a3d86c3b3U, 0x3d9444fe3bb21b39U, 0xbbc894e6be0df841U, 0x3cc9e30d3c420544U,
  0x3d5953383db521c3U, 0xbc1b0243bbbd6206U, 0xbd62b39fbcecd80cU, 0xbe3a663dbd811a55U,
  0xbe0caed7be5adcf9U, 0xbe0eb5243de45088U, 0xbcda84ebbd8463c1U, 0x3cfdfc473cb4e04cU,
  0xbd04a8333d393ab7U, 0x3dc45491bd37d5b7U, 0x3d06edd7be18b2bbU, 0x3ca852f53c3b836fU,
  0x3dc9346f3ccd58eaU, 0xbb9d37ffbcbc3a0aU, 0xbd3652573d0355ebU, 0xbe6638e6bd89161aU,
  0x3caa7680be16cb48U, 0xbdb0abe73da4249eU, 0x3c52fa12bd9ae283U, 0xbbb32d26bd138647U,
  0xbd4f9c523cf2f45fU, 0x3df72ca23b313e81U, 0x3c1a207bbd41d6feU, 0x3c8a99e63cb61e50U,
  0x3db765b83d65eef6U, 0xbcacb0503beadb6aU, 0xbc5176243d443a4aU, 0xbde8688cbd1d853bU,
  0xbd3a5d89be2ba67fU, 0xbdc36a1a3dae6a47U, 0x3d024a16bdca697fU, 0x3cc73105bc870c20U,
  0xbd0e4fb03d73420fU, 0x3dd6c635bc304f1aU, 0x3cc9789ebd77e9eeU, 0x3997c6923cb80010U,
  0x3dd4cb493d1a8a10U, 0x3b9f92e1bbdea4aaU, 0x3bcc4f423c7af192U, 0xbe014610bceab913U,
  0xbc3057d7be24c30bU, 0xbde0bb9d3d7c3c6aU, 0x3d959743bde3875aU, 0x3ce52cf73ceb1dc3U,
  0xbd04ab663d437940U, 0x3dcb3ae9bd0d5d7aU, 0x3d254ef6bd101f84U, 0xbc1dd5de3d57ffabU,
  0x3da5ddb83d03427dU, 0xbc993d1abd38b0e1U, 0xbd385823bd2487b0U, 0xbe50bbeabd5e573fU,
  0xbd50afcfbe0ff8e1U, 0xbdb08f373d91cb9aU, 0x3db91785bdb97ab5U, 0x3c83baa73ce7779fU,
  0xbcc3daf43d818422U, 0x3dc2ca7fbbf216e6U, 0x3d3b3e713b01d53eU, 0xbc0bbc933d5c8900U,
  0x3d9e2a5a3d1fe78bU, 0xbbf02230bcc21dc9U, 0x3cdcee103cdccc37U, 0xbe49731fbd901f33U,
  0xbceb4276bdf4890eU, 0xbd6772b13dcc3664U, 0x3db7a8fdbda075b6U, 0x3d6a4cee3d3afd27U,
  0x3c03edca3dd4085bU, 0x3dac0caebcc45f9aU, 0x3d4880d53b8b89f1U, 0x3c194ea93d2f626aU,
  0x3dace3aa3d1a2d4fU, 0xbca684c3bce34cc2U, 0xbad93aaabc3c6496U, 0xbe402393bd9d6984U,
  0xbc2f56febdbae68eU, 0x3d3305953d0927d4U, 0x3c83e101bcab62f5U, 0x3d0b3fff3b9a3d63U,
  0x3c094d953d7330c6U, 0x3e07c0043def6b00U, 0x3e0a47cf3d170851U, 0x3cb8026fbd63033eU,
  0x3e0d0e1bbc8a7c14U, 0xbc2240fb3d39f1d4U, 0x3da1612b3e04d06dU, 0x3d36eebcbd15fa96U,
  0xbceab8cdbc4f4fb9U, 0x3c9d86303d6ddce5U, 0xbcfdd380bca11d87U, 0x3deb8c81bcc350f2U,
  0xbd764a8c3a802251U, 0x3e2a814b3d70a627U, 0x3dc482623cba5222U, 0x3d2fe9f8bda3f4f6U,
  0x3e314a9b3d2ed4bbU, 0xbcc006b13d074cc4U, 0x3d6c2bf53e2a0fdcU, 0x3bb44f1fbcf8a097U,
  0xbcd5fc4dbb03a659U, 0x3d9335cf3d1a8895U, 0xbd0c7dcdb9f0b58dU, 0x3d9738083d064e5cU,
  0xbc8996933b13d23cU, 0x3e2143903dcbd61aU, 0x3e00525b3dbead44U, 0x3d265371bdaa140bU,
  0x3e0d395d3c245d49U, 0x3b62d4ee3d3c2c2dU, 0x3d8e26133ddb724aU, 0x3cf7f8adbc5e9fafU,
  0xbd6b279f3d006878U, 0x3cd2c48a3d54c0a2U, 0xbd835a32bd62688aU, 0x3db48df63d7736a1U,
  0x3b4092ee3d2c5568U, 0x3ddea7473d732184U, 0x3e01285f3db5d75aU, 0x3d68fd1fbd6d3e10U,
  0x3dc9eed2bba64e27U, 0xbc0b03283d9f6c39U, 0x3cd189623df20b0cU, 0xbc94085d3cf46cadU,
  0xbd253811bc479ebcU, 0x3a229cb63d892650U, 0x3ca5371ebbe7069eU, 0x3dae92b73bd207f0U,
  0x3cc23e4c3c8345deU, 0x3dca95453d95c7c4U, 0x3d574ddf3d829259U, 0x3b2d289abdd9c7f2U,
  0x3db223e23b7fb093U, 0x3c87c4583d7a47c5U, 0x3d0424363cc39e67U, 0xb92bb2883ce09530U,
  0x3d0fe3073b3a21aeU, 0x3d7227dc3ca4cf47U, 0xbd2bf9e0bc4f1c61U, 0x3d3f5b313d26a165U,
  0xbcf5b4aebba9687fU, 0xbc07f25c3d78b0bdU, 0x3dae3f2d3c6280cfU, 0x3d3b3c6bbda4b2dcU,
  0x3d5d0cdebcbc04bcU, 0xbd74704b3d94e54eU, 0x3cbdba033d9da7d6U, 0xbc72c38dbd670f9bU,
  0x3de44388bc7238feU, 0x3d9560e8bb49a595U, 0xbd0772c7bce57bc4U, 0x3d688a8b3d157005U,
  0xbd4cededbd287e8eU, 0xbd04186d3d2b252fU, 0x3d9db3d5bce1384bU, 0x3ccf1bedbdf693feU,
  0x3db3182ebd356abbU, 0xbd13e0d23d4eb2eeU, 0x3d117a713db79943U, 0x3c667b53bd3a7cfeU,
  0x3e122c2ebc74dc97U, 0x3da6a05aba94cc67U, 0xbd2b6ccbbb2c0859U, 0x3d37071abcd312eeU,
  0xbc31349cbd15c279U, 0xbd00af433cd2d046U, 0x3daaa0573d1f7befU, 0x3d13ac52bd9ceb8cU,
  0x3c2914d43c5f07ffU, 0xbd8c678e3db800d0U, 0x3d1c4ccc3da0f4a7U, 0x3d4e19bf3bed66f0U,
  0x3dfa637ebd0c9d93U, 0x3df0a45d3ba73e5dU, 0xbc771ed6bc223f26U, 0x3d619c3cbbcaebb3U,
  0xbafed60e3b7c3ad8U, 0x3cdae6ad3ce468ecU, 0x3dda85ff3d2566f2U, 0x38ada129bdca8813U,
  0x3cf16e0a3d18048aU, 0xbd0cc3f23d96dfaeU, 0x3da618f23d4da08dU, 0x3a977a113c721521U,
  0x3ddaee9dbc9bc29eU, 0x3de0cc10bb241c92U, 0xbcd53c7bbd18d857U, 0x3d2e54cabb46e5c9U,
  0xbd03eec3bd30eccbU, 0x3bafebab3d36c4f5U, 0x3dc032963d5ff691U, 0xbc194ff4bd8f47d4U,
  0x3cb287af3d5f12deU, 0xbcd8fcbc3d992b8eU, 0x3d2aa3633d2bfe0eU, 0x3c6151f83d613813U,
  0x3bf55bf53d5b4bdeU, 0x3ced5e6abd212c1aU, 0xbdb0bf013e1b16b8U, 0xbc0a73aebd1ca66dU,
  0xbd420441bd2ea862U, 0xbd3becc23c7be4dfU, 0x3bd8c4c2bd8fdeb6U, 0xbcf9d30dbda403c6U,
  0x3cb16f14bd8acabeU, 0x3db1939c3cb8002bU, 0x3cee23b73b996b8bU, 0x3d8049693d867f21U,
  0x3d886ca13d8288e3U, 0x3c401411bcee2bc2U, 0xbdab929f3db8284aU, 0xbd0c0c13bd007c4bU,
  0xbd47e3cebd8ab112U, 0xbd3ab259bc0a9566U, 0xbc9b2b52bded7553U, 0xbb851fb4bdb4e5e0U,
  0xbb5b2759bdb36735U, 0x3dc974463cd6452cU, 0x3d1812fa3c9d81f9U, 0x3d4277783d32c875U,
  0xbc9df04e3cc4dac2U, 0xbc1178b3bd4fe4adU, 0xbdfdbf3d3e031fd7U, 0xbd1e8932bceb6d5bU,
  0xbcef17e0bdd64cfdU, 0xbdd9e451bc8e5928U, 0xbd61f07dbdb8008fU, 0xbc87f049bd8e091bU,
  0x3d5390bdbdb50186U, 0x3d9ecf0e3b0c5437U, 0xbb905f4ebd212e51U, 0x3d2069e53db55dcfU,
  0xbcd114a13d4964f0U, 0xbcbce21dbc071aa3U, 0xbe2904a23dea6e77U, 0xbcfbfb5a3affc073U,
  0xbb57f8e9bd48e1e4U, 0xbda9ea2a3cd699c1U, 0xbd42a682be1b12baU, 0x3be25537bd94acb1U,
  0x3b8213b2bdb1d17bU, 0x3dabf8843d1b5552U, 0x3c2ef1dc3d2234e8U, 0x3d00e8a93da9fce2U,
  0x3c91bfce3ce540fcU, 0xbd67ae8bbd07645dU, 0xbdd4a13f3d9bbdacU, 0xbcf17e713c5b1311U,
  0xbcae8e7abcdec718U, 0xbe0c50843cf31f79U, 0xbd34e0efbdf58a73U, 0x3bc48060bd98f137U,
  0xbc8c25a9bd8ff740U, 0x3e01ed803d2681cdU, 0x3cb3df9b3cb694a7U, 0x3d9e83be3dc56718U,
  0xbd2babb13ccb9a1aU, 0x3b539a653d405665U, 0xbcaae2b63d86a67dU, 0xbb6776bcbd571249U,
  0x3d296ee4bccaa649U, 0xbe56a2863d9e3fb8U, 0xbd816ed7bcd0d013U, 0xbd407419bc6f7bd1U,
  0xbe067950bd8a3c53U, 0x3d242756bd6fe8f6U, 0xbca010cb3da06063U, 0x3d4fbd853cf9ac9dU,
  0xbd9443733da36326U, 0xbcceb6bfbc9c8fbcU, 0xbd108e053dbd474cU, 0xbcee33d9bd29e670U,
  0x3d2e4eeebd755c79U, 0xbe84e09d3dd6bee3U, 0xbde7c4dcbdc1f02bU, 0xbd5b2dc93bcc5e26U,
  0xbe31af8bbd6fbc15U, 0x3d86fa06bca2f8f7U, 0xbd2d08ce3d9acd1dU, 0x3d93c5673d660409U,
  0xbdc455c73ceb1898U, 0xbd9699fdbac82175U, 0xbd0f74c03dc8b42dU, 0xbd88c055bd37e5c1U,
  0x3c97a2e8bd261d49U, 0xbe6ed7df3dbec79cU, 0xbdb90c89bd923e82U, 0xbd320fce3c109dadU,
  0xbe3f4cd4bd9911e2U, 0x3d8ef436bc7b9ac6U, 0xbd83b8d03db30be1U, 0x3dcedefa3c841dafU,
  0xbdf5df453d8d9ba4U, 0xbdab24183ca0b9f7U, 0xbc575ad33db6c30cU, 0xbcf6b979bd23edfeU,
  0x3d68d5ebbc8e39beU, 0xbe67944b3d5b7f04U, 0xbdb9ee52bd95a2cfU, 0xbd52c6073d5186f6U,
  0xbe56c661bc988384U, 0x3d9c7b57bccd608aU, 0xbd2d02433d578c8bU, 0x3da1d77c3c8b5a0cU,
  0xbd7054f4bc2f2a7aU, 0xbd64347b3d2676a2U, 0xbd3d7cb13d971273U, 0xbd1da9bfbd127048U,
  0x3d056c4e3d1e2dc2U, 0xbe3f985f3d9fa5a0U, 0xbdcf49cabccbbb86U, 0xbd25f9c13d76a4f6U,
  0xbe47de86bd984e04U, 0x3d85adc1bc5c9333U, 0xbd2b602d3d348496U, 0x3d1f51163cc7fbf4U,
  0xbdc0341e3d1de8d7U, 0xbe4991193d983eecU, 0xbb12bb5c3cd77a6dU, 0xbb3883883d4f305aU,
  0x3d8643183d22204eU, 0xbdbff6f93d213f45U, 0xbc302f47bd88f9d8U, 0xbc08ca273cb95300U,
  0xbdba30b83d04e417U, 0x3c48d9babc8e3d4dU, 0xba5811f9bb3131aaU, 0x3d863532bd42b908U,
  0xbd800eb23cf09da1U, 0xbe1bc7cd3d195effU, 0x3d40b71cbc22c4f6U, 0xbc1ae8f83bf90aa7U,
  0x3c8cf9a73d59731dU, 0xbe0755573d236103U, 0xbd85c562bc5dbb37U, 0xbc6d58ce3db4f1bcU,
  0xbe25b0d7bbcba192U, 0x3b6850f5bd2e5bb3U, 0xbd0250513bc1ac34U, 0x3d8d8debbca52c87U,
  0xbd3d63113ca585ebU, 0xbe0a40993d5ac55aU, 0x3d575c03bcfbd592U, 0x3d4dc9123cbffee6U,
  0x3d8c005e3cf571ccU, 0xbe2885023d28f444U, 0xbd12f18dbcdd9d01U, 0x3c4f95aa3d700acdU,
  0xbe3a4a28bbf0bf28U, 0x3cc555a1bd6ab01cU, 0x3be03ac83c274ea1U, 0xbcf5d293bd7163c3U,
  0xbc70e2bfbcf4c518U, 0xbd9416a53d9efea5U, 0x3dc1a465bd8c177fU, 0x3d7c56123ce7ce33U,
  0x3d82fca73d99ca53U, 0xbde362f7bc30f779U, 0xbd04a0b2bd3da4e9U, 0xbcdb14c53d57ffd3U,
  0xbe19be093be206c5U, 0xbd033fd0bd8c3012U, 0x3c8d74653c3aabeaU, 0xbd9699dcbdbb8c20U,
  0xbd13d1b93c4d131dU, 0xbcd9f18c3c9f0288U, 0x3d620e02bd4874e6U, 0x3dcdfd413d23d2f6U,
  0x3c7b34d23d10c65aU, 0xbd75b33a39a302e4U, 0x3d19ed7d3c9bd9edU, 0xbc6cf54f3ce67502U,
  0xbdf0616f3c595fc6U, 0xbd1d6dc53c914464U, 0x3d3b8dea3bb5af00U, 0xbc031a11bd9d7e00U,
  0x3d9ed1ba3cbfea9fU, 0xbdc6645dbd4fd15dU, 0xbc9dad07bb96da09U, 0xbdd31997bda6f372U,
  0xbc8d07733c2a17e7U, 0xbd46961d3d3a995bU, 0x3c555f9dbe5380ffU, 0xbd0e63d13b0f1bc3U,
  0x3d1c5564bd9b7019U, 0x3c675e1cbcf48a0eU, 0xbd88ceea3d020f9fU, 0xbd4e5f2bbda3db5eU,
  0x3dc1ffaabd981f33U, 0xbd7c4391bcba1f50U, 0xbc1a484cbb9049deU, 0xbd8e95aebda52e2dU,
  0xbd323eccbc8512a7U, 0xbda2c96a3d081079U, 0xbc371df0be0f2329U, 0xbd11f95bbc0693b7U,
  0xbab819a3bd9092adU, 0x3c36a21bbd2b74b2U, 0xbe1367e7ba5199a1U, 0xbd917edcbdb23d38U,
  0x3db1e5bbbca0f991U, 0xbd8e7f76bcc871b8U, 0xbcf1580cbc2e129cU, 0xbd97f45dbe0103faU,
  0xbd84c566b8887503U, 0xbd488f353b5a7d8bU, 0xbd343c57be5707daU, 0xbd6b357d3ce70e95U,
  0x3cca244c3bf37396U, 0x3c4787b7bd2b535fU, 0xbdd14477bcb919e0U, 0xbdcdb7dabd7bbf15U,
  0x3d9552e9bd9db1a1U, 0xba77163d3c8493ebU, 0x3cf869f9bd2281faU, 0xbd9065a1bdc6dd1eU,
  0xbd8341573cc1eaf5U, 0xbd260c923c4f07f2U, 0xbca0bac5be6649f2U, 0xbcea47223caf992cU,
  0x3d048271bc320ec6U, 0xbc57bafcbd94b16eU, 0xbdfc88f53c8fb679U, 0xbdd43d9ebdd1c2b0U,
  0x3e000c84be018421U, 0x3ca804393c250f77U, 0x3d809f75bd91dd62U, 0xbda38564be0f2d02U,
  0xbd9f5f543c7c1d8fU, 0xbd842e1c3c4ee4a6U, 0xbd11d00bbe230c0eU, 0xbc97e8ff3d84c504U,
  0x3c8bd7b13afba65dU, 0x3b7d0985bd37c9dfU, 0xbd877ea23c08497cU, 0xbd88adcebde854b9U,
  0xbce1ef9ebd884602U, 0xbd349a68bc481c56U, 0xbcb34b01bd3e3338U, 0xbd3ba0adbde79328U,
  0xbdcf95fbbd1d5f25U, 0xbda19735bc06ee6cU, 0xbc20cf8cbdbc3602U, 0xbd8e6791bcb45c83U,
  0xbba86909bd92fef1U, 0xbc02b1d9bd78b535U, 0xbd9041ff3c7ef7baU, 0x3c89d957be10dd3dU,
  0xbc1b1966bdda0b49U, 0xbcc9c5ecbc350aa6U, 0xbcd74c0dbd2761bbU, 0xbcad0319bda93eb2U,
  0xbda00491b9bd5604U, 0xbdccb3a33c58f680U, 0xbd808d90be01a6abU, 0xbda27c17bd29c779U,
  0x3ce8276fbd8128ddU, 0x3c0b0338be061d60U, 0xbe1d5f1c3c618279U, 0xbd6d414bbe1eb67dU,
  0x3d1859fbbd980482U, 0x3cd3c8ccbd2b18cfU, 0xbd518ecabd06264dU, 0xbd803d0abe0b3c10U,
  0xbdb78577bd1b8f1bU, 0xbd0d75f93c6308e5U, 0x3c0cb288bdcc9eb3U, 0xbd3574ccbcbcaddaU,
  0x3d4e72debd77be0aU, 0x3d066683be0e7fe5U, 0xbe2af6ce3cb68acfU, 0xbd9523f9be399f86U,
  0x3c1ded52bdce7921U, 0x3c4e66d7bd024bfdU, 0xbd261e07bda62eafU, 0xbd2380c2bdc86b54U,
  0xbde5784abd5991d9U, 0xbaa111153bf4868fU, 0xbce42e57be000d97U, 0xbd142f4abd8f1c5bU,
  0x3d857b93bdc513e8U, 0xbc91cda6be0a2a2fU, 0xbe3033723d19a925U, 0xbd9e3529be1db879U,
  0xbcc236d0be3de5afU, 0xbd2f992b3a409096U, 0xbc800012bc8eb315U, 0xbcb242efbda375c1U,
  0xbdb9face3c8954c9U, 0x3c42e95c3d3eecf9U, 0x3c80a35fbd85aa8dU, 0xbdbff69dbd64b700U,
  0x3d030509bdab73f6U, 0xbb7ccb41be003acbU, 0xbe004a7b3c397227U, 0xbcfc4dc3be0378ceU,
  0xbc838396bd989731U, 0x3d4c8a27bd3dbfa8U, 0xbc9f5af3bda7ccebU, 0x3cddc26fbc10a2c8U,
  0xbd3455493cf1e73fU, 0x3c1931e53d33e408U, 0x3db8d8f1bc49627bU, 0x3d4d4dc0bcb6f743U,
  0xbd1b2a8bbc8dec9aU, 0xbc477b033d5d3c4aU, 0x3c871b9c3c593d5dU, 0x3d011771bd5b76c0U,
  0x3d121090ba7ac74cU, 0x3de4b8d9bd4461a3U, 0xbd4146f9bdc60245U, 0x3d88e9703c3c2d39U,
  0x3c80d6583d1faa80U, 0x3d00da5f3d134963U, 0x3d697d1f3b823600U, 0x3dc95704bc5b56faU,
  0xbd4df8493c2a296dU, 0x3bbf0bd53c98e833U, 0xbd5139d4bc369634U, 0x3d8439b9bd57b4f8U,
  0x3d64e8ecbcb295faU, 0x3dbee0483c100f3cU, 0xbca534c4bd268e00U, 0x3bc60979398950c3U,
  0xbc81d69c3d499578U, 0x3c58e26e3c4a74b3U, 0x3dceb0b2bd02c36fU, 0x3d981af7bd0c94c6U,
  0xbd02f9ff3c8d804bU, 0xbca601023d15d322U, 0xbd02facabc830e1eU, 0x3d6902afbda20d7cU,
  0x3da42ad03aee2e2cU, 0x3d9b6166bc628bf3U, 0xbc382c21bd199d3bU, 0x3a4d7b8fbce086a3U,
  0xbcb11c483d3f9232U, 0x3d9998f03d14cd27U, 0x3d7b2be7bd02cef2U, 0x3d1b7ce6bc7f6419U,
  0xbd844e193d4d61a6U, 0xb9b88bb73da70efaU, 0xbc9bac6bbba276c0U, 0xbbc9dba0bd84c846U,
  0x3d6b2c36bb7762ccU, 0x3dcbb802bd265ebeU, 0xb99f19e4bcf43b69U, 0x3c5b8044bc04005aU,
  0x3c5ded283d443f1bU, 0x3d94ade73c4b80c7U, 0x3d7476d6bd954413U, 0x3d3810373cc6e2dbU,
  0xbd8928023d3bd05eU, 0xbbe4d1853d917bf6U, 0xbc9272bf3d0bccd9U, 0xbbf2f3e5bdb78c60U,
  0x3d86174c3cab9735U, 0xbc4f1dadbd8e2d79U, 0xbd88cb1fbe2128b7U, 0xbc1c20413d79319cU,
  0x3d7d41ac3d66b841U, 0x3db30404bd690839U, 0x3db3936ebdc4776cU, 0x3dd136203d67cb19U,
  0x3db641b63d398ce6U, 0xbb674d7c3d9a3319U, 0x3ccecf8ebcac0a80U, 0xbb933d343bea5b9cU,
  0x3d584b77bc95a168U, 0x3d3b71f1bd58befdU, 0x3bd8517bbe29783bU, 0x3c93ebb73d60586fU,
  0x3d8588443d9a5195U, 0x3d6efd27bd19508aU, 0x3dccf717bd8666d5U, 0x3dcf281d3d0b1679U,
  0x3d9046e73da5d8bcU, 0xbcd929483d2d9ad7U, 0x3d1ec7f0bbb10498U, 0xbd1f35ed3d2a14d3U,
  0x3de4376e3bbd1aa8U, 0x3c1900debc5a4586U, 0x3c5ddb73be4f5122U, 0x3d1ebb023d55dd36U,
  0x3d7235cc3d803d0aU, 0x3dbacceabcd3f003U, 0x3dddeb9dbd89224fU, 0x3dfa917e3d482663U,
  0x3d52321c3d7a1512U, 0xbc81dc693da518d3U, 0x3c7af2013b9012abU, 0xbc94752c3d1be15eU,
  0x3d6553603a8c1387U, 0x3d482ce8bd3b6212U, 0xbd1978f8be57394aU, 0xbb8e7e3b3d89ee76U,
  0x3d997b233d7779a9U, 0x3d111ac0bdb754f0U, 0x3d43ef82bd523af5U, 0x3de7b1873d1a1d66U,
  0x3daaa1ff3d83b344U, 0x3c08a06f3d4d5486U, 0xbbb784cfbcf433f8U, 0x3ce8c0c53ca1514aU,
  0x3d1e1c1e3cf224a1U, 0x3d574a9abd8b8f43U, 0xbd60f678be278b06U, 0x3ca87f5d3ccba2b4U,
  0x3d8aae2f3c0259e6U, 0x3cc97522bd996b84U, 0x3d857222bd37a669U, 0x3de2bb283c804e63U,
  0x3cd76e653d2dd44cU, 0xbc0194613caca28eU, 0xba813836ba862f3cU, 0x3d028c413c88338dU,
  0x3d0ccfd13d3b28f2U, 0x3c8f53ee3b1d801eU, 0xbbc193a2bd3a3fe0U, 0xbd256aa6bc91cec5U,
  0x3cac64af3cdd2275U, 0x3dba133abc551963U, 0x3d4f4fbabd183861U, 0x3d3bed5a3ce70b35U,
  0x3dad423d3d982a7cU, 0xbc8169273daae1a6U, 0x3d55168e3d085593U, 0xbd31d4d0bc3a73e9U,
  0x3cef1b503d1ccc0eU, 0x3d61f638bcde576bU, 0x3c857a50bd48d84aU, 0xbd8223cabca16e74U,
  0x3c3e4dd53da5e0eaU, 0x3df59b8e3ce54bdcU, 0x3d8e578e3bbacb7cU, 0x3d8bdde0bba3fc51U,
  0x3d9a26403d10b195U, 0x3c9a7e153d603815U, 0x3d82ac0d3cb785a7U, 0xbcf341b4bbcdf4b1U,
  0x3d3b08623d4a70e8U, 0xbd2af374bcf4ef53U, 0xbd5cc304bd4ad9a2U, 0xbdb777ec3bcd6a6fU,
  0x3ccb97353d4819d0U, 0x3d9e4d683ccd47f2U, 0x3cccda6dbd4fda03U, 0x3d08bac4bccf200fU,
  0x3db6f7e73c424ea2U, 0x3d3a6ef23da887baU, 0x3d32151c3d4ff3c4U, 0xbd55ed95bc8cbae2U,
  0xbcb9912b3c4edfcaU, 0xbd9d9ca0bc9e8168U, 0xbdb3c0013d019febU, 0xbdc657c4bc1ed37eU,
  0x3d0d1f443d8643a3U, 0x3dae0aca3ce5c0b1U, 0x3c718ed5bdc37f7cU, 0xbb9d4bcbbcd6380fU,
  0x3db465e43c6f4236U, 0x3d822ea73d7ea1e4U, 0x3d52224f3ca1fcceU, 0xbd28f477bd0db4d6U,
  0x3c9d3edd3c84c5d6U, 0xbd8788b5bc38c2f9U, 0xbd79674c3d049d26U, 0xbdb58092bd0c45d7U,
  0x3cc03c613d2687e8U, 0x3d9844203d0ebfb5U, 0xbc7bdfd1bdd153a6U, 0x3cbbcc2c3c02d1b2U,
  0x3d8fb9003c02d9abU, 0x3d719f1b3d73b810U, 0x3cab7c963d5048d4U, 0xbd310cf7bccef909U,
  0x3e05df353c185891U, 0x3da4d720bd30b005U, 0xbc3e3e01bbb868f5U, 0xbc059f783c8f1e12U,
  0xbba2d9223da2b808U, 0x3c56388d3cd66ff2U, 0x3caff984bd1555ecU, 0x3d80658d3d1c9120U,
  0x3c8be17b3d5eb620U, 0x3c45e47f3d77599fU, 0x3c9767f3bd5648deU, 0xbac8ff30bcf917f8U,
  0x3dd8c5593be5a462U, 0x3dfbbf1abca02c4dU, 0x3cab9ae73cb687fcU, 0x3ce8fcb3bd86dc2eU,
  0x3caf7df53c67cd1aU, 0x3d011cae3cf014d6U, 0x3da161f4bd126932U, 0x3d9c29d03da60c12U,
  0x3cd9b1fc3cfb0bdbU, 0x3ce578783dae3a41U, 0x3d084b9e3c72fafeU, 0x3da5dc76bcc3845eU,
  0x3ddd99a93d9681a1U, 0x3daee82dbcfe09a5U, 0xbbecc2263c0cfa49U, 0x3c94e2b5bcff571eU,
  0x3d1ce5503cc483f3U, 0xbc6df4463cd39a7dU, 0x3d66e2e6bcdd60e8U, 0x3d904b7c3d03db91U,
  0xbc5623413cb8763aU, 0xbba793f43d71c752U, 0xbc4d08cc3cbc53e0U, 0x3d67cb57bc76da5fU,
  0x3db619953d1c2fccU, 0x3de8bab2ba7a1a12U, 0x3cd6f5e33c4d9484U, 0x3cd03393bd08fe9eU,
  0x3cc907a63d3cbd9cU, 0xbc88c3963d58b9b9U, 0x3cdfb03dbc411357U, 0x3d0becb93d57795aU,
  0x3c104cab3b52a87dU, 0x3b8456f93dd915e3U, 0x3cd56eeabba98b43U, 0x3d75a408bd3c50a9U,
  0x3df1610a3d43088cU, 0x3da48f9d3bb3eb2fU, 0xbd18bae53ccdc05cU, 0xbd0520dcbca3205cU,
  0x3ccb4b923d6ed4a4U, 0xbd4074d83b77e1a2U, 0x3c55ff11bd2b48c9U, 0x3dabb6573c6715cbU,
  0x3d79053d3c98625bU, 0xbc8031073daeee7dU, 0x3cee62063c51564eU, 0x3da941b1bc0462e7U,
  0xbd6f51613d990c6dU, 0xbd5a8fa9bc526774U, 0xbc5ed1383d252f5eU, 0xbdfe6a01bd9b2418U,
  0x3d5262b13d9466b7U, 0x3aaa37cf3d2334d8U, 0x3c27437fbce313bdU, 0xbb6db7a6396c7fd6U,
  0x3c6746e73cc112f6U, 0x3d34bd703c89f9baU, 0xbcb8c7b4bca3c51fU, 0x3dc8eb633cdf527fU,
  0xbd68b1aabe203e01U, 0xbdb0bbab3cf761d2U, 0x3a75fb753dc5dd9cU, 0xbdd6b968bd51cba9U,
  0x3d853a613d99e351U, 0xbc783ea63cf5a5c7U, 0xbd6d45e4bdb9213fU, 0xbb9b3b6f3d3d6ff6U,
  0x3d2f522c3b797f98U, 0x3d7b073f3cd1454bU, 0xbb39285fbd89911bU, 0x3d538ef63cf4b2baU,
  0xbd12c091be0ae86cU, 0xbcf21ed9bcca6ce0U, 0xbd45cf983d8f847bU, 0xbdb012fcbda5ea98U,
  0x3d3d5cb33d82d877U, 0xbc82b42a3d71b05dU, 0xbc80a26dbd8bce20U, 0x3cff04f63c327329U,
  0xbb90c5ec3b9a1cf3U, 0x3dc330963d178d3eU, 0xbd64a802bd368552U, 0x3d7d45a03d0c9bffU,
  0xbd7d00afbe1171f0U, 0xbd01d5aebc18e7fdU, 0xbd323e2b3d4ff2beU, 0xbddc426cbd943a09U,
  0x3d61e8163c9ed564U, 0xbd32ac3d3d2ed305U, 0xbbc3baefbc258e44U, 0x3c25bca93ae80e6cU,
  0x3bc977d9bc2ce8e3U, 0x3d8c6fef3d168863U, 0x3c799e77bcc156adU, 0x3db08d9d3d141f7cU,
  0xbd290011bd7dbdaaU, 0xbd98e6c7bc91e990U, 0xbd7972963d1a7f27U, 0xbd27c8a1bd9f5cdbU,
  0x3d1da5403d961a55U, 0xbcf49ca6ba9b2220U, 0xbc67c1f2bcb7c511U, 0x3da6494e3c6be57dU,
  0xbd341aafbc05d63aU, 0x3cfa40c73d7a6e32U, 0xbc9b17bebc750f53U, 0x3da567573d929b53U,
  0x3d93860abd59242bU, 0x3df2cda83c525aaeU, 0x3d161ee5bc20cda1U, 0xbd459d54bd155492U,
  0xbc1c13a63bcf9a67U, 0xbd4f8ebbbc84c125U, 0xbc879c0a3da6c074U, 0xbc55e9083c8a6c07U,
  0xbd085d1abd10819dU, 0xbd74e81a3cf28ea7U, 0xbc073ae3bd85a52dU, 0x3c19703bbd619530U,
  0x3d6c4d453c0b3c4bU, 0x3dfddd31bc1f8fe1U, 0x3d63ec5e3c363a40U, 0xbb10b9efbdb17135U,
  0x3c434b4c3d298cd5U, 0xbd581da13b42632cU, 0xbc8c4dcb3d22c57cU, 0x3ac3b9d23ccd5845U,
  0xbdaf7050bcedba01U, 0xbd66ace03bcad366U, 0xbc2230b6bda982c5U, 0x3cb461c2bcf49ec2U,
  0x3dd9b06a3978549cU, 0x3e06f8faba1c1e8dU, 0x3dbb4a8ebc0d06d7U, 0x3c33e8c9bd8e715fU,
  0xb9b42ee63d5a7e40U, 0xbdb7d2693b3a95e5U, 0xbd3f327a3df50a5aU, 0xbcf149d9bbe033e3U,
  0xbdb090a9bc9310e9U, 0xbdf30df2bd020e11U, 0x3bce72c9bdc4a41fU, 0x3d49a9c0bcd07e46U,
  0x3da32fd93cb426f1U, 0x3dbe35283c211c70U, 0x3da3763f3c1bece6U, 0x3c16a819bde299adU,
  0x3ce2bae03d44f1ccU, 0xbd6519e2bccdaf3fU, 0xbcee219a3e269238U, 0xbcbee592bc25511cU,
  0xbdd307a5bd11ff3dU, 0xbddb442dbc18d3ffU, 0x3d105167bddc1b84U, 0x3dab8918bd34bf86U,
  0x3d4c28c53c802abcU, 0x3d9718d63d05d65bU, 0x3d9462f63c57dd04U, 0xbca6e2d3bdd68999U,
  0x3d02f17e3d3ae201U, 0xbd38c3a6bcba29d2U, 0x3bad59df3e17b5e2U, 0xbccc7439bd3b9627U,
  0xbd7a915cbcb3b3efU, 0xbdcfbf1dbc046312U, 0x3cc88ea2bddf1029U, 0x3d9e72fbbcf24b2cU,
  0x3d2180cf3b7b8083U, 0x3db996403d271295U, 0x3d8096203bcf87d8U, 0xbcb2fb90bdcb4bb8U,
  0xbc1589523d005dc0U, 0x3cd2b6e43d1daf2fU, 0x3c930ab33e582bf7U, 0xbdb96aa0bb88a23aU,
  0xbd62df76bd40e706U, 0xbe0b01d53c7b29d7U, 0x3d132a52bd9f67e7U, 0xbb254370bd7a9ce3U,
  0x3d54bbf73ca57db4U, 0x3dc823503bac46afU, 0x3dfb579f3d0496d0U, 0x3c2a98f7bdbd59d8U,
  0xbc85262cbc4f80f7U, 0x3c24e5043d4b781aU, 0xbab6580b3e106d67U, 0xbd73499fbc94eb5eU,
  0xbca28f3bbca08e1fU, 0xbe0092483d179975U, 0x3d15643cbd252bb8U, 0x3c941684bd88827bU,
  0x3d8b407e3cbdbe98U, 0x3d9e43ed3cf75651U, 0x3dc277413d716c92U, 0x3cf19d3fbe14fa15U,
  0xbc74ca0d3d0cd179U, 0x3bb1fa223d58fd4aU, 0x3c8fd9c93e0f3ad3U, 0xbd421a52bc37bf41U,
  0xbd58f068bd8d169eU, 0xbde1481e3d0eb970U, 0x3dbf7fffbc919e65U, 0x3d12710bbdc54727U,
  0x3daa80163c90f48cU, 0x3db9e0863caf2243U, 0x3dc6a4743d92af6bU, 0xbbfbe868bde8c876U,
  0xbc6f38743b46cc7cU, 0xb9a981863d0892aeU, 0xbc1568903e29f92cU, 0xbd63e2bd3d01fe89U,
  0xbd6ceb26bdc58851U, 0xbdfc65a33d1b67a9U, 0x3d97126a3ad11740U, 0x3d698986bda57132U,
  0x3dce69a03c1c30ffU, 0x3decd7b83c90bcefU, 0x3d678d3e3d1a9aa1U, 0x3c18dea0be38a7f2U,
  0xbced77bcbcda19cbU, 0xbbf0bacb3d1d55b5U, 0x3b3932893e13695dU, 0xbd4f95ba3b377c59U,
  0xbd765a02bd92369cU, 0xbdcce686bba696c9U, 0x3cc1ce40bd30bb7fU, 0x3d89fca3bd54b94cU,
  0x3dbb9a8a3cde7ec7U, 0x3de5d49ebc5d7566U, 0xbd3a24d13cba77e5U, 0x3d4e2f94bdf6da4aU,
  0xbd7c667dbdc5aac5U, 0xbd3646cf3d03806eU, 0x3cdb4ca63c67379cU, 0xbd23d934bd7cc4d1U,
  0xbd4129d7be076d1fU, 0x3bf1f280bcdc50eaU, 0xbd1dc0e6bc37127dU, 0x3d90b513bc8d7642U,
  0x3dd7e02fbd05eb23U, 0x3e0696253c138a01U, 0x3d2596fc3d31535fU, 0x3d5c75a0be523a8fU,
  0xbd9710a6bcf67812U, 0xbd8adcab3d5a6e4dU, 0x3c389c233d82fe58U, 0xbd24e222bce36c56U,
  0xbd98859ebe3d3eb1U, 0xbcf3fcb5bb896270U, 0xbb2e890cbd092571U, 0x3db35ef03c958fffU,
  0x3dc88097bdb6fab0U, 0x3e2671793c788674U, 0x3d0988863d596bd3U, 0x3d9a7865be37c8d7U,
  0xbd67741fbc3ee6d6U, 0xbccc416e3db2499dU, 0x3d1a84ac3db91a78U, 0xbd3bf8b8bce2cb80U,
  0xbd3eb2a8be31ea76U, 0x3d06e6443ce14a57U, 0xbc4ed8eabcbc2d1fU, 0x3dca5746bce75de7U,
  0x3de30995bd1f0005U, 0x3e05aaf13c718983U, 0x3d84459b3e0256d8U, 0x3c1aa414be8e123bU,
  0xbd3f1269bda2326aU, 0xbd4028623daf9aedU, 0x3c9ef5c63daa949cU, 0xbd8a0f8abd61f360U,
  0xbc9f18b5be275cf2U, 0x3cb419003c50a829U, 0xbd49a77cbcd46e15U, 0x3e1f15a53b011847U,
  0x3dbadbc2bcb28928U, 0x3df5843a3cd5e5e5U, 0xbbdaa67d3dc17043U, 0xbb5064d4be8079a6U,
  0xbdc3d576bcf6481aU, 0xbdbddcdd3d80e3f3U, 0xbc44214e3d874108U, 0xbd7022a6bc96fbddU,
  0xbc6add92be0fb5ddU, 0x3cbeff18bbba80c0U, 0xbd9e1c153d3153bcU, 0x3dae4e1a3d1871e4U,
  0xbd0fe479U,
};


ai_buffer g_model_data_map_activations[AI_MODEL_DATA_ACTIVATIONS_COUNT] = {
  AI_BUFFER_INIT(AI_FLAG_NONE,  AI_BUFFER_FORMAT_U8,
    AI_BUFFER_SHAPE_INIT(AI_SHAPE_BCWH, 4, 1, 12624, 1, 1),
    12624, NULL, NULL),    /* heap_overlay_pool */
  };
ai_buffer g_model_data_map_weights[AI_MODEL_DATA_WEIGHTS_COUNT] = {
  AI_BUFFER_INIT(AI_FLAG_NONE,  AI_BUFFER_FORMAT_U8,
    AI_BUFFER_SHAPE_INIT(AI_SHAPE_BCWH, 4, 1, 25124, 1, 1),
    25124, NULL, s_model_model_weights_array_u64),   /* model_weights_array */
  };


/*!
 * @brief Get network activations buffer initialized struct.
 * @ingroup model_data
 * @param[in] ptr a pointer to the activations array storage area
 * @return an ai_buffer initialized struct
 */
AI_DEPRECATED
AI_API_ENTRY
ai_buffer ai_model_data_activations_buffer_get(const ai_handle ptr)
{
  ai_buffer buf = AI_BUFFER_INIT(
    AI_FLAG_NONE, AI_BUFFER_FORMAT_U8,
    AI_BUFFER_SHAPE_INIT(AI_SHAPE_BCWH, 4, 1, AI_MODEL_DATA_ACTIVATIONS_SIZE, 1, AI_MODEL_DATA_ACTIVATIONS_COUNT),
    AI_MODEL_DATA_ACTIVATIONS_SIZE,
    NULL, ptr);
  return buf;
}

/*!
 * @brief Get network weights buffer initialized struct.
 * @ingroup model_data
 * @param[in] ptr a pointer to the weights array storage area
 * @return an ai_buffer initialized struct
 */
AI_DEPRECATED
AI_API_ENTRY
ai_buffer ai_model_data_weights_buffer_get(const ai_handle ptr)
{
  ai_buffer buf = AI_BUFFER_INIT(
    AI_FLAG_NONE, AI_BUFFER_FORMAT_U8|AI_BUFFER_FMT_FLAG_CONST,
    AI_BUFFER_SHAPE_INIT(AI_SHAPE_BCWH, 4, 1, AI_MODEL_DATA_WEIGHTS_SIZE, 1, AI_MODEL_DATA_WEIGHTS_COUNT),
    AI_MODEL_DATA_WEIGHTS_SIZE,
    NULL, ptr);
  return buf;
}


/*!
 * @brief Get network weights array pointer as a handle ptr.
 * @ingroup model_data
 * @return a ai_handle pointer to the weights array
 */
AI_DEPRECATED
AI_API_ENTRY
ai_handle ai_model_data_weights_get(void)
{
  static const ai_u8* const s_model_weights_table[1 + 2] = {
    AI_PTR(AI_MAGIC_MARKER),
    AI_PTR(s_model_model_weights_array_u64),
    AI_PTR(AI_MAGIC_MARKER)
  };

  return AI_HANDLE_PTR(s_model_weights_table);

}


/*!
 * @brief Get network params configuration data structure.
 * @ingroup model_data
 * @return true if a valid configuration is present, false otherwise
 */
AI_API_ENTRY
ai_bool ai_model_data_params_get(ai_network_params* params)
{
  if (!params) return false;
  
  const ai_buffer_array map_activations = 
    AI_BUFFER_ARRAY_OBJ_INIT(AI_FLAG_NONE, AI_MODEL_DATA_ACTIVATIONS_COUNT, g_model_data_map_activations);
  
  const ai_buffer_array map_weights = 
    AI_BUFFER_ARRAY_OBJ_INIT(AI_FLAG_NONE, AI_MODEL_DATA_WEIGHTS_COUNT, g_model_data_map_weights);

  return ai_platform_bind_network_params(params, &map_weights, &map_activations);
}


AI_API_DECLARE_END
