
/**
  ******************************************************************************
  * @file    model_data.c
  * @author  AST Embedded Analytics Research Platform
  * @date    Fri Jan 13 14:25:59 2023
  * @brief   AI Tool Automatic Code Generator for Embedded NN computing
  ******************************************************************************
  * @attention
  *
  * Copyright (c) 2021 STMicroelectronics.
  * All rights reserved.
  *
  * This software is licensed under terms that can be found in the LICENSE file
  * in the root directory of this software component.
  * If no LICENSE file comes with this software, it is provided AS-IS.
  ******************************************************************************
  */
#include "model_data.h"
#include "ai_platform_interface.h"

AI_API_DECLARE_BEGIN

AI_ALIGNED(32)
const ai_u64 s_model_model_weights_array_u64[ 4051 ] = {
  0x3e906423bf1df4c1U, 0xbeed85203f8a0913U, 0xbf23e3abbf284725U, 0x3e45833dbf31d44cU,
  0x3f9fac24bf7f1800U, 0x3e7e05c13e845611U, 0xbd82cb7b3f4b1a0bU, 0xbf83651e3f04a327U,
  0x3f2609563e53a5f1U, 0x3ec63814be4afb21U, 0x3f4fc5eebee4b0f5U, 0xbf19bfeebe4925b2U,
  0x3df84ed23e88369eU, 0x3f15d01fbfa25363U, 0xbea95e33bd173527U, 0x3e6368dcbecfef53U,
  0xbf36d9883dad20d6U, 0xbf1e20b53eb6f41fU, 0xbf0b12fd3ef007beU, 0xbe840f8fbed3afb1U,
  0xbdd74289bdfac88bU, 0x3ea78b20bf557c1aU, 0xbf42b4f1bf55b38eU, 0x3f5bf4fe3f603acdU,
  0xbf273df13c738b16U, 0xbf294b7bbec86966U, 0xbf383bf5bf8e2f2eU, 0xbe86d384be39e31fU,
  0xbf1e0ed2beba1bf0U, 0x3ed4d18cbf7b589cU, 0xbeaaa2153f5b24fbU, 0x3f6c0f133ea1836aU,
  0xbf75ce4bbf70f60eU, 0xbf0bdc563ec7fb98U, 0xbf2575653f039892U, 0x3f00f2fdbf251e69U,
  0x3f6302d4bf3b6ee8U, 0x3f3681933f1e231dU, 0x3e9bc77d3a8fecc3U, 0x3eccd0a83f83470fU,
  0x3ebce3d3bf1847c8U, 0x3ec532363e8e5db2U, 0x3f4f22ffbf812aaeU, 0xbe8fc84abf4eb68dU,
  0xbe0c1e31be9814caU, 0xbe6e5140be8c372fU, 0xbe7783313b95002aU, 0x3f6aaeeb3def6295U,
  0xbf55256a3f78dc6aU, 0xbf39440a3ef3fb70U, 0x3f0fe8b23f4ac19bU, 0xbf2ec79b3f8660f4U,
  0xbe450dc7bf125b3fU, 0xbe9c349b3c91f666U, 0x3edbf17b3ed802ebU, 0x3f1b32a63f28ed4fU,
  0xbf83dc16beaf9a7dU, 0x3d29fddd3ef27705U, 0xbe7bc4513f7a1d36U, 0xbef0b7b2bf118002U,
  0x3f3284b7be90d73fU, 0xbf24f981bf6a6c4bU, 0x3ef87fc9bf38c4adU, 0x3e856ea1bc075cb9U,
  0x3e1df615bf7dbb56U, 0x3e57e73dbf516a83U, 0xbf03e85f3ead4b2cU, 0xbe3f5e663ed7a3a8U,
  0xbead5d5ebdd005a2U, 0xbee90738bf1393f2U, 0x3f2e8f2b3eb6487fU, 0xbedeabfdbe2913abU,
  0xbf4e2eac3f4fd0feU, 0xbf3951613f5d1d53U, 0xbea79b163de382e7U, 0x3f2801d0bf745f6aU,
  0x3e87d5cf3df437dbU, 0xbf36ad753ee226f3U, 0xbdc3b0adbe8c449eU, 0x3ee70dfa3f654893U,
  0xbf05491a3e940b55U, 0x3e58b63dbe98ab35U, 0xbb39268f3f3eadc2U, 0x3ee9e8fc3f0d08e7U,
  0xbe9b8da03f046bf0U, 0x3f2f070a3e60f47dU, 0x3f018bbd3f325e42U, 0xbee1ca4bbe8dc75bU,
  0x3f067470be5c2009U, 0x3efef92e3ecc6c9dU, 0xbe8d8e84bf0ec8c9U, 0x3ec9e45bbe50dc31U,
  0x3f3bf8f6bea7cfedU, 0xbef0369fbf297dd9U, 0x3eeec9fcbec4c227U, 0xbe93322e3dbbe6c7U,
  0x3ef2627d3d8d27ccU, 0x3df2d58e3ed1f5acU, 0x3e77acee3e8265f6U, 0x3e1e5c233f14916fU,
  0xbe6f46163eb6cbf2U, 0xbf158d393e434749U, 0xbf33412a3e96afa2U, 0x3ecd8a8dbe9e3a31U,
  0xbe9c518fbe9249ceU, 0xbf033544bec2c1e4U, 0x3ec9a774bf1bcc72U, 0xbe2d73a13e9e6b57U,
  0xbe6fe4ca3f4f43a7U, 0xbf4c0272bc4f13d5U, 0x3f411261be2651b0U, 0xbf83f4c7bf45bb1aU,
  0x3e0384f03f5a504bU, 0xbf7465213c022066U, 0xbf7039153f725722U, 0xbf47631a3eb4439dU,
  0xbe95d3613f589eacU, 0x3f505d1f3e53d051U, 0xbf41af473f931abfU, 0x3f8c9b5dbf5f5868U,
  0x3f871be33ecae0efU, 0xbe100a90bf42636fU, 0xbf72736b3e4ef313U, 0xbed5e074be737732U,
  0x3c7c4ea03e048e2aU, 0x3e4663d5bf63f160U, 0xbf0218643ea60829U, 0x3ec819c5be59cc6eU,
  0xbea71ce23effb997U, 0x3ed5ccae3f3fb8fcU, 0xbe565db53ed52d59U, 0xbf858513bf232e6eU,
  0xbf1076d73f74f11dU, 0x3c3147acbf9efd60U, 0x3f896942bf3f8f9aU, 0x3e2b39de3ebfa91aU,
  0x3dc3bed3bc92e720U, 0x3eb3a5fc3e00a815U, 0xbe3d7d7dbf393074U, 0xbf2be8eb3e1d69e9U,
  0x3e823ffdbde9ba1aU, 0x3ec82bc93ebb60aeU, 0xbeeb9a3dbe72dddcU, 0x3f15f9513e828429U,
  0xbf1f19ff3f30affcU, 0xbf0378c8be95d5dcU, 0x3f051fb93e8e1e4cU, 0x3f3c4d4bbe796dd3U,
  0xbf30f5523d223133U, 0x3ec129e7be8309b4U, 0xbdef2d353f2730e5U, 0xbe4dbc8dbeeff3dbU,
  0x3f2ac9c6be83828dU, 0xbefa96983eb0f73aU, 0xbef512ecbf3ab9c9U, 0xbd0f64663f3b4d92U,
  0x3f0945683e96afaeU, 0x3f0836513e644168U, 0xbed4a859be9fe17cU, 0x3e76f7d53e9da7adU,
  0xbe3de2e73ed39ed0U, 0xbe1374743cd79487U, 0x38e455913f0e47cdU, 0xbd4c7e67be34896dU,
  0xbf76ca8dbf773911U, 0x3e9577adbf495decU, 0xbe28c501beb76873U, 0x3f97675a3ddb05deU,
  0x3e96da593ef914ceU, 0xbe3e453f3f67e7ccU, 0x3d61fd41bf1b96feU, 0x3f647d123c5d1e16U,
  0xbf771efbbebe98b4U, 0xbf43807dbf83c728U, 0x3e80f700bf97b21aU, 0xbef7dacebf4d0142U,
  0x3faa8487be550596U, 0xbf82c9bcbf615e12U, 0x3f6c1292be78b3c5U, 0x3f37d74e3f9f06c7U,
  0xbf767e3bbebc8f4fU, 0x3f570343be93e071U, 0x3f8df964bd5f85c3U, 0x3ea29196bf8e40efU,
  0x3f47ff15bf42307cU, 0x3f0a547d3eadf04fU, 0xbec99541bf03f469U, 0xbf8c7fdc3e4a7036U,
  0xbf6f1226becba67fU, 0xbe75de713eaaf766U, 0x3f6ceef6bf1b99b2U, 0xbf52204c3e814380U,
  0xbf591c263f180e3cU, 0xbf6605d1bcc5593cU, 0xbf4a05aebf21fd6eU, 0x3f3a44f9bf1ed773U,
  0xbe3ad526bf3bc7c7U, 0x3d3b3d4fbf09e7a7U, 0xbf033573bf46fe04U, 0xbe9a81013f216ee7U,
  0xbf67d06e3f2a34acU, 0xbf51f63c3e4f9b32U, 0xbf04bda33f29498bU, 0xbda8918ebf0f4343U,
  0x3e81669a3f27fea6U, 0x3dc7ba143f44d5b8U, 0xbe9522443e052124U, 0xbe56d0333f524700U,
  0xbf28a17fbf429d86U, 0x3ebb15873e3ba3d2U, 0x3f3a757cbf134740U, 0xbe34c2d53f1f6822U,
  0xbf458776be4732beU, 0x3f09a4f7beaf1b15U, 0x3f5ea474bf120cc6U, 0x3da697cd3f650e84U,
  0x3e13471b3ee98332U, 0x3ddd730c3f31c66bU, 0x3e0da247becc501dU, 0x3ee0d148bede1d45U,
  0x3f4b5a48bded13afU, 0xbf22beff3d637224U, 0xbe964ab23e94e620U, 0x3f2c5d5cbe0bea70U,
  0xbf1c60c7bf04c3daU, 0x3f299a4a3f24f0f4U, 0x3ea0014bbee20d1dU, 0x3eb4ff223f33a258U,
  0x3eeb7ac53f3063caU, 0x3f098e9ebf252077U, 0x3cd6fc22bf138efbU, 0x3f366dc13f369c9eU,
  0x3f0f950fbef8a217U, 0x3e20e6eabdeb3836U, 0x3ee932c43cd3bcd4U, 0x3ecba5a63ddaf025U,
  0x3ee8228dbe8f08dcU, 0xbf21dcd8be8f950dU, 0xbf26e9c13f08f290U, 0xbeb0aea6bdb2ee94U,
  0xbef572f7bee0570bU, 0x3eee2068bda82835U, 0x3b9785913eb42e79U, 0x3f41afb43f3d9205U,
  0xbe69beb1bf23d831U, 0x3f4a6ab1bd2c6dedU, 0x3ee9d066bf07b4bcU, 0x3f2e8ff73e95dc07U,
  0x3f15ee88bec926a5U, 0x3f04ec293cd21a24U, 0xbf12ec58be1be3b5U, 0xbed706a1bf3ce14dU,
  0x3d88e93ebf098e84U, 0xbf161d52bf1a260eU, 0xbefa3bd73ec59399U, 0x3f3276f3bea11ea7U,
  0xbeeece43bf10ef49U, 0x3e945641be18d59bU, 0xbd9dce3abf37b7f4U, 0x3ebea9debf0f7cb7U,
  0x3f1016c7be2873cfU, 0x3e55b425beb0221bU, 0xbe155fdfbecaef48U, 0x3e3c2073beab2991U,
  0x3e2a7417beb978ceU, 0x3e54e025be6973edU, 0xbf35bd07be1a93ffU, 0xbe3910ae3ed0ba7bU,
  0x3d13fdcbbdcc489aU, 0xbf337b02bf02642fU, 0xbe3ea9313f3df1d6U, 0x3f29aea8bf688f09U,
  0xbed6ba44bed58eebU, 0x3f4448fb3d9d6a21U, 0xbf37aa3abea0e4f2U, 0x3ec1ab25bd805970U,
  0x3f41a6c73f4fedc4U, 0x3d5caad5bed35380U, 0xbf7287d63e9bd460U, 0xbefdff0bbf009112U,
  0xbeb1ba463de6aed8U, 0xbf39f52e3e2ec8a0U, 0xbf092aa6bea5a2abU, 0xbf370bc43e42568eU,
  0xbf5f57203ea46d73U, 0x3e43b7c8bdf92ca3U, 0x3f556780bf5e5721U, 0xbf28e583bf1d0b00U,
  0xbec14fc93ea32cf2U, 0xbf0589a7bf0b65d5U, 0x3f0aa9ee3f2292ffU, 0x3f091c6ebd56d128U,
  0xbe47a1a83f468505U, 0x3f38ede23f4ff17aU, 0xbed34eec3f5faf5cU, 0xbf1ca88ebed489f4U,
  0x3f19e6133e2c1e73U, 0x3f1b662f3ebdc570U, 0xbe41f12ebf03ed75U, 0xbe594786bf6c72c4U,
  0xbf17818e3f51930aU, 0xbf55e082bedad5c0U, 0x3e97f5493f433abeU, 0x3f10c2103f63ea8bU,
  0xbf5e358abe9ad9f2U, 0x3f50a739be8bcab4U, 0xbdef5608bf0f1573U, 0x3da16d423f467f47U,
  0xbece3bf0bf0f622cU, 0xbf246cf2bf41c709U, 0x3ee29e1c3ebdf562U, 0x3f1387563f4ef062U,
  0x3f2d747dbf60ec1fU, 0x3ee6bf0b3f857d08U, 0x3d8997b93e9759d4U, 0x3f10cbfebf0ab7ebU,
  0x3f832c74bf385031U, 0x3f3282c9bd3a8db0U, 0x3f5917d8be27dd02U, 0x3f25b5b3bee4a828U,
  0x3d131d2bbdf5ca5dU, 0xbf660f6ebed816d3U, 0xbf03b598bf0952ffU, 0xbf3fc6d23f153fccU,
  0xbe19e7c84039405dU, 0xbfaca4093f834678U, 0xbf521dd03f7c1e9cU, 0x3ff87457401efb9cU,
  0x3ff671d7c009bc42U, 0xbf1338603f7babe8U, 0x3d7cb4d83e84cc62U, 0x3e19c1403b06f33eU,
  0x3e8f379b3e196a0aU, 0xbe864a233dce15ffU, 0x3d3db20bbe410694U, 0xbdff6a62be3bf364U,
  0xbe65c2d13d86deb8U, 0x3d65ccce3e19cb54U, 0x3e3bcf2e3e03497aU, 0x3e625d433e4c1597U,
  0xbe7bd536bd83d812U, 0x3dbf754d3e354d11U, 0x3e30df3e3dbe6bc7U, 0xbe4b7542be089ae6U,
  0xbd05ba223e849f26U, 0xbdbe18103ca78330U, 0xbe3564cebd33277eU, 0xbe230f1ebe8ffb58U,
  0xbd633fea3e1fd6b6U, 0x3b679b453c28c5e2U, 0x3d59722c3e3e617aU, 0xba018c8bbd831c71U,
  0x3dc500f5bda19eaaU, 0x3e53af96be4119c3U, 0xbe1d1c9a3d841df9U, 0xbe237cf43dc31932U,
  0x3db19f87be5d7a2aU, 0xbe7c17a5bd688687U, 0x3d444a54bda63cc6U, 0x3e46853fbc68ff13U,
  0xbdaeaba8be55b457U, 0xbd03522f3e0c8ebbU, 0xbe1d5eea3d5c6d6bU, 0x3d5dc389bd374c34U,
  0x3cb9b4e2bdf88f8eU, 0xbdc731943cd2f0f5U, 0xbe808033be2cc2ccU, 0xbd72f2c23e9108e0U,
  0x3ddf9b52be7d793bU, 0xbdeb6167be549043U, 0x3d5c9fcfbe3732f5U, 0xbe1f7a7a3d739c93U,
  0xbe00b352bda06a8cU, 0xbe1cec3bbe5a9d2bU, 0xbe49c8173e73e497U, 0xbdbfe8b63d9d4356U,
  0xbe7d5ee03c9e74d7U, 0x3dd84a463d5a3892U, 0x3e8bbad03e94d2ccU, 0xbe4a4154be784556U,
  0xbe29abf2be2381d9U, 0x3d70148dbddde477U, 0xbe1e35d4bcb801f9U, 0x3e1153403e02e2cdU,
  0x3e3140393d85bac9U, 0x3c946789be391318U, 0x3e5b3cc7be20a7e5U, 0x3dd217453dfa701bU,
  0x3e1e1c45be38de44U, 0x3e48e30a3e14885dU, 0xbe4b971cbe442a65U, 0x3df6da68bd75e5fcU,
  0xbdb130a43e46665cU, 0x3dfbf347bbeaae89U, 0x3c5ae4a4bd870fc5U, 0xbcfb06693dbe39baU,
  0xbce76d0abd9a0403U, 0x3aaf597fbd7ad2a6U, 0xbdf0a2c9be4e435bU, 0xbd9b751c3e68789aU,
  0x3d12b5dc3e43bba2U, 0xbc564c163e410407U, 0xbd623cba3e33f0cdU, 0x3dfab4bd3c3df2a4U,
  0x3d0ba6c73e3f32e8U, 0x3e3f33993e14dddcU, 0x3e09b7a63e222b52U, 0xbe532606be2c0c7aU,
  0xbd3047513daacb5dU, 0xbdf71894bd4e3420U, 0x3e4c89193deb8c27U, 0xbce67e513de0098bU,
  0xbc68ac323d219e5eU, 0x3ddd0225be1afd4cU, 0x3c910da5be3ab007U, 0x3db440083e03dd80U,
  0x3e8b3534bce81980U, 0xbcfd6f99bdd5e35dU, 0x3d4da9763c926623U, 0x3da9016bbdda7a4bU,
  0xbdc217f03d1abccbU, 0x3e3e5e523dc5794aU, 0x3e007e66bd07d54cU, 0x3de98110be825535U,
  0xbc703512be8218e5U, 0x3e524c59bc1b63f9U, 0xbc2639d73ac61f65U, 0x3d97e8cabe2482baU,
  0x3e464f483d6f5755U, 0x3cd5dfd53e38f627U, 0xbe3c21dabe2dc3d3U, 0x3d38745dbdfa9945U,
  0xbe39b9a1bd900a92U, 0xbe76128b3e86daafU, 0x3e2d39fc3dfb7e97U, 0x3e04c18dbe24ad43U,
  0x3e0d42513e2ccf06U, 0xbd8f42f93d2f71b5U, 0x3e79ef4d3dd9d0daU, 0x3e25e770bd6df8b4U,
  0xbc88dc773dd16442U, 0x3d7f79013dd1cf64U, 0x3dc4a011be081d16U, 0xbc2471283c45d150U,
  0xbd894288bc6efac1U, 0x3e0519afbdcc9d13U, 0xbd4af0123e4bce6bU, 0x3e6183413e7758b1U,
  0x3e54361cbe1facaeU, 0x3dc5ee80be5357c0U, 0xbd54db743d34f9a6U, 0xbda32e52be1cb748U,
  0xbe1643523e3fd5b7U, 0x3e51fe31be289c0bU, 0x3de6ce2abd6589fcU, 0xbe2f339b3e57385dU,
  0xbe5f0f683d33f238U, 0x3e4e91a63e0f75e8U, 0xbdf717c1be76c4bdU, 0x3e051fb83e7f16b0U,
  0x3e1103873e5f4cadU, 0x3c9ffff93e06ccf5U, 0x3e61128dbdd15121U, 0xbe861a8e3e21a656U,
  0x3da52744bdb03e4bU, 0xbdfb9462be5e1dd6U, 0xbe714193be5b7ae2U, 0x3d43b3e4bc2906cbU,
  0x3e5a3a4ebe165453U, 0xbe63fb27be6901b8U, 0x3e2b43bb3dc9bb3bU, 0xbe82a2283dd93c80U,
  0xbd84e8b03cb6089fU, 0x3e04ec6b3def9314U, 0x3e839de5bd3eb1f6U, 0x3c0819d1be194d54U,
  0xbe75eb143e251f57U, 0x3e415d733d656ed8U, 0x3e0883763d81ad04U, 0xbe93c6ed3e09c521U,
  0xbe6f8a6abe6e712cU, 0xbbd5ae98be25afeaU, 0x3dff9f773e61c245U, 0xbe2c7d59bdcc4448U,
  0x3e3dd91e3b28ddb7U, 0x3e4433b23e77029eU, 0xbe4bb8f93e5aef7cU, 0x3e3f900fbdddecdfU,
  0xbe22ea75be0f6163U, 0x3b05ec4ebc9a8342U, 0x3e416c94be8a7f82U, 0xbe8b13c43e897e67U,
  0x3e4e5128be50bde0U, 0xbe5619063e797939U, 0xbe210551bddba346U, 0x3e733306bdd2dc89U,
  0xbe77a104be83e3feU, 0xbe5b73fabe490dc0U, 0x3ceaaab43e3119e0U, 0x3e98f530be177279U,
  0x3c783be43e13b281U, 0x3d0e10583cdc2d0fU, 0xbe95fcb03e477248U, 0xba24dbef3daa74dbU,
  0x3e5fb8bcbdf5a769U, 0xbe7529543d2ca370U, 0xbe3bc1f53e057e6dU, 0xbe6440a8be3905b8U,
  0x3e64b7eb3e6ea02aU, 0x3e096120be118624U, 0x3e1d3d95bc3cdd79U, 0x3cc4028f3e502ca7U,
  0x3e8129183dc0e0c1U, 0xbd9303893db5c3e3U, 0x3dc562103e82e913U, 0x3d17e6293e5eade6U,
  0xbd9c1ff4bc59b629U, 0xbe6e41423d8f6f9eU, 0xbdcad8d2bd485e5fU, 0xbe1377e83dafc6aaU,
  0x3d8748adbe9b3d25U, 0xbca8f997be44f6e8U, 0xbe4101c63e7ad202U, 0xbd1a4c0f3e838998U,
  0x3e87b68c3d983757U, 0x3e76d3fabe50f554U, 0x3e956ea5bdaf9f9bU, 0xbe1454c7be946de3U,
  0xbd9bf368bccfad2dU, 0xbd17e9363e5362fdU, 0xbe25f5933d897cd6U, 0xbd801bb43ea004e5U,
  0xbe1fd899be1fa219U, 0x3d2deb3dbdf5e68bU, 0xbe6f97ee3e8a8383U, 0xbd4be6cdbd8cfcc0U,
  0xbe5745563cc7a6adU, 0xbe63fa45bca7aa20U, 0xbd5a9bad3d5bae08U, 0xbd31826dbdb5932cU,
  0x3e0081b4be7fd6b5U, 0x3e3f4bf63e9b5e46U, 0xbe03eabf3e37e94cU, 0xbe16ba32be661a2cU,
  0x3ea012263e98787cU, 0xbe42f6303e199ae3U, 0xbe88b15b3e4ff93dU, 0xbdce23363dfe95eeU,
  0x3dc0493dbe0d032eU, 0x3d6e14b2bc89e684U, 0x3e28cb6c3e00f0e5U, 0x3e887028be7c07c2U,
  0xbd8912e7be71002cU, 0x3e2bb7103e9773b8U, 0x3e3384313e0ae528U, 0xbe4f19513e48f241U,
  0xbe2a79493e5134e4U, 0x3e445f233e64f51eU, 0xbd884e65be3a78afU, 0xbd7a79f6bdf3b1ceU,
  0x3e7cdca83cb171f1U, 0x3d19862a3e0a5f6dU, 0x3e057a5a3d46559fU, 0xbe1639cb3e5fb340U,
  0xbe5bc0bb3e59974eU, 0x3e0ca56e3e7909c7U, 0xbe29c1cd3e23c91aU, 0xbe468735bda40bf8U,
  0xbe03c21e3e10b010U, 0x3e4cf694be1fcaa0U, 0xbe0bbf233d679695U, 0xbd82508c3e3e02fcU,
  0x3e854beabdb3b7f7U, 0x3d9fdb0dbdb95ec8U, 0xbde7473c3e0bcdddU, 0xbe31bce7bdfa598aU,
  0x3de749093e0f59b8U, 0xbe510e953c62a44aU, 0x3e23a1913e2655d9U, 0xbe30d030bdd2ee29U,
  0x3cb25c15be253c49U, 0xbdcefe8cbe773b8bU, 0x3cbb0c6c3ca7f2deU, 0xbc5fdcdfbe24c973U,
  0x3e310bddbe154d66U, 0x3e07f1963e614beaU, 0xbe108cf1be36d6e4U, 0x3e6e17803dc6e49dU,
  0x3de35ea0bdc21055U, 0x3e6eea9abdeee60dU, 0x3cedf78b3e426100U, 0xbe33898f3dfed022U,
  0xbe84c715bd9fb431U, 0x3a4431fa3d1e62a7U, 0x3dd898a4be027580U, 0x3d9a8dab3e6e38c5U,
  0x3e1a712a3e2b2814U, 0xbdbaa420be08a0b6U, 0x3e5da7643a9e9491U, 0xbe19c6063e07ad0cU,
  0x3d9950f3bdb96d4dU, 0xbe5ef0dfbe7930b2U, 0x3d545cd3be805363U, 0x3e6cca36ba7c9f27U,
  0xbd1a22aa3e2ad030U, 0xbe52f93abca97721U, 0xbe026e4d3d0a11d3U, 0x3dd44493bd8de655U,
  0xbd84812cbe4cf836U, 0x3e62b992be51bfa6U, 0xbd9da8493e56ac6eU, 0x3d55ae4c3cd6642aU,
  0xbdc7c54f3e22059bU, 0x3e2e45113e8a8f5dU, 0xbe8849503e3c1837U, 0xbe112ddbbc8c049bU,
  0xbe3f1d023e8cf599U, 0x3e1ec2e8bdf781ccU, 0x3e008a573d1f8d64U, 0xbe2fd62abc9dd5a4U,
  0xbd985dd9be912deaU, 0x3e01aaeb3d03bc47U, 0xbe12a3003db7026eU, 0xbe7ba4023c5526feU,
  0xbdbeab56bda7ea42U, 0x3e24e5a63d1789c4U, 0xbe17b3893d6cf825U, 0xbcd248bc3e1051c7U,
  0x3d28ecc6be765d0bU, 0x3e7a7953be391306U, 0xbc9ffce1bd1860afU, 0x3d0b7d663df3f1daU,
  0xbe708a18be0e733aU, 0xbd58e79dbd51c47cU, 0x3e5fe08b3e0ad504U, 0x3e575d443e50456eU,
  0x3dd2ce2abb37a25fU, 0x3e7341bbbdaa934aU, 0xbe3d86f63e49c814U, 0x3e1bb370be10e303U,
  0xbe84fba53d472656U, 0x3e7162983e463676U, 0xbdbe8e4dbde996cfU, 0xbe88804d3ea40303U,
  0x3e2df038bda22bd0U, 0xbe5a12783e2ab9f6U, 0xbd38ebb5be55c3b0U, 0x3e84a1f9be067efbU,
  0xbe589bf63d276905U, 0x3e69d71ebe21eaeaU, 0xbe886ea3bd11c392U, 0xbe5a07373d62351dU,
  0x3e21d4b53e0a6dc3U, 0x3d8d90603df682fcU, 0x3e2d6067bdbdf0fcU, 0xbc0dab5b3e01beb8U,
  0xbe6d6e633e322cd9U, 0xbe33264fbd8718f0U, 0xbe5759383e207df1U, 0xbe1ff56bbcd530a7U,
  0x3e372d853d9dfc79U, 0xbe726fd93d8e3b04U, 0x3e53361ebdb2bfa8U, 0x3e1ea452bd214b6dU,
  0xbe056719bdc8cb81U, 0xbe44c71a3e86bdf3U, 0xbd93a63f3e50d36aU, 0xbe6499293d628f43U,
  0xbe311f44be4e0091U, 0xbe1b504cbe06314dU, 0x3e286156bb22aafeU, 0xbd0a01e6bdf9c4faU,
  0xbd4d3c2abd9f165bU, 0xbd4fcf24bd2a2d7aU, 0xbdd8fe25be0bd843U, 0xbc9c70b1bd370986U,
  0xbe42cc30bdad148fU, 0xbe7b1c4dbd7b5f41U, 0xbe6366743da7b6ffU, 0x3dbb218f3dc5fb1dU,
  0x3e59c51ebe1f2c3fU, 0xbe4f6c91be448363U, 0xbdf2a7ca3dfd3427U, 0x3d8a57023e5baf1fU,
  0x3e419e613da990d8U, 0xbe1e129a3cf0d800U, 0xbcdb456fbd905c8fU, 0x3d6f86dcbe2de191U,
  0x3d9c5305be69dc89U, 0xbda15f33be0a291bU, 0x3e4409853e4eda56U, 0x3d210c6bbe4be189U,
  0xbd4291adbe314b9cU, 0xbd020fdbbdf3ba0cU, 0xbdabbb9d3c35fa6dU, 0xbd0b8d743b74131dU,
  0xbe22db5a3e43707fU, 0xbcead5b6be7577c0U, 0x3da191893e7e1f41U, 0x3df70032bcd8eff9U,
  0xbe2963b8bd8f35b2U, 0x3e1f48a73cdb8d98U, 0x3e83661a3dea61fdU, 0x3d6f0326bb35eed7U,
  0x3dfa37303e3e2a69U, 0x3e3854f93cb06be5U, 0xbdaab66cbdcb7899U, 0x3e1781a7bd7d98eeU,
  0x3d07547fbe6851e1U, 0x3e22aea23e8e12bdU, 0x3e888a44be57ed46U, 0x3e6981043d36b8a5U,
  0xbe085cfb3e01acbcU, 0x3e0760903c8de17fU, 0xbca13562be69834bU, 0xbe4fa4ddbde98041U,
  0x3d767ee53dafcbfeU, 0xbdb13b18be059366U, 0x3e07e3f63e56c458U, 0x3dfc18dcbe88fc8cU,
  0xbdec9ceb3dd7434cU, 0xbe0ea0b5bdbee10dU, 0xbccada213d6914b6U, 0xbe2704d0be50affdU,
  0x3d02ef743e12e5beU, 0x3c2ad7dcbe5e6916U, 0xbe16e272bdb8e23dU, 0xbda272df3e96ae98U,
  0xbda31e943af9e3d9U, 0xbd8badedbd8356eeU, 0x3e0d17f93dcf0df3U, 0x3e73d751be232172U,
  0x3e4ac8aa3d42f92aU, 0xbe576bc3bdc32cfaU, 0x3dc9fceb3c618174U, 0x3dc0e0c6be27fd05U,
  0xbe61bd263d84e3f9U, 0xbcd678213d12d633U, 0xbdfe3249bdf03adcU, 0x3d6793c43e4cfa76U,
  0xbe407334bc2aa427U, 0x3e349a463e629f3dU, 0xbd754f3bbe4e2a76U, 0x3d99844fbe283580U,
  0x3ccfbadcbe0d1868U, 0x3deaa1d2be25e25bU, 0x3db766eb3db09760U, 0xbe4f25c23d19a6b0U,
  0x3e182bcabe19ced3U, 0xbe5095e63dccea24U, 0x3dafebcd3e491dbbU, 0xbd891d183e82dd1aU,
  0xbdf4d28abe72b990U, 0xbd83d3563e265163U, 0xbe86c50b3e30f713U, 0x3e3e9f16bdb5eb35U,
  0xbc6d93c8be333cb6U, 0x3e549f3dbe01e2a0U, 0x3d90c8e3bde8657dU, 0x3e369224bbcd6062U,
  0xbcbe9f2abbc906a0U, 0x3db37277bde225a1U, 0xbde098f53deb05b2U, 0xbd686e1bbd96dd3fU,
  0x3d681ef7394c7859U, 0x3e0057393e2f4072U, 0x3e423ecabe05f92cU, 0x3dd913073dfe0be6U,
  0x3e0941103df90d2dU, 0x3d57da3e3d355f48U, 0xbceafc5fbe0e1d0eU, 0xbba1f48a3e3643f3U,
  0xbbac0b193d5ac10cU, 0xbde6c7873d4120d3U, 0xbe65ad62be0cc592U, 0x3de829c7bdb86300U,
  0xbe6fdbd0bdb4684bU, 0xbda0f4be3e0454deU, 0x3d64bbf6be4c2889U, 0xbdf29cd0be3b22feU,
  0xbd6e02c0be32fc5fU, 0xbdd085cdbe07213eU, 0x3e4133c2bde6665dU, 0x3e2c52973e2c74b3U,
  0xbd99c0b03d4bdf31U, 0x3db044edbd7258e3U, 0x3a4e59fd3e6ece7bU, 0xbe4501e03d50df4eU,
  0x3e148a60bcfd099bU, 0xbe3f80563e2d5fc6U, 0x3da9cf6dbe56206cU, 0x3d85c6f73e3240e0U,
  0xbdba57e93e28a324U, 0xbe5f93dabce44880U, 0xbe09d5f53e211e62U, 0x3cb9db143dde0d04U,
  0xbd76dd5f3cf4d1e6U, 0x3e09ed1c3e262c34U, 0xbe4627083c16724bU, 0x3e12f406bc179713U,
  0xbdee8ca03d7ceccbU, 0x3caaf115bbfd740eU, 0xbdfdfceebcb065ffU, 0xbc343e6c3cc2d895U,
  0xbe358c203d3944abU, 0xbe1c35b53d14fad3U, 0x3d9e00133e4fae2eU, 0x3de924aa3e504a3cU,
  0x3c69699e3daa3ddeU, 0xbda640443e03cd65U, 0x3e272acc3dd1b053U, 0x3ddb2e173e3a2b76U,
  0x3ca155c13d8ce7afU, 0x3df782bc3e00f665U, 0x3e52e65cbe2a6acbU, 0xbe246b49bdd045aaU,
  0x3d2e0cfa3d195803U, 0xbce2d5cabe6757bcU, 0x3e1d13243c0968d9U, 0xbdd5a5d33de4bc13U,
  0xbde05bb43e1533fcU, 0x3e4052f83db6fd51U, 0x3d38230cbdebc924U, 0xbdc1d8b8be297131U,
  0x3d3dea83be0e2794U, 0x3e3fc74abe16802cU, 0x3e1cd4543e198e85U, 0x3e514af53dad369aU,
  0x3d70c0bc3c868e52U, 0x3e2e563f3d634017U, 0xbda6cac9be68ac49U, 0x3dd22babbcb35d44U,
  0xbdc6b4c03e25b895U, 0x3e5676533e454679U, 0x3dc51a313e13c28aU, 0x3cd04dd1be476797U,
  0xbdd3605f3e30c0fbU, 0x3e2d990a3e459eb1U, 0x3df843bcbe1ec072U, 0x3dfcb290bc90fd2dU,
  0xbcca34553e345528U, 0xbb8ccad43c4df472U, 0x3e36ebdebe20300cU, 0x3d81a80e3e635649U,
  0x3c25ee843d80cbb9U, 0xbe3e61b9bde99ef3U, 0xbe1b225a3d945fb8U, 0x3d9bb317bc2ba606U,
  0xbe35fd053d95d873U, 0x3c35a2813c8885f3U, 0xbe363e9bbe489ae8U, 0x3e60a9bc3d5232acU,
  0x3e1629c7be467f86U, 0x3a23e068bd3c99e6U, 0x3cbeb3f5bddfb81dU, 0xbc5cdea3bd94d009U,
  0x3e06ca593e0a9cf9U, 0xbe0b0d453e1dc5e7U, 0x3c14e4a63e08eb2bU, 0xbe21c5863cfbeccaU,
  0x3db0e5c5bdbaefdbU, 0xbe41481d3e5d37f0U, 0x3e27f6413e09ab11U, 0x3da89aa03daee3bfU,
  0x3d6b10d13db4f11eU, 0x3e19a91cbe29798dU, 0x3c201cf3bd0b0285U, 0x3e445b813ca957f2U,
  0x3d178ef73e467f46U, 0xbdf330c2bceb71dbU, 0x3e8028c13ddab790U, 0x3e308031be1357ddU,
  0x3e83a9cd3e32d607U, 0xbe19c0ddbdb38f96U, 0x3e75c3853d5cda5aU, 0xbe5436f4bdc457adU,
  0xbe66379b3e46bc1aU, 0x3d8d45043dd8117fU, 0xbd588160be8eaf90U, 0x3d00eec4be5d47e4U,
  0xbd40b9bd3d4e36fbU, 0xbdaa8d3cbdd3cf23U, 0x3e8dd7bdbe81ca76U, 0x3dac7780bd749838U,
  0x3e78fc793e8eaeb2U, 0x3e81b09ebd98e68dU, 0xbe729fcf3e871c6dU, 0x3dbbe300be6d26acU,
  0x3df686c7bd877449U, 0x3de3c7e4be896ae9U, 0xbd597b12be6eb165U, 0x3d83a1443d79d459U,
  0xbe30a153bcf153aeU, 0x3e4ac8edbe995f28U, 0x3df522993e57b658U, 0x3d9d78003e55813dU,
  0x3e592c0b3e9c9942U, 0x3e335cb3bd163e7fU, 0x3e36f8743d3cd446U, 0xbe6ef1da3c2d11a3U,
  0x3cb4d8ffbe3c3d52U, 0xbe597576bceb9f33U, 0xbe37fa9fbc5b43d9U, 0xbdfb59473d0b543bU,
  0x3ded454cbe0d8c8aU, 0xbce2482c3e839c1fU, 0xbca6fd7abdb24920U, 0xbdfcc4a9be0a50b1U,
  0xbe5d7fadbd3c9013U, 0xbe91df8abe00aec7U, 0xbd91417dbdcdcddeU, 0xbe257c36be242459U,
  0x3e2b0938be457f61U, 0x3e14f461bdeabd37U, 0xbe36c11f3d05429aU, 0x3e555e35be248f9cU,
  0x3e4315dbbdece93cU, 0x3e4e7856be515fffU, 0x3e5beaba3e1e3f7cU, 0x3eae8ca13ea3397eU,
  0x3e6d1d813e90ed20U, 0xbe0490a2be7e71caU, 0xbe935af23ea7d590U, 0x3dfebdaf3eaae376U,
  0xbe2484f43e2a740eU, 0x3b3a702fbe0a7202U, 0xbe3813d3bdde6dfcU, 0xbe8808e93e21e543U,
  0xbe220f7a3e57f67bU, 0x3e9a44f73d8c5be7U, 0xbe8b1db23db34c88U, 0x3dee5340be407df5U,
  0x3e9c0dcebe010bfaU, 0x3e390c123e02b3dbU, 0xbd30aad0be62b686U, 0xbdede3f4bd9ddb83U,
  0xbd87ada5be3727e5U, 0x3c3cf9c83e2d3baeU, 0xbe1d00133e74f0ebU, 0x3cbae9debdaafc64U,
  0xbd0fb59f3e2be912U, 0x3d6deb38be36fe97U, 0x3df209fcbdfde8e1U, 0x39e69f14bdc29c71U,
  0x3c4d6771be57203fU, 0xbcc9162e3d54098eU, 0xbe52d452be0c43b6U, 0xbdfd850c3e7f5d61U,
  0xbe86442dbda36be4U, 0x3e3c15aa3e8dc19bU, 0xbe44c366bdc9e3bcU, 0xbe8206733dbb9e25U,
  0xbe0ca827bddd1dc8U, 0x3e0c2ef93d0e3475U, 0x3df52e30be971420U, 0xbda744543e08f0b8U,
  0xbd27f3273e7ff32eU, 0xbe2928643e2fb8a1U, 0xbcc23345bbc02418U, 0x3e0f999a3cb9e7a1U,
  0x3e95c4523e2729c9U, 0xbe80089ebd0b1810U, 0x3ead2beebe97fcb3U, 0x3e6ef02bbe3d65dbU,
  0xbe505b6a3e85b77bU, 0xbe3813abbe8d46efU, 0x3e539f78bba0543dU, 0x3e0b97cc3e47d34fU,
  0xbcbdfcfe3d5d34c0U, 0xbe219d5cbd1eb335U, 0xbdea38c73e70257aU, 0x3e6918043bc806a9U,
  0xbddf9e98be6309fdU, 0xbdebda313c656b27U, 0xbd2702cdbe2f503eU, 0xbd7840dfbe4f01dbU,
  0xbe6b0ccdbdecf9c2U, 0xbded6c71be5d26faU, 0xbd31bff43d9ce2cbU, 0x3d2d6fc73a9f754cU,
  0xbe6bf8d73cacf76bU, 0x3e24003cbd938d04U, 0x3d1bd0423dbbd1cdU, 0x3baa49fcbac0b8adU,
  0xbe7f39763e4c08b4U, 0xbd33971e3def93aeU, 0xbd4bc31abe28e48bU, 0x3e6067fdbca38e36U,
  0xbd12d6d03e9512bbU, 0x3e727d4cbda0a5a9U, 0xbdc06fd13e86c4d5U, 0x3e5eefa7be93a162U,
  0x3e573140be045a2bU, 0x3d9cd1da3e2f8b9cU, 0xbcd463873e969deaU, 0xbe526db63d9e5011U,
  0x3e7e97453e90dccdU, 0xbe59b8203e19eb8fU, 0x3d4ed8ccbe082543U, 0x3e07025abe4d874eU,
  0x3d445edf3d3d3504U, 0x3d1d73563e009ba1U, 0xbe4a29dc3e0887e4U, 0xbe8965513e00faeaU,
  0xbdd764143d6b2667U, 0x3d82c7d0be689562U, 0xbcb13ad53bb67230U, 0xbe7f10dabd535af1U,
  0xbdb793d6be3f9aa4U, 0xbdc48637be4ba339U, 0xbdd0316c3def7ae6U, 0xbc1f26393e5443e7U,
  0xbe241aca3ceb0e89U, 0x3d5f3d293e66a07fU, 0xbd8b2313bcd97aecU, 0xbe15c1b5be0d9030U,
  0x3de104853d6c4603U, 0xbdf1511d3d9743e3U, 0x3e259051be2c9927U, 0x3e3d607a3cf5e5e5U,
  0xbe0224103e705fa8U, 0xbdd0f30abe697ed4U, 0xbd4098ea3d987953U, 0xbdcb09803d0859d3U,
  0xbe4c104f3c92eaa3U, 0x3e303d05bca8562aU, 0x3e1f60913ce934caU, 0x3d0df059be491582U,
  0xbd165923bdf6a8a1U, 0x3dbb61953e0b25ecU, 0x3e72386abd01d03dU, 0x3c9e45f2bdca8569U,
  0x3c0a66c73d539edbU, 0xbe44f4f8bc80fe29U, 0x3dee74153d2d6445U, 0xbd1e96a13de5d187U,
  0x3e1d94e5bd30a71fU, 0x3d369a90be39a8e3U, 0xbbfa871bbe446309U, 0xbdaffebfbd2f6d6bU,
  0x3ad9c7583e1e6493U, 0x3d583182bd764702U, 0x3e009e133e36db62U, 0xbe2c938cbe55faa1U,
  0x3e328ae7bd5f6d4dU, 0x3dd97b2abd9266baU, 0x3e1576813ddc07b7U, 0xbdd1c32f3db490caU,
  0x3de3c7d33e1ce1caU, 0x3e3995893e13cba2U, 0xbe0b30283e1c272eU, 0x3cab1a2dbd2d272fU,
  0xbc98191c3dfe1ab3U, 0x3d819c61bdeb2765U, 0xbe104c61bcc50f11U, 0x3e4972d5bd9ac2afU,
  0xbde6a4cebdecb1a3U, 0xbe11bc7b3db82fa7U, 0xbd0ee7ef3e527a08U, 0x3df44ffabcdd0b38U,
  0xbe1b48cd3d21d4e6U, 0xbd9c5c773df7b48cU, 0xbdfed95cbe05d738U, 0x3c67aae63cda7a6bU,
  0xbdccfc3ebe14c6c0U, 0x3e02ec943e32b4f3U, 0xbe455bffbdc5e690U, 0x3dfb8e203d7be251U,
  0xbe2e948d3e4472b0U, 0x3de7b3b93dbbf79eU, 0xbe06429d3d98653aU, 0xbdd870753cc104b6U,
  0xbe0c098a3dfac27eU, 0xbe4aa5cd3db6abc8U, 0x3dafd1b43d2fb0f3U, 0x3e35cf423e2b1c41U,
  0xbd363e183e1dd184U, 0x3d8f2f773d9e5a89U, 0xbdf69e57bddf75e0U, 0xbc85f842be22a7f6U,
  0xbe36b76fbe1265f2U, 0xbdcaf8b53e0b3391U, 0xbe27ded8bd8f8007U, 0x3db1b936bd136ac9U,
  0x3ddc2e753dce8a8eU, 0xbd9ad4babd6fe2d1U, 0x3e1acf1e3dfcf9c4U, 0x3e4070ce3dc48d0cU,
  0xbcba1df13dfbe888U, 0x3e2de342be374419U, 0x3e16ffed3db92459U, 0x3d6962c4bdaea016U,
  0x3e4421fb3e2ae625U, 0xbd94de7cbe554b9dU, 0x3e5878a7be27369fU, 0x3d9004133e21cc32U,
  0x3da7ece93d90dcb5U, 0xbe0baf8dbe489b82U, 0x3b131bcbbd9a5800U, 0x3abfc5eb3e4ce1b5U,
  0x3e411055be40856bU, 0xbbb2190a3e81a4a4U, 0x3e5896cdbe0660beU, 0x3cb4c23dbe7a6e92U,
  0x3de84915be03142eU, 0x3cdf292bbdd9a469U, 0x3e65398ebe5e8318U, 0x3d6b14813e075c10U,
  0xbe5476cd3b98efeeU, 0x3cf121a2be683951U, 0xbde97e1dbdf11c73U, 0xbe365e853e0cc873U,
  0x3d5c7eefbe4e03daU, 0xbd0a65d1bc77f127U, 0xbb9d21d33e0c6d91U, 0xbe08e1fbbc98b2b0U,
  0x3e5692583e28980bU, 0x3e489481be1e50b5U, 0x3dad751a3dc7e4d6U, 0xbd4497e5be66cf1dU,
  0x3e0c77cb3da0c348U, 0x3e0d8eed3dce708aU, 0x3de04cd4be4892e8U, 0x3dd058933e82d321U,
  0xbe0c0faebd122ebeU, 0x3de9ec97be04a84fU, 0xbccdecab3dacf212U, 0xbd5a6694be1562ceU,
  0xbdbe5c04bbd0a263U, 0x3d5773b2be2a0dadU, 0x3e3b26af3e509ea4U, 0x3e7aa624bdd05233U,
  0xbe67fbf6bb85d6feU, 0xbe5bf9cabe16a635U, 0x3d9104d73da0bbc4U, 0x3dd15267bda74e69U,
  0xbd263a2b3e2ab0fbU, 0x3e77d2843deee25dU, 0x3d0fddbdbe0274a6U, 0x3e64c42fbc906c37U,
  0x3e19aeb8be501afbU, 0xbd9c88d4be143257U, 0x3e391b06bceb7f21U, 0xbe77ea2abe2abe49U,
  0x3e45bc303da9877aU, 0x3dcb303e3e04c367U, 0xbe0da0b73dbae081U, 0xbe303f743dbc37abU,
  0xbe4dc8323d848d6bU, 0x3e2ee1d2be71b2eeU, 0xbe064e043e12e79aU, 0xbe3a8ffabd37fc92U,
  0xbdd17d793e0e5973U, 0xbdcea4afbe3d6c03U, 0x3e1097ab3d319dd8U, 0xbe2a73c03dde2a0dU,
  0x3e393a4abe66c364U, 0x3e42f3023e03a552U, 0x3e2f8d653d5261d5U, 0xbe1a355f3e32e134U,
  0xbd57c6d3bd1b5ac2U, 0x3dcbbd25be16a41bU, 0xbe0a42693e45deddU, 0x3df4bd043e3873d4U,
  0xbd73ad2f3db26bd9U, 0x3da410adbc568fb0U, 0x3e3f173b3e6ad6e1U, 0x3de46974bdae47a0U,
  0xbbab5336be3a6a5dU, 0xbdae7e5abd7a041dU, 0xbdedff7a3e588289U, 0x3ddc9fb4baed4e01U,
  0x3df150fe3d69f3cbU, 0x3b809404be2deb81U, 0xbe5cb26dbdc34c77U, 0x3da5bd863e4e3a41U,
  0xbde643bc3ccf3024U, 0xbdc2d577be0839ebU, 0x3e2027b23cbf080eU, 0xbe653793bd920938U,
  0x3e4f22bf3d9085e6U, 0x3d0c9f673e6dbd76U, 0x3d83cea1be1fe0abU, 0xbc05c98a3c59b52eU,
  0x3d0f535dbe078469U, 0x3e5003ecbd73d296U, 0x3c7a8f0d3e42a6b7U, 0xbe20c1b43e4c0c03U,
  0x3e05a2bdbbe1bc31U, 0xbd788174be5b3216U, 0xbda0424d3cd4fd25U, 0x3e3e8a1ebcddffd1U,
  0x3dae709f3dd5def4U, 0xbe82c48b3d0df7a8U, 0x3d90d7da3d8b2057U, 0x3b41a2af3d79fda2U,
  0xbdcf37a6be32ab10U, 0x3e4bfc0b3e416121U, 0xbe2379cdbd9c005eU, 0x3b4b9a0c3df85254U,
  0x3dbb7da5bd507cb5U, 0x3e413579bd9ad7f0U, 0xbbc00839bd5a59b7U, 0x3e3a5682bd2ecb15U,
  0x3d4c20403e2dc4cfU, 0x3d26350b3e0cfd77U, 0xbde68318bde38faaU, 0x3e3cbbf13dca2d2fU,
  0xbe2a70a4bcd2b1f9U, 0xbe07c796bd8ac3e5U, 0x3e4018c4be143a84U, 0xbd84adacbcab5016U,
  0x3e2e01eabe38e7c4U, 0xbd3d832ebd64427cU, 0x3e2a57493d73b9f9U, 0xbe2fda98bd0a42d7U,
  0xbd4a85ce3e42a9acU, 0xbd170ef63d2df94dU, 0xbe474feebe4a9952U, 0xbe0eae58bda1b00aU,
  0xbe53bd043dafac1bU, 0xbdea2efa3cc49530U, 0x3e30e0aa3d02451eU, 0xbd3f828abbb35ac1U,
  0x3e50c046be5b88f3U, 0xbe091ae33c9fbcf4U, 0x3e2076c53b93a980U, 0xbdf9b7ed3dceb5efU,
  0x3ca966dc3dbe2a70U, 0x3cc665203e0dae3dU, 0x3ddd639b3b9b6f31U, 0x3df83cfbbe2b0dccU,
  0x3d8e5583be224444U, 0xbc77e93a3e4694eaU, 0x3e57736fbded2294U, 0xbd9371f5be054039U,
  0xbdf23ea83d6d7a45U, 0x3e23f7e4bd81da4fU, 0x3da5a8e7bd775b6bU, 0xbc81aef73e341a74U,
  0x3e3f6dcebdba5fa3U, 0xbe5574ebbe50c5dbU, 0x3e3433d23dac465eU, 0x3e5704ebbe31f280U,
  0x3d75e84dbe50589eU, 0x3d61e4cf3e533160U, 0xbda0eb3b3e58d532U, 0xbdbaf0403e296815U,
  0xbda86ca33e42e22aU, 0xbe5e3e3a3ddb328fU, 0x3e1a986a3e5e97d5U, 0x3e3da765be494c46U,
  0xbc9d71ac3e4070f3U, 0x3d8532a73b72e959U, 0x3c9d9a373d9720deU, 0x3d8996c6bd299224U,
  0x3e60cc133df2c4d9U, 0x3ddf107bbcfb2c7aU, 0xbe1e945f3c6a09a9U, 0x3d960aa6be70c917U,
  0x3e3198ed3db50c65U, 0xbd7ef5d2be45cd54U, 0x3e21e4dabc33dd0cU, 0x3cb1cab83d03e350U,
  0xbe03ca77be02a008U, 0xbe3dc7703d18cd47U, 0xbd91ddc0be536b82U, 0x3ce99d62bbf096d6U,
  0x3cc9fa10be592c52U, 0x3dbd1f15bbe117b1U, 0xbe18a3183e2f00f9U, 0x3d90655fbe6a2e58U,
  0xbd98aa77bccc6f03U, 0x3d82a08e3d48a556U, 0x3db04396bd67849cU, 0xbe0d5287bbaacddfU,
  0xbdd612ddbe0758e9U, 0xbe5315493ce435d2U, 0xbd6bc671be8c3fdfU, 0xbde85d093d2da960U,
  0xbc2b8a243e2072fbU, 0x3dac5fb7be172cf9U, 0x3e2c87033cb26a09U, 0x3e6cc5253bccf603U,
  0xbe2142c1be02d56aU, 0x3d3c99f3be65777bU, 0xbe455ead3e365480U, 0xbe5678a8be5ac151U,
  0x3e0c1d53be1234f9U, 0x3ddf51893e38e388U, 0x3e10ce183e038386U, 0x3dc9dbd33bdd9953U,
  0xbbac986fbe350079U, 0x3cdef61b3e0d558bU, 0xbdb061c8bd1477b5U, 0x3c7f796d3d638c40U,
  0xbda21c133e83150dU, 0xbe2af8cfbe2a36c1U, 0xbe26d0a33d93f31eU, 0xbe01b85c3e6f0089U,
  0x3e82da553dc58f97U, 0x3e02ba7c3d887624U, 0x3d8a9015be45e0eaU, 0x3e74bb13bccd50afU,
  0x3e2a5322bd0ff322U, 0x3dd64dd1bdfb74caU, 0xbdf9e16dbd0114d8U, 0xbd5e0c5dbdae9e62U,
  0x3e09b4383dfb4078U, 0xbe3d3746bd5061deU, 0x3dcdb39bbe38a7feU, 0xbdbe0824be1953fdU,
  0x3da7f6893e48a06cU, 0xbdae00fdbbd1fbc0U, 0xbca63f59be360a0eU, 0xbd2765803dc6aaf1U,
  0xbe5f727fbe15d528U, 0xbcfc68f13e376795U, 0x3c12fda9be13a440U, 0xbdc9e2d6bdb4897bU,
  0xbe3c19b13de4787aU, 0xbd9d105e3e2ba11aU, 0xbe2c4fed3d99e091U, 0xbd59b75ebe4a98e2U,
  0x3e47853c3e341defU, 0x3da80594be421f9bU, 0xbe5216e93d97121aU, 0xbe079b343e40a343U,
  0xbe1908ecbcb03bfbU, 0xbd835623be17fde0U, 0x3d70fb53bd9343eaU, 0x3e598a403e1d1cf2U,
  0x3dcf0d1ebcc9980aU, 0x3d9f4208be3128a9U, 0x3da03663bd9f8bfaU, 0x3e1fc131be49af34U,
  0xbe09862a3d674c71U, 0x3db9d0d8bd4e1487U, 0xbe4bb682bc17b1acU, 0xbc8a6babbd891478U,
  0xbc012b3fbe71cee3U, 0x3e0e50423d8af883U, 0x3e59d4a6bd03a67eU, 0x3da2aeb63e0c6590U,
  0xbe5733c13d876dc6U, 0x3e44a0ce3de60ea5U, 0x3d3c5963bd8e257bU, 0xbe39be373e3a2a3aU,
  0xbd0f38c53d25799eU, 0x3e2d90f4bd98920aU, 0x3e16fb1b3dbe777dU, 0x3e2c0f2dbb3f6b9cU,
  0x3e5c1f343d8303faU, 0x3e19a2713e68670bU, 0x3e35ec823e20cebeU, 0x3e0cefc83df2e4f8U,
  0xbe6c2e08bda4d2e1U, 0xbe5647703e0fa54bU, 0x3e273b023d348d4bU, 0xbe173da3bc93df98U,
  0x3da966b2be187bf1U, 0xbacbc20a3e74ed1bU, 0x3e637254be4329f9U, 0xbe528c2abe9384caU,
  0xbd869c22be07cd3aU, 0xbba3e7463e593910U, 0xbe3d7ad6bdde7075U, 0xbe32a77b3e53fdedU,
  0xbc0d55653e177a18U, 0x3c0020a9be036da3U, 0x3e2459773e284917U, 0x3dbbf4953d355c60U,
  0xbe72a206be8a63adU, 0xbe1dbf4b3e562859U, 0x3d0f22c43dd0dc4bU, 0x3e63a9983c8a15ffU,
  0xbe45bec03da1b963U, 0x3d14d9033e585c69U, 0xbe3c396fbc9d71bdU, 0x3c414b7cbdf1e166U,
  0xbdc12d4b3d9b0747U, 0xbe12ba053d43a549U, 0xbe331a583c48f006U, 0xbe5652783c156d58U,
  0x3d9325b73e36e227U, 0x3e7e98403de9a9dfU, 0x3e82fcedbe79f738U, 0x3e45d5083dc56916U,
  0xbe8f71613e308ba6U, 0xbe0a5bcabe59aad7U, 0xbdd687f23e4132f4U, 0x3d8981b53b5a20ecU,
  0xbe8188823e872a34U, 0xbd31d37b3e344e71U, 0xbd431c0c3d8e32b6U, 0xbdadb675be5eb2ecU,
  0x3e2aec7abdb52317U, 0x3e2fc1f93e06e564U, 0x3e62f7bc3e1f3dc4U, 0x3e151f1ebbcef44bU,
  0xbd7324ad3d95b025U, 0xbe382384be27efd8U, 0xbe21b6c43dc36c58U, 0xbd4c3a623d8f69fcU,
  0x3d0e616a3e475feaU, 0x3e4f6a723de73d45U, 0xbdf1edc33d47947dU, 0x3d8c76ae3e3adb0cU,
  0x3ea831a6be3bf904U, 0x3c06d417be73e859U, 0xbe4a7b62be34bf68U, 0x3d73c2e4be478700U,
  0xbe480b253e2821efU, 0xbdc762823e409656U, 0xbe2c58b0be762538U, 0x3e14474e3e21cfe9U,
  0x3e15f0403e5442c1U, 0x3e0099e33d0ea450U, 0xbe041e2f3e186737U, 0x3c32cbc93e0b5063U,
  0x3dda294dbe13f18cU, 0xbcf1e2fcbe35b20cU, 0x3e1e07f93e345588U, 0x3e6ad0e03e00ff79U,
  0xbc31ed403e03e6cbU, 0x3dfc5fdfbe17e1acU, 0x3d8c4370bdfb14c9U, 0x3d0be1b9be66b271U,
  0x3d62a71dbcbd91beU, 0x3d9a62563daafd81U, 0xbe527edebe881d5cU, 0x3dd0e3b3be1e55a5U,
  0xbdebd7c0be76fd23U, 0x3e1e04463e046437U, 0xbe0ef2cebe376e2fU, 0x3e5b7f32bd63ffa8U,
  0xbd6b03d53e549a77U, 0xbe5fe083be29fea5U, 0x3e8a43ad3e274822U, 0x3cc42e723d9d0df4U,
  0xbe6d9e2f3d58d591U, 0x3d70d4913e0efc63U, 0xbd5a45683ba40a57U, 0xbe6e70613be7e1d3U,
  0x3da7f6eebd87629fU, 0x3e10fa7cbe672956U, 0x3e8a47013e5c51f4U, 0xbe41f9a93de27333U,
  0x3b9cab86be01b45dU, 0xbe81b4b8bd2b6d4bU, 0xbe6b41ca3d9d7061U, 0xbe5b3dcdbc15664eU,
  0xbe11ade43e3e64d0U, 0xbd7d68633db1fc94U, 0xbe05920bbba191a4U, 0xbd469a4abe6e5f52U,
  0xbd872ef83e21371eU, 0x3e547fee3dac685bU, 0x3e6272a33e1fa6d6U, 0xbe6c5de0be59cc16U,
  0x3da8e1a5be02990eU, 0x3de7fa083dbff3aaU, 0x3e635bf2bb8f9010U, 0xbe0a4b9abdbb24e2U,
  0x3c9e7f3c3e775f74U, 0x3d68c7cbbe4578adU, 0x3dd8ffe23e625137U, 0x3e736f9ebe196dc7U,
  0xbe4063ecbe777f99U, 0xbbfc6ce2bdc4ccecU, 0x3e6484a33dabb717U, 0xbdfbdb11bd94d22dU,
  0xbdd01cba3dddfa48U, 0x3e6db05dbe47a787U, 0x3e11f6893e252cdaU, 0x3dba1cd73dfb51b3U,
  0xbcd6db5cbe4ed2f0U, 0xbdb9f9243dcade82U, 0x3e2759f53e4c6ea2U, 0xbd9d58e5be504ddaU,
  0x3e2ef70bbdd57677U, 0x3dfe21473e049766U, 0x3cf4128b3e832009U, 0x3e8d8bb73d13b13dU,
  0x3ce0d68fbdafa102U, 0xbd272204be85d8b5U, 0xbe5eeacc3d995cd6U, 0xbd20d7febe83a9dfU,
  0x3e5a29ae3d4da14aU, 0xbcfaf7423e437489U, 0xbc93697fbdec6088U, 0x3ddf24e3be32511aU,
  0x3e72cb2abce5b7cbU, 0x3ccc1cc53b936b74U, 0x3d056917be4233c5U, 0xbe5d95f03c8f51e4U,
  0x3d7252c3be5e8963U, 0x3da93b943e60dce4U, 0x3e8327633dc29a15U, 0xbd0f678dbe83635aU,
  0xbe8c7bc03e04967cU, 0xbe0de973be5f9d14U, 0x3d05fec2bc2cb1a7U, 0xbe020b8c3cda9ae9U,
  0x3a2f89c8bdd25fa8U, 0x3e815e5d3c9f5ed8U, 0xbde67eec3e0cf95aU, 0xbe0a6a5d3cee75e2U,
  0x3e728d773e8f64bbU, 0xbd0caa013e057d18U, 0xbde66a75be5fdbabU, 0xbd6281d83e5d5b2bU,
  0x3d8c4bb1be55717cU, 0x3c897806bc018d85U, 0x3d410fec3e4c12c6U, 0xbd55d492be24b5feU,
  0xbd72a4babc991f28U, 0xbdbb78a23e3e1eb2U, 0x3e485c5d3e50cb5fU, 0x3d50b145be61c7f9U,
  0x3d97e0ed3c1134dcU, 0x3e34c55fbe382216U, 0x3bf870d93dccda1eU, 0xbda277783e5a2353U,
  0xbe1749aa3e0e8a56U, 0x3d82c7393e0cc6c7U, 0x3e2144933c8ce47cU, 0xbd8ad661bda698fbU,
  0xbe22e4c73ddc8924U, 0x3c63deb03d89209fU, 0x3e664dfa3e81e2a8U, 0xbd8e8172bcb1c7fcU,
  0x3e2eef083c3c9dcbU, 0xbd6fc944bdbfb0e6U, 0x3e0875f3bdec8de7U, 0xbde1c1f9bd12df49U,
  0xbe150d313e8b28f0U, 0xbd5eead4be854c82U, 0xbe733599be69d327U, 0x3e4da731bd07ca16U,
  0x3d8f05ddbc8e3c22U, 0x3d782239be27748cU, 0x3c7106183d394e10U, 0xbd8f881bbd2e2224U,
  0xbde706ebbdb24b25U, 0xbe6c8dc63e52bf92U, 0x3bf55f65bdb452c1U, 0xbda0deda3e131415U,
  0xbcb9bdad3c9481e5U, 0xbe0067353da1e528U, 0x391d4783bb5621baU, 0x399a4c103d0d9b48U,
  0x3e4125cf3e65433dU, 0xbdfa4edebdcdd623U, 0xbe437dd9bc786c6bU, 0xbdec87a8bdb83d8fU,
  0x3d8e25c5be3da7a5U, 0xbd1bc5e43e3d0fabU, 0x3e46cbc9be0cc376U, 0x3d30cf843cc9d5a0U,
  0x3daa83fdbe1e817eU, 0xbd84d601bd824222U, 0x3cf277573d692cf4U, 0x3e149fc7be059e2fU,
  0x3e2f213dbdd55135U, 0x3e35cf133c0ff75cU, 0xbdf3b7ddbe4c53b9U, 0xbe3ef8a83dcaf0eaU,
  0xbdca5fce3d47f841U, 0x3ce02d603e58a751U, 0x3e10094ebc7ad939U, 0xbe669c0cbe1b7a82U,
  0x3deb870b3e2a1953U, 0x3dc9e9483d7098fcU, 0xbe019f87bd15a595U, 0x3bfa2809be25936cU,
  0x3dcb87e7be40a6baU, 0x3daf05f6be36b042U, 0x3e404fa23d3d9275U, 0x3d229020bc87a63bU,
  0x3df5885d3e078a3cU, 0x3b909cf1be2c160fU, 0xbe40ba25bc4e060eU, 0x3da1b8cb3e2293e0U,
  0x3d925307be468ef7U, 0xbcbd7900be501685U, 0xbe17e71b3df9d90aU, 0x3dfe62dd3e516eb5U,
  0x3d8dd15dbe3f3594U, 0x3dd0841cbe0214caU, 0x3e5dd012bc835a49U, 0x3e282d573df43fadU,
  0x3cf5afcf3cabbf61U, 0x3cf01ce2be28287cU, 0x3e008cb53d61ff8dU, 0xbdc99802bdd81ed3U,
  0xbe290ce93e13087cU, 0x3e2440c0bd24dc12U, 0x3e0c54f5be148acbU, 0xbdb47664bd8cdbacU,
  0x3e1a39a73e0e2a2fU, 0x3e2a15ebbd620db4U, 0xbd81138c3e1cf3ebU, 0x3d6388193d33bd1eU,
  0x3e0a492ebde6b12bU, 0xbe57dd683cab86cdU, 0xbe2e471d3e4d7dd6U, 0xbe09ee2dbe1ddbe9U,
  0xbe0329e5bd79d7beU, 0x3d86dd28bdbc5df6U, 0xbe0760e3be54c464U, 0xbe436322be1bc8b5U,
  0x3dc930cb3e2b11efU, 0xbbc57921bd5fe5faU, 0xbd58375c3d54b45cU, 0xbd75008bbd5411dbU,
  0xbe5d84b03da4bce5U, 0xbe4d0a593d1547f2U, 0x3e3b103bbe338c0eU, 0x3df1e3cfbd857ba4U,
  0x3dbb6bea3de0a3baU, 0x3e2aed7d3d17b904U, 0xbe425e61bb3db7afU, 0x3d793183be0566e8U,
  0x3de75533bc8e651dU, 0xbde993fd3ddfaf42U, 0xbf929bc13f87a0a9U, 0xbe6630fabec9cf10U,
  0x3da2e422bf84d2a3U, 0x3e776a363f5d04e9U, 0xbfbf3fc9bf3df94bU, 0x3f8f14f3bf13f74aU,
  0xbdb38925be101abeU, 0xbeaeb2efbf343630U, 0x3dac3ab7be90f6d8U, 0xbebe62dabefcafd1U,
  0xbf2b60f13e62ed68U, 0x3d5ef5bb3e32d901U, 0xbd5a2d5ebd688165U, 0xbe54e4d93bcd5277U,
  0x3e418a183e917e83U, 0xbe62a116bdaf9c8bU, 0x3e53a446be88f907U, 0x3ea000fe3e82ff2fU,
  0x3eabf16dbe854e33U, 0x3e584082be06f988U, 0xbe8fbeddbd1d828bU, 0xbc8f3f56bd0c038bU,
  0xbc68a4643cfe7c29U, 0xbcc9f0de3bd16c58U, 0x3c8d92083c259f53U, 0x3ce40a0cbd21c4cfU,
  0x3c180634bd1df011U, 0x3d26113cbb28c0faU, 0xbc25a33b3d0e28aaU, 0x3bcc3786b884f612U,
  0xbc1ab9873d364cf2U, 0x3d07c08cbd121833U, 0xbd2afc4b3cbffe3dU, 0x3c88865dbca54146U,
  0xbc97942fbca9ca8bU, 0x39c1aa373cd9e551U, 0xbd0cf977bc216c32U, 0xbd1f9695bc70d902U,
  0x3c8799d0bd1dfd60U, 0x3cfd2a853d0a628fU, 0x3b94f15b3cc39684U, 0x3c8d805d3c8c7594U,
  0x3d09ba66bccd8d7fU, 0x3d1b44cb3c9d412bU, 0x3cd36961398836f3U, 0xbbf369df3c5f69beU,
  0x3c1682ce3d1b22d1U, 0xbd1ac5283c9381d8U, 0xbcceaaf7bbc48dc9U, 0xbc816c723bac636eU,
  0xbce2e8b23cdd1fdaU, 0x3d2171d03d481f73U, 0xbc265328bcf226e1U, 0xbcc4d24bbcd279d9U,
  0x3c3043253cda5aa0U, 0xbbc1f89dbc44760bU, 0xbc98f8a8bce4caa2U, 0x3cbc00ad3b2c4b65U,
  0x3d0a66103d1767e6U, 0x3c5026a83d2af48dU, 0xbca474bab8df33d4U, 0x3ca0af443bf1921cU,
  0x3c301ef9bd1df1a0U, 0x3cc54483bb8595e0U, 0xbb5aa961bc8354d3U, 0x3b23f1ebbcaf108cU,
  0xbcba65fe3d0f3d7fU, 0x3c46fd6e3d28b5fdU, 0xbc824fdb3cc81648U, 0xbc1d2cbc3d1cd16aU,
  0x3cdf3b01bc56e612U, 0x3b5cc7a4bcb186c4U, 0xbcc51fa8bc958918U, 0xbcc1e063bc6e733bU,
  0xbc9dedf5bb32f891U, 0xbb9cca473d2d7c3cU, 0xbc68dc073cdcaea4U, 0xbcf5e028bca5e118U,
  0xbb86d6d93ca2add1U, 0x3d26d0d93bc29e27U, 0x3d117e9ebcd291c6U, 0x3d0cf7133cc82dd9U,
  0xb9d93463bcc800e9U, 0xbca6b4abbd1290ceU, 0xbd0341aabd2fdacaU, 0x3cc10f7bbc2d0b09U,
  0x3c9841f03938334aU, 0x3d5ee07bbc8aaba3U, 0x3c7556d63c9d6316U, 0x3ceb29183cc5d890U,
  0x3cd4a747ba359246U, 0xbca7f8a63cc8c57eU, 0xbcdcf85d3c2226daU, 0xbcf9f4683cd0d915U,
  0x3ce656a13d16bb04U, 0x3bd1fdacbc828b82U, 0x3c34501b3c13d7f6U, 0x3d281358bcca494aU,
  0x3cf296673cfa8462U, 0x3cb3a9b83cb49f78U, 0xbc81b71dbccf1f0aU, 0xbcb2e2e13c1c6870U,
  0xbcc981943c81b129U, 0xba1481543cae0c51U, 0xbb0d43bfbcb690eeU, 0x3ce7a6663ccfc025U,
  0xbc3d65613cc213ccU, 0xbcc6096f3c31970dU, 0xbc74b10b3c86ebe8U, 0x3aeac4efba80e41bU,
  0x3c751b64bd2bfa31U, 0x3c247c81bc3d129aU, 0x3ce0de933ca20cc9U, 0xb9a0c68ebc871becU,
  0x3d096af5bd15b75dU, 0x3c46c6453d5410e3U, 0xbd34da4e3b7e8f59U, 0xbcb056583d061b95U,
  0x3cafa765bc2597a8U, 0xbd144465bc75fe17U, 0x3d0b54913c7674baU, 0xbbca0f7ebca95ab8U,
  0x3a484de63c1fcad9U, 0x3d398bbdbc90cd28U, 0xbccd24a33bcabec5U, 0xbccb84593d159796U,
  0x3c0acaaeb9b78edbU, 0xbb7afe93bc3c3c1dU, 0xbcd444d0bc05048cU, 0xbcf67989bbc86603U,
  0xbd1ac4cf3b3a4c69U, 0x3d2daa21bc0c45dcU, 0x3d0cfafbbd00d8b2U, 0xbc004a71bcaf1de4U,
  0x3ccaa52f3cae419dU, 0x3d54115fbb8a356eU, 0xbcac823b3a91edfbU, 0xbbb2eeb73c1697eeU,
  0xbb92d8c3bce03938U, 0xbd13f26b3cc737d2U, 0x3cfd1d1ebc9fb647U, 0xbc03bd093d2d923eU,
  0xbcf150213b2a0435U, 0x3c41c09bbc152174U, 0x3c6ce67ebd256f9dU, 0xbce21caf3d15ee91U,
  0x3d12f721bb159dedU, 0xba9dd789bbbcd499U, 0x3cb121d6bc2b8066U, 0xbd187787bb1946f4U,
  0x3d02095dbca0cad7U, 0xbcf63412bc4d240cU, 0xbc882d6d3c0b1110U, 0xbc4547fd3d050a99U,
  0xbd1880a93bee0de3U, 0x3c87c05dbd199ed1U, 0x3cac717fbbba16deU, 0x3d5b29573bf8fdbdU,
  0x3ca5d534bceb9860U, 0xbcacef7f3c03f802U, 0x3bf87d8f3a66c860U, 0xbc91fd793d0ffbe4U,
  0xbc2caa71bc5f8d44U, 0x3c9f3b25bd35b840U, 0x3c933e8bbc417219U, 0x3b8e6e4ebc20e2bbU,
  0x3c89da8abb6c8981U, 0x3b96bb5c3ce0b1e3U, 0x3cd1f00bb98b1ef9U, 0xbc0ec5133bc5b713U,
  0xbc9916bbbd3b0295U, 0xbceb3fbbbc80c2c5U, 0x3b9503eabc121739U, 0xbc98f328bc891916U,
  0x3cc29beb3cb91964U, 0xbc9b30373c8e5662U, 0xbbd3cfe23ce474aeU, 0x3d1334bcbd00990bU,
  0x3c3f44ad3ccce4e0U, 0xbd300aea3cdb9d92U, 0xbd061f9ebcf76bf1U, 0x3d1d6ff43d36fae8U,
  0xbc8c41fabd03d5a6U, 0xbc3a173f3ce77615U, 0x3c45159b3d04935eU, 0x3d287c8b3c5a07a5U,
  0x3c9900cfbcae54ceU, 0x3a5c51d13c5496a8U, 0xbd4a86d0bc189803U, 0x3ab9c9bbbc6e8e8cU,
  0x3bc07f72bc8e071fU, 0x3d043242bd1c9181U, 0xbce7f8e53c0dca61U, 0x3ce95e3e3c832681U,
  0xbc810dcf3cf0e1f6U, 0xbaa5d2483cd9f572U, 0x3d39d42e3c0ea5fcU, 0xbc7de4bc3d066059U,
  0x3cf5d87e3be95a06U, 0x3d1254e5bd091b15U, 0x3c4daf6c3d261ec7U, 0x3ce35c023b4c7d7bU,
  0x3c3530b9bc30ad15U, 0xbce8feac3d1845b0U, 0x3c254c93bceb5d30U, 0x3d1f9ba13cbca746U,
  0xbc3d1ce23cefaa74U, 0xba833a1fbc7bc098U, 0xbc477a1bbab8cc57U, 0x3cb68047bc5e914cU,
  0xbcd0fd79bb178bedU, 0x3ced04c0bc7cba84U, 0xbd15981b3be21d36U, 0x3c6b82ca3d092011U,
  0xbce080743ce1813bU, 0x3cbc0473bcb9c114U, 0xbd01c87ebd23f5e4U, 0xbc6e58af3d16ffb0U,
  0xbc63baaabcc88e62U, 0x3ceba41c3d5446b0U, 0x3d662bef3cff7aa6U, 0x39cbda40bd1fed9eU,
  0x3c908429bd05932aU, 0x3c857e09bc0bcc74U, 0xbd08cd7bbc68b48dU, 0x3cd2d2ea3c7a5240U,
  0x3cd8821b3cdbd002U, 0xbc9b89c03c875ad3U, 0xba9fb0b73c6c493eU, 0x3d4947653b9b8635U,
  0xbc761478bc7fcfbeU, 0xbd4d51503c3d0339U, 0x3cb70ed33c474770U, 0x3cdedd52bd077c22U,
  0x3ce5798a3b3b2d5bU, 0x3cc59d88bb1279d9U, 0x3a0a172cbc457effU, 0xbc6c99783bda11cdU,
  0xbc28f735bbf73bbfU, 0x3c12cb37bc86e343U, 0xbcec584ebd2dcd05U, 0x3d503fd9bc16351bU,
  0x3d241cab3cc05f08U, 0xbce2e78d3d1d1cc9U, 0x3d49deafbb585b9bU, 0x3cb1f0063cfdbf22U,
  0xbc8152c73d145e5cU, 0x39b52a9abd49b537U, 0x3cabae203d0130ffU, 0x3ced5dce3ccd68fdU,
  0xbcbe0ec43bc540c4U, 0x3cafabf7bb835cfaU, 0xbb1513abbccb0183U, 0xbc4c1d353d198226U,
  0xbca250d53cf007e3U, 0x3b03005d3baac6e5U, 0x3c4e52553c2382d0U, 0xbd0967163cb85afeU,
  0x3aa797753d190337U, 0x3b36df483bfbc3ecU, 0x3ad3170b3d297c17U, 0x3d0f45d4bcca6604U,
  0xbc4ce0fc3cbce833U, 0x3c0a9b923cf70eb7U, 0xbcaf89333cb997e6U, 0xbc2c49013cf7eed9U,
  0x3d12c691bcd86a37U, 0xbc1007a43c79b589U, 0xbcbd60e23ca00fa3U, 0xbd2470e13d0b3269U,
  0xbbf4bb973cb6d92eU, 0x3b5664f93c1ce492U, 0x3d010e8e3848fe38U, 0x3cd32244bc5ebfcaU,
  0xbd0b76993c6c1881U, 0x3cb49d2abc892cf3U, 0xbd1acc593d06fb4aU, 0x3cec09623d1c396eU,
  0x3d226f9b3d001580U, 0x3cb9d63abb9537d0U, 0x3d1daea43aca934cU, 0xbcfab35fbb798ea1U,
  0x3ba9ca7a3cbc75e9U, 0x3d34f7b9bc9f172eU, 0x3ccd57913d4ff1a4U, 0x3d0ba9cebb8201bbU,
  0x3a9ef9db3c6129e2U, 0xbcf3864bbcface9cU, 0xbd23771abcd781f5U, 0x3d31793bbcf9bec9U,
  0xbcec183abc906b3cU, 0xbcd7bd2c3c1586c0U, 0x3d24298f3b158d38U, 0x3c8557923c8903c1U,
  0xbcbd5cbc3c0e63f6U, 0xbcb49e4ebccc96f9U, 0x3d49a7003d47225eU, 0xb9b26621bd26932bU,
  0xbd033416bd1ddeebU, 0xbcc58d4cbd356546U, 0xbc6ea5fe3c231ac3U, 0xbcd3f6dfbced01ffU,
  0xbb7d3f1bbc2754b5U, 0x3c5b66643d0c73b6U, 0xbc649db63d4fd2e8U, 0xbc8092473cba507fU,
  0x3c25f7813c48134cU, 0x3c8762bcbc060daaU, 0x3ca64e1a3cb1d720U, 0xbbbb8e7fbc1f2636U,
  0xbbc0ebab3cf65053U, 0x3cf9a8dabc9e4eb5U, 0xbca8d3183b6d145eU, 0x3d2975453b8e647eU,
  0xbb4ffaedbca00e4dU, 0xbcada4763bfde8d2U, 0xbcc4126fbcbf5e2aU, 0x3a1504783c9ca398U,
  0xbc7fb0d2bbf64044U, 0x3c2a436cbc0c4b0bU, 0xbc9866c8bca5679aU, 0x3cbe6dea3ccaa4fbU,
  0x3b704bdd3c928506U, 0xbcba121c3bc879b7U, 0x3c716014bd0d3685U, 0xbbe3fbffbc222a10U,
  0x3c59b2b83cfcea8cU, 0xbb4012cc3b1415fdU, 0x3c439f4fbc9d7297U, 0x3d3974713bd298c0U,
  0x3d0c18843d10d276U, 0x3cb12f463c42aa1bU, 0xbbaf85dc3d007773U, 0xbd0c6eecbcb28efbU,
  0x3cd9a43cbcd5f22fU, 0x3ca13e6cbcccd534U, 0x3c139a4cbbd33686U, 0xbd07b329bd407194U,
  0x3cc8c72bbcf27a4fU, 0x3c34f1743be59f35U, 0x3c8b31f7bd0ef0ecU, 0x3c2a91ee3cf57c13U,
  0xbc79b8f33cc0bd40U, 0x3c9bd2fc3cad3563U, 0xbc9ba4f7bb0da3abU, 0xbc5766563cf36f5cU,
  0x3b01847e3c2dcc77U, 0xbc81ddcd3bd9066fU, 0xbc9cf14fbb309b56U, 0xbd23bd13bd24397aU,
  0xbcc6b2d83c77f9b6U, 0x3d4683393cb60674U, 0xbd14ea30bc509f46U, 0xbbd73f383c574a29U,
  0xb8e65c843cd91f37U, 0xbc193d93bbe599eeU, 0x3c9723ecbadf9986U, 0x3d17c302babcf397U,
  0xbc73d7c8bb6874a8U, 0x3cc44a473c697b47U, 0xbc924da73cb63aebU, 0x3bd173ec3c9733edU,
  0x3c9505ccbab40b1aU, 0x3ce0fbbd3cb4e3c8U, 0xbcbc1284bc9806f4U, 0x3cfbf7a33c7a9e99U,
  0x3ce15db5bbd7a685U, 0x3d4ae7973d45c87fU, 0xbd0bc0e8bada8132U, 0xbcf74c76bbed8468U,
  0x3d2716643d0564d8U, 0xbc73f9283d27fa83U, 0x3c47c4d53b8355f5U, 0x3c110996bceb7891U,
  0x3cea9ba8bd012fbbU, 0x3d1e90cc3d11b7f1U, 0x3cd694c83cafdef4U, 0xbd1079a8bd182045U,
  0x3d2d34eb3bd07608U, 0x3d26a378bd066274U, 0x3c8c0da2bd10bde4U, 0xbc8cabd3bd08d3d0U,
  0x3ca04b533cf0689fU, 0x3ce6b75a3c87496dU, 0x3b523f49bd0408c0U, 0xbb3c1cb2bbc0727cU,
  0xbd07595ebd2072bfU, 0x3cfd2390bc790637U, 0xbce1d9b3bd2e886bU, 0xbcb009e93c7f90cdU,
  0x3cf07286bcdf7266U, 0x3d0d58d0bc6ba5d9U, 0xbd22642bbd1ae43cU, 0x3d1496f5bcb08514U,
  0x3d11202e3d44bb46U, 0x3ca1a7be3d2ed89dU, 0x3c9be27b3c2d1e52U, 0x3d442ec2bce1d9daU,
  0x3c45ff25bb33460fU, 0x3b29e9c13c970993U, 0x3c756ca1bd33dcf6U, 0x3c4b5cef3c423998U,
  0xbd0f9cc1bcbf894fU, 0xbc98bd353d50ad79U, 0xbccacd37bc50b402U, 0x3ca2b069bd01f8a0U,
  0x3bf02f603d16d22eU, 0xbd05400cbcfdf9c3U, 0x3ce339cbbc7856c9U, 0xbcaa36b83cdf1709U,
  0x3b0e8065bc602861U, 0x3d4c44693cfea8c5U, 0xbc4ffbd8bc9a1fdeU, 0x3c93d38cbd05c980U,
  0xbc34b169bc735090U, 0xbbaa2606bc687a57U, 0xbb80274b3cce963fU, 0x3c82d0e2bbf05809U,
  0xbcd93a463d36f158U, 0xbc73d28e3c907241U, 0xbce027f2bd01b9b9U, 0xbccaa51bbd399859U,
  0x3d098897ba82207aU, 0x3c49dd76badfc8dcU, 0xbca6a536b98528d6U, 0x3d27dc1ebcf1d5f5U,
  0xbc898173bc69b5c2U, 0xbd094121bcb6c70eU, 0x3ba0e0883c958b95U, 0x3ced37cc3d32e09fU,
  0xbd3833203d2f92bdU, 0x3d2124fc3b4ae5a0U, 0xbc2fb18b3cb9447fU, 0x3ce5d2f83c0e0b12U,
  0xbce2e87e3d10128bU, 0xba138cc4bc843ff4U, 0x3d18be033c8bf6e1U, 0x3c821310bc8c4d5cU,
  0xbb10920bbd03271eU, 0xbd2e440b3d16be81U, 0xbd2b96343cb54dd6U, 0x3bc5fd13bc2fe238U,
  0x3c097d6abc05951dU, 0xbcf8027a3d194e6eU, 0x3c8a1da13cde0807U, 0xbc7a72dcbd09cdedU,
  0x3ccf660f3c90f37cU, 0x3d0cf6203d3cf026U, 0x3d4110583d083b30U, 0x3d1cec13ba0a481eU,
  0x3cf4e33a3c4d1a9aU, 0xbcaaa684bc9bf488U, 0x3cccb4a7bccb8e2eU, 0xbbd8ba4d3d30eb2bU,
  0xbca851f5bd1e69b3U, 0xba000b31bb63e260U, 0xbc314d63bceefeb0U, 0x3d64b3b03c042444U,
  0xb8cd268cbd4da333U, 0xbd25cd99bacf546eU, 0x3d4f9c1ebd1628c0U, 0xbbe370663c201a28U,
  0x3c752d183c645eb1U, 0x3c6ece13bd369511U, 0xbd2b47de3d3ef38fU, 0xbc9e8e2ebcd1df0dU,
  0xbd37b1a03b977b56U, 0xbd0623f3bc2aeceeU, 0x3cfcc53c3cab4b4fU, 0xbcd1600d3d202028U,
  0xbc7d54f4bbf9f37dU, 0x3c15311ebca94720U, 0x3d347aecbcdfb2b9U, 0xbb6533243c73bbc2U,
  0x3d48e5bfbc14996eU, 0x3c1faf2bbd3fa220U, 0xbd44982b3d02102fU, 0xbbd50d4a3d216a3fU,
  0xbb0486103a2bfd65U, 0x3cc5c07f3c1e811eU, 0xbd1df5853bab5da8U, 0x3d37c3143c57525fU,
  0x3cb21d3b3cd4e966U, 0x3c8558223d16ad74U, 0xbb7c61f5bc9de1eeU, 0x3bb6f866bce1f105U,
  0x3a28105f3b97ee93U, 0x3d28ca0a3c215004U, 0xbcf65efa3d08886bU, 0x3d0574493c19acc0U,
  0xbd1884663d1a0a70U, 0x3b46bf063cfaafecU, 0xbc041651bcb1b0b5U, 0xbc3658613d2998e0U,
  0xbd279de6bbdaf49cU, 0xbc93c40d3d0e463fU, 0x3ceebe713cf87ef7U, 0x3ce21c863cecc43eU,
  0x3caeee893d0a60bfU, 0x3cb01050bd0a0412U, 0x3cc209bb3d0e2014U, 0x3c4a3a26bcdeca6aU,
  0xbc847c88bc376b27U, 0x3d0f338d3c5a16e8U, 0x3b9821fe3bd6e1bbU, 0x3d2eddd03c5e36a6U,
  0x3d0959ba3c81d7a8U, 0x3c83b54a3c60ec76U, 0x3d5eaaf3bbbe0b5cU, 0xbc5b50343bebc952U,
  0x3d033cbc3cdcc2d4U, 0x3c1e9167bd4d1338U, 0x3b28c6db3c9a7305U, 0x3aa117cf3d1fa4aeU,
  0xbccf40cb3c9790ddU, 0x3b03a0b2bd0ff44fU, 0xbca031fbbd0124f3U, 0x3d4e01663d3761daU,
  0x3d009645bcc70e2aU, 0xbc2b74fdbca624a8U, 0x3cecc5e2bcd3bbafU, 0x3d0dd22d3c3fdc7eU,
  0xbba1d40b3c0cc3ebU, 0x3d366a0b3cb54040U, 0xbcfae5693bb13cc7U, 0x3cebfdbfbc31db70U,
  0xbb0942a93c4a9458U, 0xbccad06d3caaf51eU, 0x3c202dd4bcaf22a1U, 0x3d1072883cd99539U,
  0x3cde774dbc464145U, 0xbd327a503abcb704U, 0x3d1460e13d0d1da8U, 0x3d0e9fbcbcf95f67U,
  0x3c67bc5abc889eecU, 0x3c78461abce3bb11U, 0xbcb7fae93c41c201U, 0xbc7c7acc3c832ff8U,
  0xbd188de2bcd0c755U, 0xbcafef4c3cd3cd31U, 0x394ca7833c952a18U, 0x3cad59f83c1877faU,
  0xbd088f693be617ceU, 0xbd2cbef23ca5e468U, 0x3d4953f5bd187b63U, 0xbc4bf75e3c01edf2U,
  0xbc72d1293c512a9eU, 0x3c73823abd06e8c6U, 0x3b8a13373c18aabcU, 0x3c35fc27bc84bd23U,
  0xbb3064d9bc8734eaU, 0x3c4ea75ebcb58fa5U, 0xbc636609bd0040a6U, 0x3b87603c3ca24e5fU,
  0x3baf0580baf0a07cU, 0xbcb73e483d0e9553U, 0x3d14dfef3ac09bf5U, 0x3c080cb5bcb1ad0dU,
  0x3d1df8943d2e1cb8U, 0x3bb1cce5bcb18a34U, 0x3d269a66bcb65988U, 0x3d1a37cabd28b01aU,
  0xbce773c2bc4fbbc0U, 0xbabb79f03d11e06aU, 0xbd217e0a3cd431ffU, 0xbc51873b3c1854c4U,
  0x3b739d3bbb14fc0cU, 0x3d014d253ca2f82cU, 0x3d044cf8bccd6dd2U, 0xbc8804ddbce74c9eU,
  0x3c508bbb3c4d1e52U, 0x3d10d675bc777fd0U, 0xbcfc79efbcb1ec57U, 0xbc9c09733cee0547U,
  0x3cabdf653ce03a26U, 0x3ce03a27bd20db12U, 0x3bb500fcbcce445fU, 0xbb098ae3bc5274a4U,
  0xbab5ea853c2f451bU, 0xbc2e8cfb3d3670e9U, 0x3cf2b09f3cc9de5dU, 0xbcb3d12cbd31c108U,
  0x3d080d793c801463U, 0xbccd3fb1bd306b3eU, 0x3d546b903d2fcc9aU, 0xbcf090b9bcc4ab9bU,
  0xbc477583bd1d71d6U, 0x3cc98fadbd38daa5U, 0xbc18f8a3bce5644aU, 0x3d05c63abaf90c9dU,
  0x3c9d2e603cdc0a9dU, 0x3bd9ec76bc46550bU, 0x3d264eb03cde1232U, 0x3c729dbc3caf2361U,
  0x3cae50663bd5f297U, 0x3c4d54f4bcb3b383U, 0x3d24f491bc288f42U, 0xbd12deb4bcfa08ccU,
  0xbb632189bca7930eU, 0xbcf98d3cbd578b63U, 0xbd340503bc56e251U, 0x3d087a6abb746d31U,
  0xbd2d49cd3cfd2c5eU, 0x3bbe6eee3be90954U, 0x3ba2869dba12b122U, 0xbcbdddfabc2f4a69U,
  0x3cd64d473ca5b4e8U, 0x3cd1aca33c34e7bdU, 0xbc87abc23c994fd5U, 0xbc9fdee0ba498323U,
  0xbca17c7e3ca05136U, 0x3caf51d7bcbdf76fU, 0xbd3528513cb2410fU, 0x3c3e928f3d2accd0U,
  0x3d1e16d7bc7462ddU, 0xbc154c113d1155c1U, 0xbc95cfc53b8f1a6aU, 0xbd16759dbcc82442U,
  0xbc992e533c31f8bbU, 0x3d36709f3bf83962U, 0x3d2865703cb75b71U, 0x3c899bec3bb32843U,
  0x3cc8e3fb3ce1b7beU, 0x3bba2203bcae3eedU, 0xbc25a058bcbef913U, 0xbc8c3e0a3cda7219U,
  0x3d07fe7b3be37493U, 0xbb593b0abd1d9d08U, 0x3d00028db9afea5fU, 0x3d1f80033ac9d50aU,
  0x3bd88dcdbd2ad0d0U, 0x3c2d020cbcfa5575U, 0x3c187469badc6395U, 0xbd1432a6bc7b0dbaU,
  0xbd196715bd0b7a58U, 0x3c648a81bc02d2abU, 0x3ce2bec6bc2bb8f6U, 0xbcce901abc8eade8U,
  0x3c3816febc32091dU, 0xbcac7fa73cba8a53U, 0x3d11a6bfbd26c1f6U, 0xbcffde0c3c2330f3U,
  0x3cf4ff8c3ce6d1d8U, 0xbd0e7769baeb820aU, 0x3d1bb58b3d0e7d0cU, 0xbcde8c18bce8e8ceU,
  0xbc3a43113c273f89U, 0x3c0a17d93caab5baU, 0x3cf35d3d3a0234acU, 0x3b01157c3ce7f8ccU,
  0xbc28ea1ebc8e5c1dU, 0x3cfe88e1bcd960d6U, 0x3b89eb6dbd0a592eU, 0xbcb7fca0bd0300fcU,
  0x3d0ac7273bedfdf4U, 0x3cc952ec3ccc38acU, 0xbd2489d8bacd1c14U, 0x3bba68aabb9e0c64U,
  0xbbafdf0dbc71c094U, 0x3cdf22bdbcb46859U, 0x3c2a46c2bcd2d356U, 0x3d1613123d0d499cU,
  0x3cdf341bbd091b25U, 0xba7305813d132c0cU, 0x3c705883bc52225eU, 0x3c4c3dfbbc03c147U,
  0xbb4d7a773d04a5e7U, 0x3cce2bb53cc570d0U, 0x3cb28c29bce1198eU, 0x3c9520203c58353cU,
  0x3cfeaebabc049456U, 0x3d1afddbbcd1517aU, 0xbc3616583bf546feU, 0xbd18e2643c976679U,
  0xbd2c30e93d0d771dU, 0xbd12eaf4bce8ce43U, 0xbc541f483adb8ddcU, 0x3c07aa25bca19602U,
  0xbc40b158bca2c570U, 0x3a1834b73c73a5cfU, 0xbd21c588bb8ecb11U, 0x3d0370c83d061914U,
  0xbcb5f9cfbd21f438U, 0xb7deafa7bc0b22b6U, 0xbc1537d53d05e97eU, 0xbc680647bc1b841aU,
  0xbc367b83bd25d936U, 0x3d1730bbb9e07748U, 0x3a3311ee3c118e3cU, 0x3c547579bc449b02U,
  0x3cc7190a3d0e64fbU, 0xbca0ea8e3c8e7959U, 0xbd2020e9bc949dd9U, 0x3ca2451c3cd721a7U,
  0xbd2372273cfde254U, 0xbb474ee23cf52513U, 0x3c59dfa23cfe7609U, 0x3c888fdfbd26bc88U,
  0xbcf7bd35bbcf17e7U, 0xbc6817ef3a8742b4U, 0x3c994a613c3277caU, 0x3d01eb09bb19ea8dU,
  0x3d1ee8c8bcd35816U, 0x3a32fcc7bd07bf44U, 0x3b8d60e2bcd672a3U, 0x3d10d2e8bbba0193U,
  0xbcf67fa0bbb03d22U, 0xbd2bd2b93c2ac0a1U, 0xbca2322b3c3d8c20U, 0x3cd26e6f3c0c9c35U,
  0xbc82ebe9bc87b4d0U, 0x3d1b42673cd98aedU, 0x3cd574573d0d234dU, 0xbce486b63cb9c2e1U,
  0x3cfcf9c03d202383U, 0x3cb79ff9bc08341dU, 0xbcdcec94bc02c990U, 0x3ccfc7efbc61cd3eU,
  0xbd0487c33cd7c64dU, 0x3cb58b6fbd04c76bU, 0x3cc333cbbcc174a1U, 0x3bbfcfa93cdeba8eU,
  0x3cb903d7bc8266e4U, 0xb851e738bc80e5aaU, 0xbb891f2c3c8b1368U, 0xbd0b5d6c3ceca0a1U,
  0xbd23faee3c6edb76U, 0x3beb4e553cf6bbadU, 0xbd077a80bbbfaf25U, 0xbc318c45bce5b6e1U,
  0x3cf47187bc951b15U, 0xbd1c24b53d12aa62U, 0x3d1e66c53b8bf821U, 0xbbf78163bc97320aU,
  0xbcdfb010bce8240dU, 0xbc24fce73cef1974U, 0x3ce516a4bca897a7U, 0x3ccb0ba1bcf229c7U,
  0xbd072bcfbd0c35e5U, 0xbc1c2adabcf13fe3U, 0x3ca1d730bd132cebU, 0xbd054acabcd34aaaU,
  0x3aa257e43c631ef5U, 0xbd130bd0bafff723U, 0xbcd92966bbb4ac71U, 0xbc3384533c26037fU,
  0xbbbe6b0dbb0d76a4U, 0x3d1e271b3b89218aU, 0xbc736571bcb4869bU, 0x3d0e1bad3cf6c90eU,
  0x3ab12062bcb5f3c5U, 0x3d1a5310bcda5b54U, 0xbd1c5f35bcb8d505U, 0xbd06781abc1f1f2dU,
  0xbd164d56bd1c2d82U, 0x3c086624bcfa216cU, 0xbce1a9f2bd16b255U, 0xbc0351f03ca4bb79U,
  0x3c7e341bbc07f2d3U, 0x3d09ec313cd09693U, 0xbd1e1414bba03673U, 0xbce3fb953c38aefdU,
  0x3b76e912bc3692ddU, 0xbcca20c23cd3d924U, 0xbc6d4f01bcd156cbU, 0xba86baf03c91edb9U,
  0x3cc8edd1bc857f1bU, 0x3d030cdbbd1b1c2eU, 0xbb7261f6bd12da32U, 0xbbe3bf863c08f393U,
  0x3d20cc1cbc9b951eU, 0x3c5d6a073c2aa9a4U, 0x3c827b62bcc86ddaU, 0x3c69731cbd0237f3U,
  0x3b6a07f03c4ba421U, 0xb9b5b1adbc895633U, 0xbcf6ba5ebcb36ff3U, 0xbcab54553cc90c01U,
  0x3c0132cfbd128c27U, 0xbc8f7fd8bc39777cU, 0xbcd40d7bbce6641eU, 0xbc8a89efbb7b625eU,
  0x3c5fc385bc3a5d1eU, 0xbc997f64bc271fcdU, 0x3d0d4da23bb549e5U, 0x3b279cd03c24b343U,
  0xbd256fe9bb848be9U, 0x3c947bc63d06d329U, 0xbcd4c0ed3c71fe54U, 0x39b3f5d8bc9cfc66U,
  0x3d0794933c87d471U, 0x3d0061aa3d0f0eb3U, 0x3bf9a12ebd291685U, 0x3d03d087bd19cc01U,
  0xbb86497a3cec68bdU, 0xbd05a787bd1503ddU, 0x3c645ce9bccd35c7U, 0x3c07ce07bcc2eb06U,
  0x3cfa5b61bbf2d42aU, 0xbae64c99bc54e9d4U, 0x3cade4553d1b7baaU, 0x3c85de56bd1e3572U,
  0xbba62d3ebcd59c06U, 0x3ce40f423bfcf950U, 0xbc2d8559bccccf1cU, 0x3ccb66903cb556abU,
  0xbcdd1eb8bc9d4535U, 0xbc56e5c63ad5b25bU, 0xbc18e154bbac5176U, 0x3d0692dc39ed5bfcU,
  0xbcd0d5b3bcc9b046U, 0x3ce1ce83bd1628deU, 0x3c1c7999bc752954U, 0x3cd92c2d3c30b459U,
  0x3cf384a9bc21ef41U, 0xbd07a7e33c288d51U, 0x3c44feb63c884f85U, 0x3cc3eac3bc64a051U,
  0x3c209b48bc028e86U, 0x3ce0f6ecbd2f30cbU, 0x3cec59de3cfaba13U, 0xbcfda3893d05bb45U,
  0x3c98f2df3bb6a38cU, 0xbc904171bb38defdU, 0xbc07dae53cb86588U, 0x3c969375bc58f9d5U,
  0xbd00bfcbbccbd324U, 0x3c4817733b5c0de5U, 0x3d1578d23c1b93f2U, 0xbce7c05bbced9529U,
  0xbc51cb1c3d004a44U, 0xbc45b03fbd12bf86U, 0x3cb8a2013d1b62e8U, 0xbc569eb83c38b8a9U,
  0xbd24d3763cb6b283U, 0xbc08dfe9bc0cbfc8U, 0xbc8be3f9bd144bcdU, 0xbd18218c3d04fbebU,
  0xbbd105c83cc534cdU, 0x3d1f9aa1bc217728U, 0xbd0262e43d1f80abU, 0x3c9c883f3c8ea816U,
  0x3d0001863cb93e36U, 0xbc9f26a2bd2a708fU, 0xbc1b4d2ebd22a4e3U, 0x3b7f1c03bc490052U,
  0xbd26aac83cb9c1f2U, 0xbd03fc29bc393fc2U, 0x3c2338fc3cb2d9e3U, 0x3cd9acf3bcdaf5eaU,
  0xbcd261b83cec4e6dU, 0xbcb0a6233cb675edU, 0xbcb2fdb4bca91942U, 0xbcca5fc8bcb9481bU,
  0xbd0105743ae0a911U, 0x3d09f29d3d1c82cfU, 0xbd29f6d43c941ba8U, 0xbc963c19bcacebe0U,
  0xbb8d46ecbc860652U, 0x3ca9b4ecbc7b3b32U, 0xbd0618ff3c9a11adU, 0x3c7d6bb4bad74c3aU,
  0x3d04dfd2bd160620U, 0xbc6407653b118867U, 0x3c83d5623c108c44U, 0xbbb839013c3d69b1U,
  0xbd2030503ca940f7U, 0xba5cb08c3b00282eU, 0xbb8b6a963cdb30ddU, 0x3c780fe53c9d335dU,
  0x3d07cb573b971c5bU, 0x3d0d2c97bd093a67U, 0x3af639ddbc9f2466U, 0xbd141c7f3d1a631aU,
  0xbcdc1e78bb9f1181U, 0x3ba181953d109254U, 0x3ccbfde53ce7c228U, 0x3c55ba3bbd20b785U,
  0x3c4e43f33c8afb34U, 0xbc8ce255bd2c73cbU, 0xbd08fbee3d0592adU, 0x3adc561cbcef42adU,
  0xbc53080abd279bd7U, 0x3ca07fc9bbe0634dU, 0xbbaa76d73cf2411eU, 0x3bb9df65bd00821cU,
  0xbcec305ebd2493adU, 0x3cdd0be43c8d8855U, 0xbca8b7203cf9bce0U, 0x3c3eda7dbcdb3456U,
  0xbccf52eabd0d4aa6U, 0xbcc9d06ebd204908U, 0xbd036c173b0f9946U, 0x3b62312f3c944cadU,
  0xbd1c7646bc3ea3b0U, 0x3ce0a4bfbb40fdf2U, 0xbd10c104bce54f02U, 0x3bae52643d020395U,
  0xbcbf98e43c28674fU, 0xbd0c825abcdfb26dU, 0xbbad156e3c16c984U, 0xbc539bda3cdfeb8aU,
  0xbc003639bd237d6dU, 0x3cd9e2b23d17752eU, 0xbd02503f3b8b0b5bU, 0x3cecc589bcf5e332U,
  0x3c99cbe0bd18ba5fU, 0xbbeaa753bd123152U, 0x3c96b7733c57daeaU, 0x3c9f3ea5bcca7226U,
  0xbcdd8eb5bce1c813U, 0xbb5de89dbb2790cfU, 0xbd226e59bbc463b5U, 0x3cacf8bf3c600c7eU,
  0x3bff82ddbcbf6e3cU, 0x3d131d5bbced7501U, 0x3d07175cbc37691bU, 0xbcaa8ebcbc4a6d3fU,
  0xbbb6de983cc0e6d0U, 0x3cd6f2a9bb2c82dbU, 0x3ce507393b948d8dU, 0x3b92ff413d25568cU,
  0x3a8fbbf43c6ee06fU, 0xbd10910ebc710ee0U, 0xbd13bb5ebd13eb09U, 0x3c0884d73cd82708U,
  0x3c5fa10e3c3761e7U, 0x3d0970bd3bae7ab1U, 0x3cea527abd17abbaU, 0x3d15d1d13d1ef913U,
  0x3c37177fbc936752U, 0x3bac6edf3d158823U, 0xbcc54ba4bc0ae3a6U, 0xbb2c1697bb57722bU,
  0x3c9ae1afbcdc009fU, 0xbbf08a6e3c58440eU, 0x3d1f0c31bc078b90U, 0x3d003db33ca88c19U,
  0x3c59b627bbd16a24U, 0xbc7875983cb04eacU, 0xbc8254d4bc664ec4U, 0x3b3f26f9bc6bffe8U,
  0x3bf4249c3d27b1a3U, 0x3d3ad98cbc0bd42cU, 0x3ba4e640bd034d29U, 0x3bfbd7d23c952216U,
  0xbce9b34b3cac6315U, 0xbb9d584ebd0e49d9U, 0x3c79246a3c7fa9b5U, 0xbc08bbc33c744a73U,
  0x3d2b743eba71a10aU, 0xbb46f42b3c3de8ccU, 0xbcd0a4b5bd0c4449U, 0xba871aff3b5673d3U,
  0xbc2f3f28bd0b32efU, 0x3d2d44b53d1d4f57U, 0x3d2284153cd0fd93U, 0x3c8cd057bcb9f2caU,
  0x3cbeb4113d42111fU, 0xbd256556bab0d402U, 0xbcd27565bc1d3e6eU, 0x3b85b265bce37ecbU,
  0x3a86fe88bbd4cdfaU, 0xbbc1e22ebcb61a89U, 0xbc0a79f5bd09867fU, 0x3c7ed89bbb43ce41U,
  0xbcacef5cbc4a5783U, 0x3c5bdd3ebd0ae26cU, 0x3cc1dfb5bc51d0dbU, 0xbcbac6053cde6850U,
  0x3cbd963d3c69b90dU, 0x3c2383863cbb540cU, 0x3ccfa4b4bc20ed61U, 0xbccbf8c4bcd86bafU,
  0x3b69c25ebcb084d6U, 0xbc6af052bd05dffdU, 0x3cf769c13d0eb796U, 0xbc4d97d6bc2d43e1U,
  0x3d149c6f3d0e65c5U, 0x3c365564bd1413cdU, 0x3ce9ca76bbbe993fU, 0xbd1ed583bcd77615U,
  0xbb67ebe7bce8fbe9U, 0xbccfd1553c1b1890U, 0xbcaeb5e93c84da18U, 0xbc6f4ae23cf24ffbU,
  0x3cd3709d3c81658cU, 0x3cd5a576bd0763cfU, 0x3d2f2ff2bd05c548U, 0xbbcbce95bca3c9dbU,
  0x3c4b7dde3c9412d6U, 0x3d1c26b6bcf994a3U, 0xbc83c2123d292875U, 0xbd0847ccbcd7073dU,
  0xbd2701e0bb94a58cU, 0x3d1230c6bbc9dddeU, 0xbc674b5fbbb61cedU, 0x3cde96b2bcccf623U,
  0x3c263c203d02c676U, 0x3d2431f9bcd4c12aU, 0xbcada231bd137823U, 0xba148203bcd16215U,
  0x3d16fd52bd055fe9U, 0x3cb365743d0a4263U, 0xbd0a20a33cbf38d5U, 0xbd18d2383bbb5657U,
  0xbb8e438bbcefce0cU, 0xbd0c605a3c9fa650U, 0x3cdf583abc2d4644U, 0x3c4b1e683d2eae39U,
  0x3cb329673d223f13U, 0xbc94ff633d0241e2U, 0xbd0d898b3baae6b6U, 0xbc992c69bd1360f1U,
  0xbd1241cf3c5e55b2U, 0xbc3af97e3d192bf5U, 0x3d03d0a33ae0b98cU, 0x3af328773c19c571U,
  0x3c6565d0bd0066f3U, 0xbaf8b0afbbaa35ccU, 0x3c48f513bc893436U, 0xbc6c7a1b3caab318U,
  0x3cfb0247bd1e96a9U, 0x3d286d5fbd0aaa27U, 0xbb606e69bcf2d0c2U, 0xbcdb4857bd1353c7U,
  0x3b9462dabbcbc87bU, 0xbc361bbcbc13b239U, 0xbd13d89bbcc4be31U, 0x3cb6aa7d3d147ecbU,
  0xbb32cb273cef697bU, 0x3c5c6076bc2aba2cU, 0x3afee4493ce97efeU, 0x3c6c5b21bc8a2a37U,
  0x3c628831bcac55d0U, 0x3bbaebe9bb038bb6U, 0x3a17ef82bc5a28bdU, 0xbd0d75c23d058f8aU,
  0xbcff56a43c893044U, 0xbbb791d8bae6a59fU, 0x3cc6db453c682cdaU, 0xbca4bfd4bc58bedbU,
  0xbcf1697abcd75409U, 0x3ccb17603ba84742U, 0xbd1e36393c9efe4cU, 0xbc2cd64a3d2015e6U,
  0x3a675cd0bcd54987U, 0xbc057f583c69955fU, 0x3cac1a5ebcc6ecf4U, 0x3d065a0d3d04c15dU,
  0xbcd3a7743b3720eaU, 0x3cb80274bd14ac8cU, 0xbc36dd473d00c7e5U, 0xbc9d4c10bbf2f783U,
  0xbbf9c6a0bc65a3a5U, 0xbc96fdcabc4b0df3U, 0xbc40205bbae5f91fU, 0xbca73af73ab2a644U,
  0x3c521992bcaf2bb3U, 0xbc2b2033bb86468aU, 0x3c9cfbb73cd28932U, 0x3cf90ec1bd1ca512U,
  0xbc4e6930bd187d5eU, 0x3c6a39783cca0ab7U, 0xbc25f582bce20291U, 0x3c2766eabbf78e0cU,
  0xbc9bd2a6bcfab6c8U, 0xbd325207bb45adafU, 0xbcd7bd473caa2f32U, 0xbcc4af703ccd9481U,
  0x3c072a1cbcd9c04eU, 0xbcdb8a2d3ccf3807U, 0xb90ecedcbcd789f4U, 0x3d00beb7bca7f89eU,
  0x3c257d3b3b387ccdU, 0xbc5b5bf8bc786932U, 0x3d087b06bd039060U, 0xbcb98136bca89cbaU,
  0x3cee14663d1b2195U, 0x3cc6b420bcbd0809U, 0x3b6dcd32bd36e96aU, 0x3d2d2b093b60bfd5U,
  0xbb6c93b7bcc4f051U, 0xbcb56f63bb5097fcU, 0x3d357ac2bce25ed1U, 0xbca27faf3cbda6ecU,
  0xbc7e17c73ce75eacU, 0xbd0bc6043bad41e8U, 0xbce7627dbd0cd68dU, 0xbc9fa7123d35685cU,
  0x3cc9f9d6bca62b28U, 0x3cef4465bc9b6b13U, 0xbcc648433c4e1a75U, 0x3c05ae4d3c3d5f8eU,
  0xbc672c9bbc3e183fU, 0xbd048a603c7c140eU, 0x3c677719bc49f53cU, 0xbcd804473cb6c5d3U,
  0x3c10cd08bcf3fe10U, 0x3cc72138bcfe8017U, 0x3cec7ec5bc0ff296U, 0x3ce57f55bc03f7c6U,
  0x3b4426fb3c9fb74eU, 0x3cad5352bccb1c20U, 0x3cd5380a3b184eebU, 0xbc026761bcd7b40aU,
  0x3d2ed775b9b211d5U, 0x3d04b9b03c337f9dU, 0x3d59778bbd128929U, 0x3d126f1ebb9adef7U,
  0xbc972d683cd85e63U, 0x3a6807523bcc6138U, 0xbc14568a3d2fe388U, 0x3b7777793bd1057aU,
  0xbce988bf3c338571U, 0xbb39a00abb2efe23U, 0x3c5d59963cc26932U, 0x3d0e68dcbcee99eaU,
  0xbc4c78913c862e82U, 0x3c92a3a7bc3ddc9dU, 0xbb990ec1bc3aa4a4U, 0x3c21c0153bbc00a7U,
  0x3ccdb3013d081397U, 0xbc9d7ce1b88e8d66U, 0xbca8dc2ebc6a4308U, 0xbce9f880ba31cd8eU,
  0x3cb0dbd93d0f298bU, 0x3b993e7abc965b6eU, 0xbd06fa2dbba3e69fU, 0xbcae8ab0bbb3e863U,
  0x3d3a4297bd3b5c6bU, 0x3cea67093cd1245bU, 0xbc758e33bca6c2eeU, 0xbc869f39bcd03585U,
  0x3d4340c9bcefb748U, 0x3c0269e93962cc13U, 0xbc80b2fa3d12b589U, 0x3c82579e3d00ae3bU,
  0xbd01f2a6bcb9f133U, 0x3cfedfbebba5cba0U, 0xbd060977bc50fa3cU, 0xbc4bf09e3d392491U,
  0x3d35465bbd11c111U, 0xbd1be3eb3c0a36b2U, 0x3c976c893a989428U, 0x3d1bb430bcbab4eeU,
  0xbc0e7941bd1caf03U, 0x3ccee7293cc8b0b9U, 0x3c10fdd83d2e2b25U, 0x3d00e6103cb5aff7U,
  0x3c800c27bcc76f16U, 0xbb0f17f83c898645U, 0xbbb70d2e3ce46a66U, 0x3d12b1f83d16634aU,
  0x3c7e7fb63cdd8b23U, 0xbd0fbbcb3d022ff5U, 0x3d427e2e3d0ede78U, 0xbcb90db0bd027b29U,
  0xbcdfdadcbbd9d13fU, 0x3cc60ae8bbc3fdaaU, 0x3c6a26a1bb89ded7U, 0x3cd1021abd2911a1U,
  0x3d0955c4bb592c62U, 0xbd0b23703d0c62bcU, 0x3cdfcc6d3ca55bc9U, 0xbcde1f3bbc9b7131U,
  0xbcf0e8c3bd219123U, 0xbcd673303cc69f68U, 0x3cbf5813bcc8784fU, 0xbd02d16d3cec6480U,
  0x3c788e3e3ccce8b0U, 0x3c02dbbe3bfc7d41U, 0xbd0ebbdc3c5a7c25U, 0x3cf987f83d19d7e1U,
  0xbd0f3097bc841e53U, 0xbcf4dbeabccca210U, 0xbcd088853c1ef520U, 0xbca5fb29bca80378U,
  0xbc907a0b3cb6d6ceU, 0xbd0d5970bcf638d4U, 0xbb202140bcd5907aU, 0x3d1eb08a3c2a29c0U,
  0x3d21ebdc3c8e69f4U, 0x3c725c74bcd6d35bU, 0x3b029fa73d1c02dbU, 0xbcb33cac3c82c89cU,
  0x3cf1c2bcbd13ecbcU, 0x3c2e20643c46d968U, 0xbc6df810bcd91e78U, 0xbce55eb63b9a84fdU,
  0xbb3064e63c04edf1U, 0x3c0b0b89bc7e58f5U, 0xbc6f58cfbcaac4aaU, 0x3d037045bc6b23a7U,
  0x3d000520bc6a1253U, 0x3c7aafc83ccd3e57U, 0xbc2cefc33d1d8b49U, 0xbcaeb517bd07da1aU,
  0xbd06f5e83c51612aU, 0xbcc1b1d8bcfbe786U, 0x3d14eb53bcc03076U, 0x3bbee3d3bd19abddU,
  0xbbd848acbd27a6baU, 0x3cea53b43cba9b1fU, 0x3cdd74dc3c8cca09U, 0x3a295ac73c8e5b39U,
  0x3d15d623bcad5155U, 0xbcab6fb3bccb4c16U, 0x3c30ce043c11aeb9U, 0x3a14aa133caa212dU,
  0x3cabd4083cda3996U, 0x3bc9c68cbc87a5abU, 0x3d12e8043c6ccf5aU, 0xbd0d7345bd0e8e95U,
  0xbab69f853d0aafadU, 0x3c81697cbc2d2bf1U, 0x3cd277e7bcc2df46U, 0xbd0d8f763cfbf03cU,
  0xbca71df8bc2de294U, 0xbb56722f3cec74a3U, 0x3cfd865bbc012f0cU, 0xbbb7ebb2bc83bc39U,
  0x3ba866d53b4ecd65U, 0x3d2442733cc51858U, 0xbcfb7815bbd4215fU, 0x3ca54c613cc07108U,
  0xbcfe9b9bbc23d73aU, 0x3d016bd6bcf04127U, 0x3c229fb63cc7d463U, 0x3c4c6a10bba78026U,
  0xbc39c883bccc799dU, 0xbb7f4484bc398b33U, 0x3d03e7cf3d11693cU, 0x3c5bcf5f3cd1f963U,
  0xbd3320fdbd01364fU, 0x3d2997f8bcc94387U, 0xbcefe8463d425886U, 0xbcc872d13c89498eU,
  0x3d08cb583d22be2eU, 0xbd21a3fa3c2f3398U, 0xbc9aa47ebd02365fU, 0x3c55eb1dbca02589U,
  0xbc5db7263d4efb5aU, 0x3977cb9d3d05216dU, 0xba7cae06bb6e1cdbU, 0x3cfc6b823d422dd2U,
  0xbd1809f6bb3ccbd3U, 0x3d28aeacbb49d651U, 0xbbf558813c240ce9U, 0xbce3e3553d22c9bcU,
  0xbd1214313af0c15fU, 0x3bd27979bd099242U, 0xbadd97973d06f5f5U, 0x3ce4e7993bb934e5U,
  0xbccabb2c3d12daa9U, 0x3c19a4a73c1c1e38U, 0xbc668dc7bcf45973U, 0xbcf767063d1d88dbU,
  0xbbd64270bc35a818U, 0x3cfdc20fbcd4c078U, 0xbc157fae3c2ab74eU, 0xbcfb92d33c73dd6dU,
  0xbccbbafc3d241c52U, 0x3b967cbdbcae99fcU, 0x3d30c4c03d1baa8fU, 0x3cdd68973d13014bU,
  0x3ca468d13d43baabU, 0x3c0591003b8be1fbU, 0xbcd4d8c53ca12afeU, 0x3c88b7acbc69d731U,
  0xbccb1c173bfb3f25U, 0x3ce2586a3c3b6a5bU, 0x3c844af33d4a05a0U, 0xbc8aacce3d4b8988U,
  0x3cf5e7d83cf0c7ceU, 0xbb3fe41e3cd9dcb8U, 0x3cf9b44f3d3d29d2U, 0x3baf63a3bc8ff37cU,
  0xbcb2de093b8fe7bcU, 0x3c74e9db3c0811dbU, 0x3ce747373ccb540cU, 0x3ce4f4623cc93f61U,
  0xbc5f843f3d012729U, 0xbb8ba6213c3aa0b8U, 0x3d27a72dbc994327U, 0x3d34deda3d37030cU,
  0xbcde87633c4ec615U, 0xbc641a313cc6d52fU, 0xbd2800e93cfde11bU, 0xbcf06b183c8e69e2U,
  0x3c5b85b83b85322eU, 0xbd00efb5bc1e7120U, 0xbbc253133cecb654U, 0xbbd75013bcabc6deU,
  0x3d4124703c916bd7U, 0x3d20b1673855defaU, 0x3c9752d43af7682fU, 0xbd1df5ef3d4a7f09U,
  0x3ca08072bb1160aeU, 0xbd37f1b13d24ad94U, 0xbc3337383d0c903aU, 0xbb710ecbbd046655U,
  0x3cf351d53cc30f97U, 0xbcec7c6dbcd0c7c9U, 0x3cb839a43d324fb1U, 0x3d02cbf53bfc63a2U,
  0xbb166c2fbd07e290U, 0xbc87f59abbb48e6bU, 0x3c9548b1bcc1a680U, 0xbad020ae3d13ddd1U,
  0x3beabf683d27e2fdU, 0x3ce8d486bb0e4f4aU, 0xbd0a613c3d164963U, 0x3d040d4ebc23ff3aU,
  0xbce98942bcbb38a9U, 0xbc3e6076bd0c939bU, 0xbc8638933d27ff73U, 0xba7f4f15bcd46778U,
  0xbb18e45abc9de221U, 0xbc226e21baa60b28U, 0x3ce304acbcf672ecU, 0xbbe064323d61b734U,
  0x3c2509053c9a4a06U, 0xbd110395bc0fd9feU, 0xbc6789573d25c008U, 0xbd318feb3cccdf4eU,
  0x3d1f1088bc909fb2U, 0xbc828ac13c4da9e6U, 0x3a1e69253d0d862fU, 0x3c27d2763ce1fff0U,
  0x3cdb05e43d1fb088U, 0x3d1384413cfac0a0U, 0x3d19ad8d3c10a40fU, 0xbc285235bb8f24aaU,
  0x3c86c5b63c92567cU, 0xbd01c2c4bb0a23b2U, 0x3bcf99223d17c916U, 0xbcd4597ebc3428fbU,
  0x3d3608413cde2cb4U, 0x3ae50439bcb6233aU, 0x3d25ba103c3d7a8aU, 0xbc7131433d0651f0U,
  0x3bed23e63cda40d3U, 0xbcd01f963cc0621cU, 0x3d4723513d1d6866U, 0x3c0ce4a73d30fd78U,
  0x3c7e86673d3518c2U, 0xbd0e5da3bc2df0a8U, 0xbc8aae183ce440f7U, 0x3c1c30453bb5b04eU,
  0xbd0ec0013d342696U, 0xbc1445c33c89f1d0U, 0x3c5365bcbc52b0aeU, 0x3c9c3665bc921b48U,
  0xbc6efcfb3d011c90U, 0x3d0528473d5052deU, 0x3c7a88c33d298575U, 0x3b9520463ca0c14aU,
  0x3d00184e3c9b498bU, 0x3cfdd6423af901d8U, 0xbb2842e13cb9a6b2U, 0x3d2446323c8f6249U,
  0xbca6affd3d1ca034U, 0xbc9b42b9bcae0d8dU, 0x3d1af1863c393ef1U, 0x3be05d6a3c6867a1U,
  0x3cc92d36bcd85f9fU, 0x3c7ee4223d3f580cU, 0x3c14e0e4bc995a67U, 0x3b9f70c1bd11e869U,
  0xbceb43fc3d3c491eU, 0x3ccae531bcb6f861U, 0xbcbabb78bc8fe9ebU, 0x3d247e1f3d1be2beU,
  0xbcb2cb433d20276fU, 0xbb78e71f3ce2d791U, 0xbbe38d5dbbc7d6daU, 0xbd0457c1bd175eaaU,
  0x3d50c312bd082c02U, 0x3c832cd3bca2b2b0U, 0x3d1ddb113abe055bU, 0xbc01dc473b26426fU,
  0x3c3497783cb1fb24U, 0xbc9c07adbb0bf9a8U, 0xbc897a903cd0a801U, 0x3c5b76bd3cb882edU,
  0xbd4015aabcabb374U, 0x3c85c87e3cf25571U, 0x3d1adc65bcd0f945U, 0x3ce39794bd096fb5U,
  0x3d5633673d350103U, 0x3c183ca23d699231U, 0x3c8532e63cd309dbU, 0x3cb9810bbd1b22d3U,
  0x3d34e303bcd1372cU, 0x3cef71833c0882f4U, 0xbbc0e1e53b685cb8U, 0x3ce362c8bcf15d40U,
  0xbcd2576f3c013599U, 0x3d2a854fbcc72dd0U, 0x3c3c7f6ebc93a56eU, 0xbcda4e783d1d0076U,
  0xbca083adbbcdf089U, 0x3c89d6703d2419ceU, 0x3d16f8013d5e6b6aU, 0xbc32df89bb418291U,
  0xbb3a5f583cce0fdbU, 0xbca2730e3c394510U, 0xbd1df695bcf3ffd8U, 0x3cc35aca3d310871U,
  0x3c0f957cbc77a676U, 0xbc5258ff3d3df50cU, 0x3d2468f33b277344U, 0xbd2fec303d464f2bU,
  0xbb8422283be18109U, 0xbd0289603d56e877U, 0x3c59645b3bff8135U, 0x3c9b9cf5bc297d00U,
  0xbc4b017e3bdf5dd7U, 0x3ba514aa3c8c263cU, 0xbd5adac33d0041a2U, 0x39d91a4b3cb3662fU,
  0xbd19d4213c5d21c7U, 0xbd03bde33cf5f1f8U, 0xbbd24f1e3cb7ba3cU, 0xbc4539f839f2a0b9U,
  0x3c5fecde3cee9b20U, 0xbcdc5e6a3d083c2bU, 0x3baa73753a18a806U, 0xbd63af69bd1230fcU,
  0xbbf1cd5cbbe5736dU, 0x3d127fa7bbdcf7d2U, 0x3c21f61cbb62d12aU, 0x3a8c04e23d25a6d3U,
  0xbce2da943cc14ed5U, 0x3a24260b3d8282c9U, 0x391bec663be59298U, 0x3aa8cb4d3cb2e3a9U,
  0x3c170f6e3ce0941cU, 0x3cc04b85bc8f5197U, 0x3c26eac83d76be69U, 0xbc924fd7baccda5dU,
  0xbbdce43e3d45a9b6U, 0x3b8b9359bcc2d7e8U, 0xbc8e6ef83d27a3f6U, 0xbcd86fc0bbd9e721U,
  0x3cef26133cff2a7eU, 0xbcdbcd523b81cc93U, 0xbb496ceb3c909ba3U, 0x3cc2c3cfbcb54307U,
  0x3c5d4a7e3cca0eadU, 0xbd05c5393d28526fU, 0xbc48c6253c5077acU, 0x3bde15c43cd24f9fU,
  0xbc8e4cd33cdee4beU, 0x3cd9ff06bcb5227bU, 0xbc8e9ca63d260716U, 0xbc4678ad3c959ba0U,
  0xbcc8996a3cc54f70U, 0xbd011f103c03b30fU, 0xbcd512adbc32c694U, 0x3bd185503d60a9f4U,
  0x3d33c6083b47ad25U, 0xbc9e49093d3ed0c6U, 0xbb12c1933b215fd0U, 0xbabd9027bc8b8b24U,
  0x3ba2f19a3c89e260U, 0x3c6c80f1bd239a57U, 0x3bb56bfbbcea5106U, 0x3d25391a3b104400U,
  0x3d2dcc5f3c4d8f5aU, 0xbd3368163bcffc9bU, 0x3c4d765ebbafd8f3U, 0x3d1692b13d5e7c5eU,
  0x3c8e5d453d5945a0U, 0xbcd265fcbc9d9d0cU, 0xbbe50ee5bc0c773fU, 0x3b63bfc33c3c6cf0U,
  0xbd00d7043c719267U, 0x3cbbd6e2bd2f08d2U, 0xbc09d40e3b9c5fe3U, 0x3d1cd0dfbb8360f6U,
  0x3ce2acb1bcc2043cU, 0x3cc82de23d1afba3U, 0xbd05e7c23be155f4U, 0xbc8752973d7d4a8eU,
  0x3c43138f3d3d9cadU, 0xbd081bd13c90d2daU, 0x3d2696b5bcbc1e86U, 0xbd1bf587bb81e36cU,
  0x3d45f341bc140e00U, 0xba8f8fd33cbd551eU, 0xbb457f793be0cb42U, 0xbca2de183cc52577U,
  0xbc2319b03caa5e3bU, 0x3cdf61113c6b9590U, 0xbc26bdfebd2ffb08U, 0xbca3ef4f3d6128f7U,
  0x3cec7d3c3ca2a424U, 0x3ba17b053d36c93eU, 0x3d697e72bc60eaadU, 0xbb83088a3d25e013U,
  0x3cbd17323b4ab5b8U, 0xbb5043dfbd386865U, 0x3cca3e3abd0fe208U, 0x3d0324a0bb507c42U,
  0xbc9ddb55bcb5713eU, 0xbc7503de3afd6be6U, 0xbca559a8bcd011a7U, 0x3d0fa9e63d35e21dU,
  0x3cac20ae3cd91880U, 0xbc9a0b263d666221U, 0x3cbebdb53d1b3371U, 0xbc94ac7ebce90c25U,
  0xbc621a413d1e1fc5U, 0x3d331dafbb9f4e76U, 0x3cf31ec7bd0d2397U, 0x3bb4ba753d10dbe3U,
  0x3cb1e1f73a2887e3U, 0xbd0cb4693d2d3cb7U, 0xbd2047343cd0ce6dU, 0x3cc5751cbc9f7101U,
  0x3c7ec0a43c9aadedU, 0x3d3569303b8b96f9U, 0x3cd0a6cabcb80002U, 0xbbd9ac863cbce573U,
  0xbcaa194bbd400b49U, 0xba5580ba3c8ba905U, 0xbbc35ecc3c32b2c2U, 0x3cf178b23b13c07eU,
  0xbc2a7fbf3ca77f37U, 0x3d25c4c5bc9344d0U, 0xbce49b7fbd008f65U, 0xbb687800bd34adfeU,
  0x3ce423dabc960b03U, 0xbcb5054abcd35d1aU, 0x3d132a03bd3b1db8U, 0x3ca906e6bd02a53fU,
  0x3c7604bdbd17bcddU, 0x3ca7fdec3d16576dU, 0x3cf4d7043c878e9cU, 0xbc2a30173a865e03U,
  0xbb30c7a9bb50b914U, 0x3cbeb9c5bccb0652U, 0x3d1a20af3c624ca1U, 0x3d16715abce8167aU,
  0x3bedcdf93c58fc5aU, 0xbaeeddd33d22dfe8U, 0x3c23dfcfbced958bU, 0xbc68ec2ebb4ff0f0U,
  0x3d2d2f9ebd2e2104U, 0xbcf1029c3c91d77aU, 0x3c24d43abd225984U, 0x3ade309dbcb7aea1U,
  0xbbc24334bc8d26ccU, 0x3ccf0db23d38d309U, 0xbc7c85eebc9326ddU, 0x3c938c07bbae9d4fU,
  0x3c44bf723caa93c2U, 0xbd1ec697bad77b5eU, 0xbcd9a1c13cdac445U, 0x3ce65d9abbfc63a6U,
  0xbce6a27e3b1c7a97U, 0x3c12576ebd0d7e10U, 0x3cb402763cca3110U, 0x3d3c03ecbd0f6b61U,
  0xbca28cfe3c940d24U, 0x3d1578aa3b4b31eaU, 0xbd1c57093cb6252eU, 0xbd0535c53d133087U,
  0x3cca6b30bc1fa1ccU, 0xbd1ce3b0bc175876U, 0xbc18e1e33d0aa686U, 0x3ca59d19bc2085a1U,
  0x3d1266243bd39743U, 0x3b8f69553d050bdeU, 0x3d3365d13c893936U, 0xb8c120603ca7321dU,
  0x3c3f0037bce60775U, 0xbc512602bc4e31d2U, 0xbd1a47a83cc926fdU, 0xbd00d5be3aa27f50U,
  0xbcf84aac3d1565deU, 0x3bc39e763b4053beU, 0xbbf64e4ebc25e30eU, 0xbc99487f3be65270U,
  0x3b6673e5ba310ab1U, 0x3c421920bcdd9f18U, 0x3d11aa15bc0c77f6U, 0xbc464fa9bc2f8fbdU,
  0xbcf0dbaebcd63db2U, 0x3bfd1e443d150132U, 0xbca7620fbb580ec0U, 0xbc5843e13ca37760U,
  0x3d0c7800bc188601U, 0xbcf124773c2aa172U, 0x3d17f7ab3b84ce37U, 0x3c9c21be3a26d3a4U,
  0xbab4686abcc68d35U, 0xbbe836e53c800152U, 0x3cc7ed3ab940f53eU, 0x3c12b75e3cf7e2c3U,
  0xbcd9017ebc2682e3U, 0x3be30fc03d2cc5fcU, 0x3cd03fb63ce9c6a3U, 0xbb9d04c93ca01d58U,
  0xbcdd43dd3d2a0980U, 0x3c151b133d0d8ea2U, 0xbbb486a13d285262U, 0x3d0362633bd816a7U,
  0x3d154ca93ce9ed7bU, 0xbc19e4ba3cb9d67bU, 0x3cd09bf3bccdc7b5U, 0x3d3c0fb93d301832U,
  0x3a5c3ec3bd238b21U, 0x3cf6d2a93cd47e50U, 0xbd0163433c609e5aU, 0x3c66678abcd259eaU,
  0x3c8c340bbc963cf7U, 0x3c3446b13b1805d0U, 0xbc8f5756bbea0bcbU, 0x3d3e3e393c95673dU,
  0xbc834e3abc0a2f61U, 0xbcaed4733d272cb6U, 0xbab519953c4c3fceU, 0x3d0337aabcbaae07U,
  0xba887314bc7bdbc7U, 0x3beb38983cea6becU, 0x3b6d98333c3645fbU, 0xbcff13803d43398bU,
  0x3d002f163d32c522U, 0x3d16845c3d1af41bU, 0x3d0c78223b144bd9U, 0xbc4ff4f03d071d86U,
  0x3c9441833bb442cfU, 0x3cf21949bcf98c99U, 0xbcb6319d3d03eda9U, 0x3a8fd9ba3c9ff9e4U,
  0x3c2cc4dcbd1f12e4U, 0xbc74bac5bcdb9317U, 0xbd08810c3d1da726U, 0xbb875302bcc7033eU,
  0xbafa8791bc86e95dU, 0x3d05c8cabbc98cb0U, 0xbd0002a33cee1e3aU, 0x3b5aa4d73bf34580U,
  0x3baf7e8fbbad62aaU, 0x3ca06b923c914434U, 0x3d12d3703d01c079U, 0x3d045c5bbc51453aU,
  0xbc8ecdffbc11916cU, 0xbbb3c84c3cb2646eU, 0x3b0dc6023d12b7dcU, 0x3bc0ae0dbcf3ef1dU,
  0xbcc7d534bc931b34U, 0xbcf85543bc2c7d74U, 0x3c9a578f3cbc3840U, 0x3cf5b970bcfbfae3U,
  0x3c20a59a3ced2a88U, 0x3c2fb7653c4cab79U, 0x3d4c01993d14a005U, 0xbc7057643c2ac929U,
  0x3d21715b3cfeca15U, 0xbd24177f3cac2949U, 0xbce45c54bb830cd7U, 0xbd1f7be23c98eba5U,
  0xbcce0922bcc0e1ebU, 0xbd30cbabbbefb28dU, 0xbc440b8ebd471a7dU, 0x3d3c347ebca43438U,
  0x3d1223ce3bf7233bU, 0xbbf449333d24fedcU, 0x3cdfb8f4ba9a973bU, 0x3d198994bd1186f8U,
  0xbc0c2efa3cb82499U, 0x3d0d3f04bd44433cU, 0x3c9be25ebcfcbe1cU, 0xbc230e183b99ea57U,
  0xbd419bb03bb0de67U, 0x3c72abd1bd151429U, 0xbbdec02f3bbe636fU, 0x3acb1b853cf50851U,
  0x3ca4378a3cbda966U, 0x3d06bc4e3d43c8b8U, 0x3c1ef620bc035d73U, 0xbc1a9e3d3d22a3acU,
  0xbcdda5aabd26f0eeU, 0x3c71759bbcbbbb02U, 0xbb404e6e3d1db4beU, 0x3d1b55d73d38cde6U,
  0x3b98fdea3d1cd816U, 0xbd366a0cbc60b56fU, 0x3c660257bd1c3eb4U, 0xba1db27f3c5d541fU,
  0xbca7b5f2bc35a903U, 0xbb9439783c607c4fU, 0x3bbb93823b9ca74aU, 0xbcf0c887bcf842ffU,
  0x3b3d18b93cbb2d04U, 0x3b008b10bc8106bdU, 0xbc756fe43d26c6b3U, 0xbcaec88cbcedbae3U,
  0xbcd24ef0bc7dce5dU, 0xbc811c0a3cc0a5f4U, 0xbc0bd8d9bd133fb4U, 0xbcecde833b94c582U,
  0x3c515ca0bcd25261U, 0x3d028de93aa1ee9cU, 0x3d142b15bd15f195U, 0x3ce9f525bcd4f2ceU,
  0xbd068c5b3d10216fU, 0x3c8998cfbc6a0018U, 0xbca205f73c2ea556U, 0x3c81daedbc5cb0f2U,
  0x3be1b3b43c34e7efU, 0x3cd716a6bcb21820U, 0x3cba94c53c7fa4adU, 0xbc39f89f3ce635cdU,
  0xbbe2e818bc5c6f28U, 0xbd0e116f3bd50f9aU, 0x3c1f5a51bcb7b992U, 0x3cae7cbdbc377d8cU,
  0xbc35535a3d180de2U, 0xbbdf85a4bb457aa6U, 0x3cb280a03d46051fU, 0x3cb851813c067d42U,
  0x3c9682783adbc1a7U, 0xbcc7d8d73cf242f2U, 0xbcc3c3dfbd0ad7c0U, 0xbcc977abbbb2933dU,
  0x3d37d0fb3b2b222dU, 0xbc4b5868bba41ca1U, 0x3c292f273c7c7c6fU, 0x3cf1d733bd1faf0dU,
  0xbc963bdb3cb3355dU, 0x3cb228b93cb6d04dU, 0xbcae9b8e3d2a84b6U, 0x3c30ec9b3ba3d832U,
  0x3cd3965dbcd9cae1U, 0x3d1b0c203d0cf769U, 0xbc970df73c8567d2U, 0x3cc520dabc8b8b74U,
  0x3c7f661dbd314e7cU, 0x3cd040bfbcdace21U, 0x3d6492853bfff080U, 0xbc6eb70f3c6c265fU,
  0x3d0e7fa6ba9a9999U, 0x3c0b3b26bd54f5baU, 0x3d041d943c97c245U, 0x3d3aba5bbc07716dU,
  0xbd30f54d3d31db3dU, 0x3b8f6c44bcd7b478U, 0xbc22ff2c38ce0f23U, 0x3d37ca2f3d2aad79U,
  0x3ca633673cc197a7U, 0x3a87e68fbbde6596U, 0x3cd0f2dabd1b0818U, 0x3c64cea53d17c843U,
  0xbc80d9c5bc63806aU, 0x3d203f89bd4453eeU, 0x3c3766173c083636U, 0x3c31757fbac4df22U,
  0x3c83220bbccbfb11U, 0x3c760e54bb9650d0U, 0xbd0f49c53ca19f1dU, 0x3d00d6e03d2711c5U,
  0x3c9cc7ee3c3eec6bU, 0x3c8e9b6f3d3b9ca4U, 0xbc4a9cca3d063dedU, 0x3cc7b7d9ba452ca5U,
  0x3c4c4c95bb8315a7U, 0xbc71742abc56feebU, 0x3c113398bbdae0acU, 0x3caeca8e3b1a1307U,
  0x3b03b92cbd0b4a6fU, 0xbcffd75dbce3045aU, 0x3c09cd733cc02cc1U, 0x3d26110cbbc8b1ecU,
  0xbb6195c7bcdeeb38U, 0x3bde8a073cc926afU, 0x3bc8136dbcdf673fU, 0xbd202b163d176fccU,
  0x3c633c0c3c629a6eU, 0x3d3fb9df3c25ab96U, 0xbc4076e43d3270c6U, 0xbcace29ebd3bf751U,
  0xbc9cfadcbc9d655dU, 0xbce55c17bd163c96U, 0x3cc0adccbbf4b2b6U, 0xbc0d7c33bc41ac08U,
  0x3c9f61573c883dd1U, 0xbbcaa37b3d4c023dU, 0xbc7d0bdb3c7a17b3U, 0x391b3a33bc9ee3d9U,
  0xbd2be9a4bd18afe5U, 0x3cc1e7ba3ab7318bU, 0x3cbdd278bb2b098bU, 0x3d0188a0bc7cfe75U,
  0x3cc8b3adbb95e1eeU, 0x3d2502a4bcad9ac7U, 0x3cf1140a39c3362aU, 0x3af25aee3c95bee9U,
  0x3ce09e733c866363U, 0xbcc36827bc977cf5U, 0xbaf8e778bc9b57d7U, 0xbcd400d1bc068b20U,
  0xba45d8b8bb4927c7U, 0x3c2874d7bb06a606U, 0x3d4ac72a3d498253U, 0x3c3e7b20bd3d0ec7U,
  0xbd26c8debd0e51a8U, 0xbba2f02c3b96f086U, 0xbc35799b3d10959eU, 0xbcd0f9e5bc6269aaU,
  0x3bb4e9edba618de3U, 0xbc95462b3d0b4ebdU, 0x3c82f7633c9a2663U, 0x38b42adf3d0a5ee8U,
  0xbccfeea73d20aa12U, 0xbc3540563ce4da82U, 0x3b7a7f2dbcb10696U, 0xbcf5077c3c6200b9U,
  0xbca0c4be3c044730U, 0x3c8e1a2cbcd50761U, 0x3d033d97bd1699beU, 0xbd30b795bd2756ccU,
  0x3b10665f3c8c58b9U, 0x3d434dfd3b376988U, 0xbc24100b3cc37f06U, 0xbc98e5b93b212605U,
  0x3b87eb6d3c0557e3U, 0x3d1abddd3b9f8e60U, 0x3ca08f523c1d7578U, 0xbc6cfc143cde0472U,
  0xbc27a3e63d54e3bfU, 0xbd3376dbbccc4b23U, 0xbd0456e8bc98e410U, 0x3d19e0503d12eae2U,
  0xbce0edc83b91a628U, 0xbca12b11bd080e71U, 0x3d3cac90bc75aebdU, 0x3b87cd21bd2c7c61U,
  0x3a42b8a2bcbce1e1U, 0x3d4aeba53d433fddU, 0x3d0a5ddc3cf38889U, 0xbc99793f3c7da976U,
  0xbca6fc543c9848afU, 0x3c3bec6c3d231146U, 0xbb21a7b53d0a40abU, 0xbd14217f3c9def8cU,
  0xbc19a46f3c29a520U, 0x3c912e00bc4bcdf5U, 0x3d1a0ffcb9692be2U, 0x3d1c5b223c937ecbU,
  0xbcf35ffb3c920d08U, 0x3d4e24853b30dbfeU, 0xbd0cc3adbd15e6ffU, 0x3cd23f3c3caf6cd3U,
  0x3d38ddbe3d0442d7U, 0xbc423a11bc66a1fdU, 0x3c9085f83d08e865U, 0xbbdb7a2b3caee6bcU,
  0x3d1d2ffdbd099f41U, 0x3d342a7bbd112cadU, 0x3d3c7ed43c004c20U, 0x3cf1e6353c26b14dU,
  0x3cd4b4443c8e3e44U, 0xbb66d96a3d11bc88U, 0x3d01ec9ebd04c9f3U, 0xbcbd33f23c58102fU,
  0x3d09550d3cbd095eU, 0xbbf930c1bb0f4e04U, 0x3d3c938bbc4eeba6U, 0x3c75b964bccda90fU,
  0x3d230101bce441b5U, 0x3cace67f3b758670U, 0x3be1aa993cf5bb65U, 0xbc4f7f63bd19e06aU,
  0x3c118a2ebb515362U, 0xbcf4efc0bca4b0e3U, 0xbc12079e3d24b71fU, 0xbd018b413ca6be62U,
  0x3cca2b7f3d1a656bU, 0x3d117810babe2449U, 0xbb5a484dbd29ca91U, 0x3cc81f0c3baa9718U,
  0xbb4fd928ba213ad7U, 0x3d2846d93cb3f2f4U, 0xbc358e1fbd03a66dU, 0xbc5b106c3c379477U,
  0x3c0a58aebb98035fU, 0xbca2d2e8bbd27cf4U, 0x3c9a79d9bd2ed0f5U, 0x3c2135cdbc83163cU,
  0x3ce6c3d0ba7a81a6U, 0x3be92eefbc1e3e39U, 0x3a2911643d07940cU, 0x3cf6f271bd14211aU,
  0x39b8883c3bc86876U, 0x3cbb67d23ce62c10U, 0x3c155503bd23fed8U, 0x3c876c7dbc501db9U,
  0x3c9aeec23cdcb63fU, 0x3c83613f3c4170afU, 0x3ca670d2bd0b2658U, 0xbc98b8cbbb29018fU,
  0xbb291276bc21dc4bU, 0xbc4d13ec3cfe63c4U, 0xbc549201bd10e9a1U, 0xbb7d3f06bc3308b5U,
  0x3ce44e6abd042a1cU, 0x3bc633173bf0d129U, 0x3d408be33c6ee687U, 0x3b82bcabbccd8a7bU,
  0x3d4869a2bbba4c8eU, 0xbcc47c3e3d515e18U, 0xbcfecac4bd0b8c9dU, 0xbc8493323c72949bU,
  0xbd29f1e43c962230U, 0xbc805ac1bbbe0485U, 0xbc10bcc0bcf46e37U, 0x3d0aa7e1bc26ba18U,
  0xbc9a4f25bd2b952eU, 0x3cca6d4d3d03a64aU, 0xbcec77c8bd295170U, 0x3bc1e71b3d1399bdU,
  0xbc3c743abc1b4c20U, 0xbce9c1a43d4d6ef7U, 0xbd3799363c43ecb6U, 0x3cbb5c133c5c9748U,
  0xbd2a5515bba2fde6U, 0x3cbba6053d205cadU, 0xbcffa36b3d2e2d7aU, 0x3c440a033c130934U,
  0x3cc3622e3cbf5997U, 0x3d0f9879bc670b0eU, 0x3d13d3b9bcd1f904U, 0x3d327e52bb5d2066U,
  0xbc7bd9e03cae3bc4U, 0x3cd4fa4f3bff6662U, 0xbc82faa03c368ca0U, 0x3c19b157bcceacaaU,
  0x3c9b73a1bcf6f943U, 0x3cb5ace9bc9c0dd2U, 0x3d06b8333d2b6410U, 0x3d1834cc3d019a5dU,
  0xbc05410abc93c825U, 0xbd08160bbc298ec4U, 0xbabf18fa3a891793U, 0x3caa4d0a3d172920U,
  0xbcb06b55bbb25554U, 0xbc7a2a1c3c9d2364U, 0xbc55a9683d2b61f8U, 0x3be21be5bcd332f5U,
  0xbb9b672b3d24a3cdU, 0x3c3c6d313a78a365U, 0xbcb56cc63c911cb6U, 0xbaf045c0bd1005d8U,
  0xbc8547afbd525369U, 0x3d2775fd3c51e217U, 0xbc5f0ab43cda89efU, 0x3cdcd724bc660432U,
  0x3d388dc6bc1c2fe7U, 0x3cd9db5b3c58a83bU, 0x3c98ed793d2e26f3U, 0xbd027d46bcdb060aU,
  0xb93264dfbcb3c64cU, 0xbc1b9046ba7acdc8U, 0x3d03c6faba3e37c3U, 0x3d28ac2bbceb8792U,
  0x3b90a5063a85a64dU, 0x3d27fa683d056721U, 0x3cc35625bc258d98U, 0x3d024f483c09d07eU,
  0x3c2b4966bc4bfa7dU, 0x3995ea283bda7a9cU, 0x3a9bbdbc3c0a13ebU, 0xbc726817bb70a3f2U,
  0xbb826d823b9ba0b8U, 0xbb9d43b53c9682dbU, 0xbc457374bcf1a906U, 0xbc4bde9cbcb5abafU,
  0x3c9cdfee3bea5a6aU, 0xbd0ec1043d3f2f66U, 0xba761709bcb8e4caU, 0xbc8eb3663cadc50cU,
  0x3c7448a7bca687b9U, 0x3ca38d12bd5623adU, 0xbcfd9ffd3ba5cd08U, 0xbcb634153ce1be0cU,
  0x3c2910603b9ac12aU, 0x3c1def813c67c303U, 0xbc908c72bccdb178U, 0x3c55f88c3d0175b7U,
  0x3cbf42953c1621feU, 0xbbd021b63b861433U, 0x3ba1eceabcd4744cU, 0x3c5ac282bcf4a840U,
  0x3cccc033bb905967U, 0xbce6619b3d0bc262U, 0x3d0d2a283bc1a2eaU, 0xbc6c98d53d0ff65cU,
  0x3c79ecbdbc54681dU, 0xb9755aaa3c5d486fU, 0xbd136f82bcf216a8U, 0x3d5f653c3cc385d3U,
  0xbc5a7688bd27a9d0U, 0xbd208884bcee297eU, 0x3c55848fbce058f0U, 0xbba0b5b6bce75870U,
  0x3d00d8efbacf9701U, 0xbb9906c8bcd2b5f0U, 0x3cb16d57bc8dd1ecU, 0x3ca4c2b5bd11e4bdU,
  0x3ca95ca63cc23fa0U, 0xbcf09d48bcb7d413U, 0xbcc041c2bb5f00dfU, 0xbc0214893d1465a3U,
  0xbc199d3f3cdc3dcfU, 0xbcd1dde73c647e41U, 0x3d35b937bcd5dfdcU, 0x3d1ac3f33d0da8c0U,
  0xbd0577633c0d3e2fU, 0x3cdfb8653cbca677U, 0xbce4d1fd3a8c03b3U, 0xbc8571d83c0f6260U,
  0xbc192bd13d16b919U, 0x3acd685fbc75dd4eU, 0xbd20a797bd2c7002U, 0x3c6c98543d46ea32U,
  0xbb8011ecbd1247abU, 0xbd4097ab3d49b041U, 0x3cb2da62bcd83c16U, 0x39f0dccfbbbf3396U,
  0x3ccfe30bbc5176abU, 0x3d2dee37bcd6d5cbU, 0xbd0d55943ac2a027U, 0x3c9d85a53bf96168U,
  0xbcd9ed103d14314fU, 0xbc930481bb7d47c4U, 0x3b01635ebc93218fU, 0x3c9d3ff6bce10011U,
  0x3b767bb5bc9aad78U, 0xbcae5faa3d0df881U, 0x3d048d71bc984c4bU, 0x3c567445bc2f8ab7U,
  0xbd01e5343cf76832U, 0xbcbd0dd6bccd4095U, 0x3cbc50053c169ea9U, 0x3d368965bca620e2U,
  0xbc8f736a3cfc48e6U, 0x3ce329343cddec4aU, 0x3c256033bd1d6fcaU, 0x3c2d83f63d10c9aaU,
  0xbbd47024bc177d6cU, 0xbd283eb53cf5ff5dU, 0x3c217345bc90c950U, 0x3d2acb8b3c9a05ceU,
  0x3d0d77e53c725504U, 0xbc8da02bbcf86063U, 0x3c59053c3d33b5f7U, 0xbd010050358b4176U,
  0xbc1f89c23c55977dU, 0x3bb3a5493ca252a6U, 0xbcfe4874bd172a0fU, 0xbd00750ebcd1b46dU,
  0x3c563ccdbd22e4c1U, 0xbcebe861bccbf0eeU, 0x3bfdb756bbb7f6caU, 0x3c0a836abd0f13bdU,
  0x3c1cbc0e3b278bafU, 0x3c0a4d16bca8738aU, 0xbc3ef0913be4af57U, 0x3cf54677bba24be6U,
  0x3ae67279bcd687beU, 0xbb025f9fbc1f7714U, 0x3bca4ab43d0b8af9U, 0x3d3ed0f8bce10247U,
  0x3cf03dd93cf71638U, 0xbd2070453d2d3f35U, 0x3ce57c28bca0303cU, 0x3d2281cabce03bcdU,
  0x3bc8db24bb3a9b87U, 0x3c1d9ce5bc83eaf4U, 0x3b513887bc0cc21eU, 0xbd34a6e8bd059607U,
  0xbc653c563c8dd5c8U, 0x3d3d85723ce08a54U, 0xbcbc68b63cd7a774U, 0xbc2c84a4bcf65dd9U,
  0x3ce9bf023b1f476dU, 0xbaa2d650bbe79884U, 0xbca708de3c565593U, 0xbc9cdad2bd083098U,
  0x3c375dd2bb7938b6U, 0xbcaf42f13b57f96eU, 0x3d07de753d680424U, 0xbbe5414d3c3c8656U,
  0xbcc47f7d3c3cf87cU, 0x3c9afc143b8b2b72U, 0xbcd70672bc22fd3aU, 0x3cf150503d3837f1U,
  0xbbf82b5fbd195534U, 0xbcc555a83d4bee52U, 0x3d3fa7463d25af40U, 0x3b9e35fa3b24e94fU,
  0xbc9186ecbd02260aU, 0x3d241dc9bd21e2f4U, 0x3d34d5bb3d4048d5U, 0xbca50e67bc97ce91U,
  0x3c46cfc03b807792U, 0x39ff8237bc88db35U, 0xbca258113cb06189U, 0x3cceb534bbf5f7dbU,
  0x3d212c72bcb91411U, 0xbce998133d19abfaU, 0xbcc933003d4e1461U, 0xbcc0eda5bc8b2f47U,
  0xbcae4b08bcc1ce24U, 0xbc67aedebb8dd159U, 0xbc1d0de33cc1b5d8U, 0x3c16374bbc02ba1eU,
  0x3d161739bb68fea1U, 0xbc9503f23c5648bfU, 0xbd2b5c033d10f86eU, 0xbcc27856bc3cd08fU,
  0xbc2766003d54b017U, 0xbc70d3823c150ae8U, 0xbb815695bbfcd803U, 0xbc41f2503cf23909U,
  0x3d0596a43c235b52U, 0x3b877008bb47bd30U, 0x3d06cc8b3cb7da1fU, 0x3d3bc30a3d1479a4U,
  0xbcb566dcbc3b19b8U, 0x3cafad2b3d242bd0U, 0x3a944c05bc8411a2U, 0xbd01c1d13c7e0e6bU,
  0xbcbcf666bc716e54U, 0x3ca812f53d0870a9U, 0xbc8628df3c913f4bU, 0x3d0c08ee3c82afa0U,
  0xbca9dd1abce7e967U, 0xbb1eb060bd14b8d3U, 0x3d0270b23d038955U, 0xbcd779b63c8cf3cfU,
  0xbcf33f223c4869f7U, 0x3ced0ef03d195137U, 0x3c9c34ce3d1b6296U, 0x3c8af6e7bc5e1a54U,
  0xbca58f0e3d1a73f9U, 0x3c0bb503bcc6d8bbU, 0xbc476d563ca792e6U, 0xbaa4dd1ebcc7ae89U,
  0x3ce50baa3c929eeaU, 0xbce1e7433cc2ec3aU, 0x3ae4d8c8bc617f22U, 0xbcc3d8ef3d067a5cU,
  0xbcdea882bce40470U, 0xbc61e7f53c26a00eU, 0xbc50225d3cdab902U, 0xb8d7990e3b8e1662U,
  0xbbb087643d2c7949U, 0xbcd7bf093c4ca3d1U, 0xbc6f3aa53c65ef35U, 0x3c2ae0763bce21eeU,
  0xbd2baa073cf0eb4dU, 0x3bfdc2583d0926e3U, 0x3d30842f3c52153fU, 0x3d0576923d0d8cdbU,
  0xbd065f943b758899U, 0x3c2f3e3c3d190b1eU, 0xbd1642cbbb12a7daU, 0xbbec15ca3d1b85c0U,
  0x3d214ac0bc6df48aU, 0xbca1c57f3b805890U, 0x3d207b833c5588c9U, 0xbcde6cad3d4848d2U,
  0x3c8168bcbb5e3d39U, 0x3d154e26bb6477fcU, 0xbbec588c3d3336fbU, 0x3ccff9cebc821548U,
  0x3cced5f4bbaf7221U, 0xb9af7f17bcf07924U, 0xbc9355d83d028f36U, 0x3d0118c13d440687U,
  0xbb3aa94cbba41653U, 0x3ca062883d008f62U, 0xbd0a1fcf3ca8438aU, 0xbb938a5c3d05dd89U,
  0x3ccc24cf3cc7552bU, 0x3cdf227abbba5586U, 0x3d45b3523d0ed47aU, 0xbb9c95bdbc2a25efU,
  0xbcb06dc43caa9175U, 0x3ccc0285bcbd933dU, 0xbd16b4b8bcbe0c18U, 0xbcc7e1c3bc7a93edU,
  0x3ae7dc2d3c6640b3U, 0x3ada6ede3d33763aU, 0xbd2674e63d095108U, 0xbcfa6ec6bd14e6bcU,
  0x3d1bb98abbc87cb6U, 0x3cd1ff8cbca23905U, 0x3d179d183d34659fU, 0xbb6970f23cf39508U,
  0xbcaf5ab5bcf1836bU, 0xbc873529bc8229d9U, 0xbc7758bbbc5377fbU, 0xbc7ea26d3cc4fb89U,
  0xbcce7c9b3d496192U, 0xbd1c25403d37b328U, 0x3d1337363be4d01fU, 0xbcd7ec2abcc77a90U,
  0xbd0eb7f5ba8c9a22U, 0xbc7e5bfabc79c677U, 0x3d5b0965bc1204ccU, 0x3ce8c1f23cf05dc3U,
  0x3d10464bbcf2b6ccU, 0xbc6163f63c879c99U, 0x3b831464bcd845cbU, 0x3cffca1e3c8b1102U,
  0x3bb4c52dbbf5c10cU, 0xbb652ca0bcd1ab6bU, 0xbc3e08f93d1a2216U, 0x3b261d0ebcea0eadU,
  0xbd266a293d56a99dU, 0x3ca2b61cbca1517cU, 0x3d4223563c69647cU, 0x3d22374bbc9f3028U,
  0x3c3ed1a03ca2ac76U, 0x3b5b2aa63c0367e9U, 0x3d2d25843cb5c7edU, 0xbd38133abc2907c2U,
  0x3cc82b45bb11778fU, 0xbc25dc173b7d9b90U, 0xbcf6f3433d29245eU, 0xbcb134ccbc49c37aU,
  0x3b8fb2fc3c791134U, 0x3ce8e7223cb09ce8U, 0xbc06e8a9bba28412U, 0x3c682886bd09353fU,
  0x3c8b432d3a53dd67U, 0xbbf6fd7abcc7caa6U, 0xbcd39731bcba156bU, 0x3b72b9683ca5c009U,
  0xbc581f573cc50394U, 0x3d3ed9183c4d02e6U, 0xbce9391f3ce91de2U, 0x3d0dc158bc64df12U,
  0x3d0a3dd93d16ab52U, 0x3cfb59e9bba660d8U, 0x3d26acb5bcbc14bcU, 0xbc7bcc463cef62efU,
  0xbcaea420bc97842bU, 0x3c77c5d33d56d757U, 0xbc12e3f03d304235U, 0xbce29b80bb94eee6U,
  0x3c1fa0a83ce98835U, 0xbc0f1c50bbe46173U, 0xbca048a9bcbd88aaU, 0x3d086693bb2a3998U,
  0xbadc08553c21c2deU, 0xbcd902c03c215ad7U, 0x3d1299c9bcfa0df0U, 0x3d41f036bd21e705U,
  0xbb8ca908bcf1c594U, 0x3c0c5a0f3d40a190U, 0xbc05316b3b0ed333U, 0xbcab1d6fbc02bd96U,
  0x3c29787e3d436997U, 0x3a9bd7e0bc90a164U, 0xbd295647bc63412cU, 0xbc9acd843d1feeddU,
  0xbd05bf2cbb61712dU, 0x3d01f6a13cab72d2U, 0xbc86433cbc50b39dU, 0x3bae22ffbc400cf4U,
  0x3b8592483d03a498U, 0xbb0372ed3d03da08U, 0x3a61d00a3c41d510U, 0xbc0fb457bc1da13cU,
  0x3cc7c7e13d0d7764U, 0x3c9c6b9cbcb1283fU, 0xbd44ca18bc8f390aU, 0x3c8a67373d117b32U,
  0xbd423f253cc946d4U, 0x3cd3e9103d5d883fU, 0xbc1019f3bd421401U, 0xbbec8a46bce5d4f9U,
  0x3bfc80fbbc3d36aaU, 0x3cb0c5533c604afbU, 0xbbb6bff13d4e6217U, 0xbacd15a83cc7c596U,
  0x3b0d5540bbab4cbfU, 0x3c3f546abcedfdc5U, 0x3c4fdc853ca8ad35U, 0xbb841e2f3d17dc7eU,
  0xbb2112033c2455efU, 0x3c09b03abc18f9acU, 0x3c47d070bb72391aU, 0xbab2e9a83ae3f08aU,
  0x3d3dd1a93c992e94U, 0x3d094fb7bb88923fU, 0x3d4c1f3d3d53bc66U, 0xbc91e8263b4fe89eU,
  0xbd14110d3d31c49dU, 0xbbc5786bbc42b796U, 0xbd6b5b243d14953bU, 0x3c86ed4abcb8b981U,
  0xbd0f4b1c3d3589f7U, 0x3d0f57083d1889aeU, 0x3d1d7c81bd285890U, 0xbc441d54bc6759c0U,
  0xbcbb5227bcdbfd7bU, 0x3be77021bc22f8fcU, 0x3d3c275b3d22c85cU, 0x3aefeb7cbcbac47dU,
  0xba745622bbffddb8U, 0x3c8c7ddb3cef35abU, 0xbd53bd863cb0e51fU, 0x3d1a776e3c2b44d5U,
  0xbc605329bcae9419U, 0xbd194164bc22ed08U, 0xbba542bb3c739bceU, 0xbd332a82bc8b16e8U,
  0x3d231af8bcbb3619U, 0xbcea6d653b98fda5U, 0x3d30c02f3d17e179U, 0xbd11c7513c85d06bU,
  0x3acd87683d143c08U, 0x3c42e9963cb102e8U, 0xbc0a65b13cb827ebU, 0x3bd262d53d17ee2cU,
  0xbcf9d2453c2e9b1eU, 0xbc904e543ca2311dU, 0xbcad76183d15aca3U, 0x3c857e143cbcc8e1U,
  0x3ca98a48bc8576f2U, 0xbb97e3283d3879e9U, 0x3d0dfba03d1280e4U, 0x3c03905abcf3951fU,
  0xbc6c5efdbc891d49U, 0x3c8b142ebcc3fc07U, 0xbd53473b3ca62640U, 0xbc9d786bbce9bdc0U,
  0x3c4a3979bca6e1d5U, 0xbd1b2d40bc756a0aU, 0x3ce4ad96bc490e3cU, 0xbd19bbb8bcd7bafdU,
  0xbc525d7c3bfcc175U, 0xbd0d20fdbc8afa48U, 0x3d2705e13d3df710U, 0xbd1dba8dbd323396U,
  0xbcb529d039b2e708U, 0x3c9589273cf9ef3bU, 0xbd04f3fa3cefe3caU, 0x3b3be11dbce68a17U,
  0x39ba7a0d3c010c27U, 0x3c6950fdb961a814U, 0xbc5c1fe9bb6b0321U, 0x3d0be6fb3b2b540dU,
  0x3c194db4bc989009U, 0x3d0240573d2c86f6U, 0x3d3e7e3fbb6c0786U, 0x3d0a96733bc440c2U,
  0x3d1395ca3d4b026dU, 0x3d0d02f3bc5c8ac7U, 0xbca4f03c3ca271c2U, 0x3d56c49d3c69fb83U,
  0x3a7ec727bcd7c51cU, 0xbd0b1670bc96e38dU, 0x3cde4101bb39df5cU, 0x3ce0f8de3d476d1aU,
  0x3d3adbfe3cbb90ebU, 0x3d1738c73cad92acU, 0x3c65398d3ce9d166U, 0x380265663d21b59dU,
  0x3b089d7c3ca2f655U, 0xba21f8de3ca47ed7U, 0xbd4d894dbb8e78ccU, 0x3d032465bbed20f8U,
  0x3d00719abbd52295U, 0xbc1af55a3c530e0fU, 0x3bf392b4bd2c68adU, 0x39765bc63d5d0d5fU,
  0x3d26f7b23d188babU, 0xbce4be5b3c61e84cU, 0x3d5c59a3bc42694cU, 0x3d0bd6c43d09fe28U,
  0xbbfc89f1bc8d2b6eU, 0xbcc95e7d3c57dc8cU, 0x3c873cbebd2eb5f4U, 0xbbdb4d8bbc1da602U,
  0x3c2f227a3cdf091cU, 0xbd0f3acf3d2e7445U, 0x3c770491ba6e5823U, 0x3d316f2b3d147eb4U,
  0x3d3d900e3d283cc6U, 0xbc392172bc081c2cU, 0x3d195e80bc856facU, 0x3cd59e733c2f27fbU,
  0x3c8b01d03c8fa46bU, 0x3c9aa988bd0fe644U, 0xba933165bca8fb38U, 0x3c2cf310bcac61b9U,
  0x3d35529ebcb0a35eU, 0x3c212bdf3d184fc7U, 0x3baa180cbc8703ecU, 0x3cb1dbbf3cc57802U,
  0xbc7c7ecb3ca7010fU, 0x3a34f0b6bb5f1d0bU, 0xbb6fd3523cac2f0bU, 0xbcfcb4d33c2f2763U,
  0xbb027f24bcb3a0dcU, 0xbbb10acd3c5a4a3cU, 0xbc94a7263c421a47U, 0x3c0b9aee3c7f4ccdU,
  0xbcaa4f8abc81c821U, 0x3c964c6c3b5fff56U, 0xbc9d94e2bcf32b64U, 0xbcfd58973d4306fbU,
  0xbc8d8ee03c0bf2dcU, 0xbb0addcebb28abc5U, 0x3bf8d0e23d354d78U,
};


ai_buffer g_model_data_map_activations[AI_MODEL_DATA_ACTIVATIONS_COUNT] = {
  AI_BUFFER_INIT(AI_FLAG_NONE,  AI_BUFFER_FORMAT_U8,
    AI_BUFFER_SHAPE_INIT(AI_SHAPE_BCWH, 4, 1, 12624, 1, 1),
    12624, NULL, NULL),    /* heap_overlay_pool */
  };
ai_buffer g_model_data_map_weights[AI_MODEL_DATA_WEIGHTS_COUNT] = {
  AI_BUFFER_INIT(AI_FLAG_NONE,  AI_BUFFER_FORMAT_U8,
    AI_BUFFER_SHAPE_INIT(AI_SHAPE_BCWH, 4, 1, 32408, 1, 1),
    32408, NULL, s_model_model_weights_array_u64),   /* model_weights_array */
  };


/*!
 * @brief Get network activations buffer initialized struct.
 * @ingroup model_data
 * @param[in] ptr a pointer to the activations array storage area
 * @return an ai_buffer initialized struct
 */
AI_DEPRECATED
AI_API_ENTRY
ai_buffer ai_model_data_activations_buffer_get(const ai_handle ptr)
{
  ai_buffer buf = AI_BUFFER_INIT(
    AI_FLAG_NONE, AI_BUFFER_FORMAT_U8,
    AI_BUFFER_SHAPE_INIT(AI_SHAPE_BCWH, 4, 1, AI_MODEL_DATA_ACTIVATIONS_SIZE, 1, AI_MODEL_DATA_ACTIVATIONS_COUNT),
    AI_MODEL_DATA_ACTIVATIONS_SIZE,
    NULL, ptr);
  return buf;
}

/*!
 * @brief Get network weights buffer initialized struct.
 * @ingroup model_data
 * @param[in] ptr a pointer to the weights array storage area
 * @return an ai_buffer initialized struct
 */
AI_DEPRECATED
AI_API_ENTRY
ai_buffer ai_model_data_weights_buffer_get(const ai_handle ptr)
{
  ai_buffer buf = AI_BUFFER_INIT(
    AI_FLAG_NONE, AI_BUFFER_FORMAT_U8|AI_BUFFER_FMT_FLAG_CONST,
    AI_BUFFER_SHAPE_INIT(AI_SHAPE_BCWH, 4, 1, AI_MODEL_DATA_WEIGHTS_SIZE, 1, AI_MODEL_DATA_WEIGHTS_COUNT),
    AI_MODEL_DATA_WEIGHTS_SIZE,
    NULL, ptr);
  return buf;
}


/*!
 * @brief Get network weights array pointer as a handle ptr.
 * @ingroup model_data
 * @return a ai_handle pointer to the weights array
 */
AI_DEPRECATED
AI_API_ENTRY
ai_handle ai_model_data_weights_get(void)
{
  static const ai_u8* const s_model_weights_table[1 + 2] = {
    AI_PTR(AI_MAGIC_MARKER),
    AI_PTR(s_model_model_weights_array_u64),
    AI_PTR(AI_MAGIC_MARKER)
  };

  return AI_HANDLE_PTR(s_model_weights_table);

}


/*!
 * @brief Get network params configuration data structure.
 * @ingroup model_data
 * @return true if a valid configuration is present, false otherwise
 */
AI_API_ENTRY
ai_bool ai_model_data_params_get(ai_network_params* params)
{
  if (!params) return false;
  
  const ai_buffer_array map_activations = 
    AI_BUFFER_ARRAY_OBJ_INIT(AI_FLAG_NONE, AI_MODEL_DATA_ACTIVATIONS_COUNT, g_model_data_map_activations);
  
  const ai_buffer_array map_weights = 
    AI_BUFFER_ARRAY_OBJ_INIT(AI_FLAG_NONE, AI_MODEL_DATA_WEIGHTS_COUNT, g_model_data_map_weights);

  return ai_platform_bind_network_params(params, &map_weights, &map_activations);
}


AI_API_DECLARE_END
