
/**
  ******************************************************************************
  * @file    model_data.c
  * @author  AST Embedded Analytics Research Platform
  * @date    Tue Jan 17 17:03:06 2023
  * @brief   AI Tool Automatic Code Generator for Embedded NN computing
  ******************************************************************************
  * @attention
  *
  * Copyright (c) 2021 STMicroelectronics.
  * All rights reserved.
  *
  * This software is licensed under terms that can be found in the LICENSE file
  * in the root directory of this software component.
  * If no LICENSE file comes with this software, it is provided AS-IS.
  ******************************************************************************
  */
#include "model_data.h"
#include "ai_platform_interface.h"

AI_API_DECLARE_BEGIN

AI_ALIGNED(32)
const ai_u64 s_model_model_weights_array_u64[ 1737 ] = {
  0xbdb7331c3d413ff2U, 0x3dfabbd03d810a04U, 0x3d8bb48fbd860f44U, 0xbd998e4f3d1a57c6U,
  0x3cf83b753e118e59U, 0xbd3942e9be1024dfU, 0x3bbea8ae3d4c396aU, 0x3d885f703d3fd417U,
  0x3d311522bcd0ec8eU, 0x3d953fc13cca2db4U, 0x3d97d6b6bcb7a8aeU, 0x3dbd6315bd31342fU,
  0xbd462a84bd74285aU, 0x3e5031c43e3c6dabU, 0xbe188a44bc5d6eb1U, 0x3dcd86a6bd25e792U,
  0x3dfb40eebab3e358U, 0x3d9d631bbd61c26eU, 0x3cf2fa2ebbc4f040U, 0xbd65fd8abc6c9133U,
  0xbe012153be1c1214U, 0xbda2e9f9bb80fca6U, 0xbdb286003ca6df13U, 0xbda75b063c50a9d3U,
  0xbdab97fcbc369913U, 0x3d860662be49f6d9U, 0x3bbdd9883da15132U, 0xbd895422bd8c4598U,
  0xbc2043eebda57b1fU, 0x3e0934dcbe0bc42fU, 0xbd40ab77bd36326aU, 0x3d0938eebbaff156U,
  0x3cfdddffbd9b9f4bU, 0x3db2da833d834d3dU, 0xbc7c868a3dd1199aU, 0x3d9c1ca8be09fa7bU,
  0x3d9361f73b66fb8fU, 0xbd7ddb61bbed298aU, 0x3e0217b63de06f18U, 0x3d23953b3df441c7U,
  0xbd1da967bcc0e98dU, 0x3e538a63be18767fU, 0xbc9cd74a3cf477f2U, 0x3cfc78c8bd29fa78U,
  0x3c6ef5f7bce0a404U, 0x3d04037fbcaaf2acU, 0x3d10efebbdf34c1fU, 0x3d8afa873d8356bdU,
  0xbd6279263de60b41U, 0x3d0c67a7bcd3f3feU, 0x3dc10a9cbd937306U, 0x3b6640043de6c0bcU,
  0xbca3ae4f3dc03297U, 0xbdf82eecbe4dcec9U, 0xbe1358d9bc94fe41U, 0xbc5981003d5df0cfU,
  0x3df5c82b3c89afb4U, 0xbe15cced3dd59649U, 0x3db0a86cbd8e9399U, 0xbdd79742bdbc27beU,
  0xbe03f35d3dadf6a8U, 0xbc919e08bcf76260U, 0xbde6cf273d07bf45U, 0xbccaa6953df66a5bU,
  0xbd2dc2663d28e3c5U, 0xbd6be40d3dd81694U, 0xbd5b6c5dbda07e26U, 0x3db8899b3daa4fbcU,
  0xbdf5ac0e3e07c726U, 0xbde8d9b13e28f1faU, 0x3d4b3c49bc1c1274U, 0x3d5a8dafbe0972c6U,
  0xbd32da0cbd1f444eU, 0xbd96d3563e1914b6U, 0xbdce728fbda835d7U, 0x3d5e987e3dcad4d7U,
  0xbce592983c5c0053U, 0xbd805f43bd558c90U, 0xbdccff43bb4ffd2dU, 0x3e03bae7bd97cd61U,
  0x3df040473de9d74bU, 0xbcd78bbf3e1df4abU, 0x3e0970b83dc8b0a3U, 0xbda79977bdd45715U,
  0xbe0137d0bc77765fU, 0xbc87168bbdb8e74cU, 0x3d547210bc7d9724U, 0xbd96c35b3d875280U,
  0x3d95ded73dd1cf47U, 0x3dbc4a4dbe6c8b49U, 0x3da9cf173df634f7U, 0x3dd2c20fbcdcd9d3U,
  0x3b6b245abde71c4bU, 0xbde91997bd70efd3U, 0x3d02ed523d578e5dU, 0xbd8b55153e0358c8U,
  0x3d1cd12bbd8e3403U, 0x3db4d3573e085790U, 0x3d22d81b3dc8f26aU, 0xbd5375b93d6414a2U,
  0xbdb6c7f53de98667U, 0xbe0d9063bdadcf5dU, 0xbd9dbeb0bd84bed8U, 0x3d3d39433d018925U,
  0xbdde84f63c44c367U, 0x3d2459d9bd864529U, 0xbdea93c6be067df2U, 0x3dacca2a3d5ad08eU,
  0xbd241e9a3e06736cU, 0x3e0071c0bcc10467U, 0x3cee5d0a3ab66b66U, 0xbcfae33d3ccceb9eU,
  0xbd7019843d8984c8U, 0x3daf3227bd3b89c2U, 0x3bf2257b3d81437dU, 0x3de6754a3d0cc39aU,
  0xbdcd8bc1be12115bU, 0xbb5597bb3e164252U, 0xbe3c2a89bd260ea2U, 0xbdd6b8d8bc7d7716U,
  0xbd70d6f5bd68e75eU, 0x3d2b7598be4a0d13U, 0x3dedaf0fbda7f287U, 0x3c47ccd4bd296526U,
  0x3d557e273d0b111eU, 0x3da529c8bb9ddbc5U, 0x3dff79e43ddd6ea8U, 0x3daf9cc1be03f976U,
  0x3c9de10cbd53c6b8U, 0xbd1af05a3e058907U, 0xbcaba9a03d97288bU, 0xbbbf4cbfbc8c48b7U,
  0xbdfb36953e050436U, 0x3d71401cbd795726U, 0xbe0856fd3cad9443U, 0xbd531d5a3c1a1aa1U,
  0xbcba10f1bdaec9ebU, 0x3e2bb67f3880c64aU, 0xbdc02a593d66700aU, 0x3d0019963d527feaU,
  0x3da1fb9a3d8c6b73U, 0x3db8c687be1ea863U, 0xbd828d03bd93bd1dU, 0x3d7c70d73d05c223U,
  0x3da9279e3d99347fU, 0xbc9c2b76bd3debc2U, 0x3ca42d33bd77fe1aU, 0xbcdd6e18bd7a2465U,
  0xbdb40bf4bd06b81aU, 0x3df58948bc3fc04aU, 0xbd2398e63d245d0cU, 0xbd3d9855bdbca970U,
  0x3db53f133d4a7988U, 0x3d8120b23d605a72U, 0xbd7f7dc83c1ccc9bU, 0xbd3b2fe53d9fc276U,
  0x3cec6a4a3c1ce404U, 0xba836c06bdbadf3eU, 0xbd8101163ce6a6ceU, 0x3d4902493e5a6998U,
  0xbdee1e1f3bf6a1afU, 0xbcbabf19bd6ef392U, 0x3e2caae4bbf61d8dU, 0x3d6d90a2be32751bU,
  0x3b739eb8bca2e42aU, 0xbd7157b1bc8c9579U, 0xbc8b5c773dcf1660U, 0x3d9766323d41350eU,
  0x3d7769e83bb5af45U, 0xbe0841e8be195338U, 0x3e0bc56d3d0c57f6U, 0x3d27d091bd639ffbU,
  0xbd4931a1bda5e39eU, 0x3d8f69953d63b23fU, 0xbcf619543d838be0U, 0xbd61083ebd9cdd26U,
  0xbcc215cebdd3a712U, 0x3d4da119bdfb7e95U, 0x3cafef73bc0a0d56U, 0xbd0a33573d923726U,
  0x3e520af9bdba97faU, 0xbd573e5bbe1d2680U, 0x3e07934fbd8da7d2U, 0x3de082f43c87483fU,
  0x3b1fea29be67e5cbU, 0x3c93b3613dad27a8U, 0x3de0c9a7bcfda249U, 0xbd995f00bbd0f62fU,
  0xbd494717bd9470d3U, 0xba60c7b9bd7f7259U, 0xbd44f4ca3b18eefcU, 0x3d3739e13dad3237U,
  0xbc8b0613bd5dad44U, 0x3dce156e3d82a0c6U, 0xbe0c51e9bb56fb80U, 0x3d1fe97ebd46b71cU,
  0xbd8e8e4e3db2b33bU, 0x3d3470c6bdedf589U, 0x3d985894be042f5aU, 0xbd0b7c5a3cfa4bbbU,
  0xbdf8e7c43cbf1ee6U, 0xbe2213bfbe36f3baU, 0xbd6f8fa23db43c33U, 0xbd56b2a9bd45f78cU,
  0x3de7a85abcdacbd6U, 0x3d6fb9ccbd3c02c5U, 0x3cf4114c3df9eb11U, 0x3e3ef0f5be47ca6dU,
  0xbd296bd6bd0108e4U, 0xba8e07a63d1e67a7U, 0x3d0f2053bdfe6548U, 0x3b5f0baabd3fd93bU,
  0xbc0d50ac3db42673U, 0x3d027b18bcfa9d3aU, 0x3da4c9d13b3614ffU, 0x3d3085393dd15a1cU,
  0xbbfc881bbc50d134U, 0x3d010dfabd47c9b8U, 0x3d183db43d54909dU, 0x3b5cf88ebd3d922eU,
  0x3e0152e3bd881db0U, 0x3d63f41e3e0db81fU, 0x3d9ceeb53c386e9eU, 0x3d7ad362be0d75cbU,
  0xbe1ffc703cf3b7bdU, 0x3d785e77bdc04b3dU, 0x3d051e0ebd8fb787U, 0xbc1684e63cd8ed3cU,
  0x3daa31a8bcc495f9U, 0xbd3c8c22bd1824d0U, 0xbe2621d73bd1ef91U, 0x3b367e38bd7c2ed4U,
  0x3db3cd503d2f12ffU, 0xbdd83bcf3cc55d2cU, 0xbcea3dd93daab10dU, 0xbdac86433dd19017U,
  0xbdafabf6bc25ebebU, 0xbd21aca83d6a6428U, 0x3c4170cbbd08f867U, 0xbdeb2cbbbcc4eb2dU,
  0x3db3b8903ca10ed7U, 0xbd42d321bd164c4eU, 0x3d172b243c85861aU, 0x3d6d3888bd4f0d2eU,
  0xbdca60c83d44fe40U, 0xbc2a8982bd95d0baU, 0x3e0cbffebd8f5cb9U, 0x3dd459c63e5eda38U,
  0x3ba72ae5bd44a59bU, 0xbc0cacb1bd00ba9eU, 0xbd07eccb3e0547abU, 0x3d2a494b3d9b185eU,
  0xbda55dd6bd03838bU, 0x3d62bb313e15d342U, 0x3d95e886bd8233fdU, 0x3dd9c089be4baebeU,
  0xbd150ea53b8e3789U, 0x3d24183abd8f39a8U, 0xbd43bf2b3c97e85dU, 0xbd02d1093e0ccdd6U,
  0x3d9c57503d6932abU, 0xbd547ccd3cb8d87dU, 0x3db98d233d1b9befU, 0xbca7a092bd12e0edU,
  0xbdc364b23d9f8c57U, 0x3c90ce4c3e11e8b8U, 0x3df88a79bd11280fU, 0xbd2fb8b0bdd581faU,
  0x3ce640d33daccf91U, 0xbd8b5d46bd8185a7U, 0xbe004b49be1341b4U, 0xbd260fffbd3cc2aaU,
  0xbc5f2406bdff26a1U, 0x3d1da2173cafb53aU, 0x3dab465a3e120d27U, 0x3e0021b83c60df32U,
  0xbce8685ebcae051dU, 0xbd8684be3dc9a7edU, 0xbd6b58c33d88c19dU, 0x3c860c10bd3b74e4U,
  0x3e0e91943db52eafU, 0x3e0fb0e13d36db2dU, 0xbbbe6e873dc7890fU, 0x3d16871c3d6af706U,
  0xbd31e1e3bd5218d2U, 0x3defc7acbbf4a8e5U, 0xbcc23e8a3dbf9e90U, 0x3cb21ebf3d101545U,
  0x3e033e233d3eea0cU, 0xbc8d2babbd34da5fU, 0xbd7c7be13dbf673dU, 0x3e2e73c03dd079c4U,
  0x3d8fd534bc8fd292U, 0xbcff4b92bd07bdfaU, 0x3df29a2abb660192U, 0xbdc9377abd90f7e6U,
  0xbe2a3c7b3cf49fc0U, 0x3e036b2a3e2db8caU, 0x3d4d3310bdbef0caU, 0xbd092ec83cb624cdU,
  0x3e044f983e3c8d83U, 0xbd3f3007bc6da2c1U, 0xbd9cea483d49b511U, 0x3d7011fe3dda86a9U,
  0x3d59fcc8bde6a29aU, 0x3dce4bc3bba7359bU, 0x3dde81233e3194beU, 0xbd905cc63d5e5ccfU,
  0xbdda5cfc3da990f0U, 0x3d8c6064bdc0ddd3U, 0x3d59bb99bd102a34U, 0xbda2dbf1bd8e18c8U,
  0x3c0add9abcb7070dU, 0xbd733476bd5bc997U, 0xbe36ad8b3da2eaffU, 0x3d5ad284bd0329b2U,
  0x3d64bb813da70780U, 0x3cd23e28bbdf5080U, 0xbd9558203b59c360U, 0xbd69cc52bdac9a72U,
  0xbdb28165bd95212fU, 0xbe1cd1b9be2a2b35U, 0x3d0b9b5a3e1f6648U, 0xbcd7da12bc9c18f4U,
  0x3cfe16c3be2c80e6U, 0xbdc6bd0f3dee1317U, 0x3da4d7063db31d11U, 0xbd92604bbd9eed06U,
  0xbdab7962bd43527aU, 0xbdca77ccbe08ec58U, 0x40ff00c340d53162U, 0x411aa17f40fc7a9aU,
  0x40f5fc674110a126U, 0x40c568cf40d8952bU, 0x40c6fbac412c8f70U, 0x40b7237c4102f63eU,
  0xbf5981323d059430U, 0x3efe0ecabfb798d5U, 0xbf1f704bbf37249dU, 0x3f8da8aa40134228U,
  0xc016965440048711U, 0x3f01508ac00f1d8dU, 0xbc822f2ebc85e7e0U, 0x3da347f93c67e8d9U,
  0x3e182dfabb762a47U, 0xbd1de8be3d9f6189U, 0xbd67244cbd09d160U, 0x3ced4a55bcef0e81U,
  0x3a763e2dbc56be39U, 0xbc6cefbdbd112c2cU, 0x3caa36cebe0e715aU, 0x3c98d9283dd4e4c5U,
  0x3da0ad7fbe0601ffU, 0x3c2371733d6f4ef7U, 0x3caad33dbd8cad7eU, 0x392e518c3be6e356U,
  0x3daaf67dbd15ed7aU, 0xbce43e423d8e9970U, 0x3d5f4ed73d05a1b5U, 0x3dcb13bd3d28abc6U,
  0x3dca1908bc3b5d78U, 0xbcd05c43bd5ad408U, 0x3d1de840bd80fcd0U, 0x3c8b8e70bcdace90U,
  0x3d0e95cfbc5645ecU, 0x3bef505b3c030601U, 0xbc9d3584be17603aU, 0x3dbde06b3da8e6d7U,
  0xbc3659793c62aa43U, 0xbd9a2e9c3bd9d6f4U, 0xbcd5344cbd4e9482U, 0x3c446cc63d805cf0U,
  0xbda240ffbd8b12b6U, 0x3dc5abb5bdaeabb5U, 0x3ce00fc9bce7506fU, 0x3c0f7f18bddfc52dU,
  0xbba4dde83d075cb6U, 0x3b6f901a3d229e5bU, 0xbd0f4e8cbc8739eaU, 0x3d20d5b53c8fa11eU,
  0x3d9592fdbd8def81U, 0x3c0758033d28fe74U, 0xbd15f862bd4a59baU, 0xbba084b4bd3341ebU,
  0x3ba731ffbdbc1937U, 0x3d87a71cbddeef2aU, 0xbc7a1bad3b209518U, 0x3d3f27debd01f3adU,
  0xbc056f36bd4c0945U, 0x3dca2b3ebdbeb6edU, 0xbc8ae750bd9767f0U, 0x3dedaf73bd71fbfbU,
  0xbcb3e2b13b9a311eU, 0x3d4f6da4bccad421U, 0x3d17c5c6bd2a7effU, 0xbcecb251bd16060eU,
  0x3cc13c003e27f7e0U, 0xbd9e86e73e0593b3U, 0xbd1d39103d2d3f4dU, 0xbcfd2623bc401fbcU,
  0xb9edb050bd0b7116U, 0x3da722993ccc3279U, 0x3caa85a33e01217aU, 0x3c158e563d70777bU,
  0xbcac6302bd828345U, 0xbd7830143d096eacU, 0xbd93dd7d3baa3cc0U, 0xbd6c4a52bcdabd92U,
  0xbd61d6ec3dd82b05U, 0xbdacb1e13d636353U, 0x3cce0dd9bcad28e8U, 0xbc215d51bbab9a2aU,
  0xbbe9f141bd49198eU, 0x3da5fe7dbe08e1efU, 0x3d0800b63dc58351U, 0xbd6997ad3bcf8b9fU,
  0x3d1b58a6bd42b62cU, 0x3d92c5d7bda3ff6cU, 0xbc486566bd2c3db5U, 0xbd4f3a05bc78a34aU,
  0x3ce5183a3dbe1381U, 0xbdab40e8bc5de379U, 0xbdfe8918bd4b912bU, 0x3d22cf3d3d41ff5cU,
  0xbcf812b6bcd6c760U, 0x3da9517b3cf40a8fU, 0x3de4e1043daf2fbaU, 0xbd701b5b3d1aecd5U,
  0xbba5e85eb9b3e2e2U, 0x3c14b739bc057e4eU, 0x3d5572303cbd116aU, 0x3d5852dc3d4f2a6bU,
  0x3d48e0c93d8ef960U, 0xbd2275ed3e01d808U, 0xbd6131363c9afffdU, 0xbcb3600dbd9cdb36U,
  0x3d701f9e3bb89a96U, 0x3dba99a3bd9a4160U, 0xbcffdfa23d290394U, 0xbd04d3243d1018efU,
  0xbcba251ebc2506b1U, 0xbc6bbbe73d2218c1U, 0xbbdd88c6bc9a98b3U, 0x3d892a6b3dc54970U,
  0x3d431d913d336cf5U, 0xbdc5b5203e269a9eU, 0xbd367343bd4caec6U, 0xbcea5815bca7e882U,
  0xbbd777803b0a7f82U, 0x3e0b3fa53bec6a95U, 0xb8f956043d1c261bU, 0x3cd1998b3a7cc99aU,
  0xbd1c14d2bbbd0d57U, 0xbd5da9e53e36461eU, 0x3d9b4b63bdd16ed4U, 0x3cec918cbc417f19U,
  0xbdee3d01bb8d14edU, 0xbd0d6431bd3357cdU, 0xbd9864bb3d97e580U, 0x3cec1bf63e2433c8U,
  0xbcff0fa5bd91008bU, 0xbcc1665abd8780d7U, 0xbc2cabce3cc4ce07U, 0xbacee95cbd958dd2U,
  0x3d6006523c792dbdU, 0xbdeba1493dc452fcU, 0x3e1e21babd4949f2U, 0x3db20a0dbd83156aU,
  0xbbb6ec1d3d977a36U, 0xbd57d2293b5f1dd9U, 0xbcbb16d03dd3f99dU, 0x3d9536acbd12d9aeU,
  0xbbf5c880bca7ff84U, 0x3d524d02bd901819U, 0x3c40549cbbb288c8U, 0xbcae7e423e0eed19U,
  0xbd486ed1bbc440b0U, 0xbcae8db53d605ba2U, 0x3d813722bd032913U, 0x3c7dddcf3d1a8c7bU,
  0xb91af7373cfe5465U, 0xbd20ebad3c680c86U, 0xbbdef3333d2fa6e4U, 0xbd2743edbd78a063U,
  0xbcc5996e3ae535ceU, 0x3ae3d0673d3e5d2cU, 0xbd4948c83d0089cdU, 0xbd6e80eb3d1e9367U,
  0xbd879c8f3dc0ea15U, 0xbd50e3b03e3fcb72U, 0x3c001e49bd44494eU, 0xba271904bc1a501bU,
  0xbd2bb1f83d9b875dU, 0xbcb1b194bce6de79U, 0x3d233451bc3d7802U, 0xbd63b3c93ce3bad7U,
  0x3debf19dbdedfa0fU, 0x3cd6ea1cbdae77deU, 0xbdf952533cff0d25U, 0x3b975c41bd4e2547U,
  0xbc50b89e3d19f521U, 0x3c26c6993db828b5U, 0x3e01cfef3cca6304U, 0x3cb26841bd694b37U,
  0x3a9b532ebe0aa0d7U, 0x3d66e869bbedbc4bU, 0xbbc491f1bd91b762U, 0x3dcfb4f2be478e04U,
  0xbd80f6803dc68cbeU, 0xbc9ee4583dc8573cU, 0xbbbdfffbbd38e149U, 0x3d288bd4bd2da434U,
  0x3b491ffd3d479101U, 0x3cf5e0b7bd58d096U, 0xbceb4bdf3d0a865fU, 0xbd991e8abc9f74c2U,
  0xbdace430bdfa1938U, 0x3e036d76bd87ddd5U, 0x3dec2022bce82938U, 0x3ded5ea8bcc4be21U,
  0xbd25f82a3c28936eU, 0xbd25c4d23dc284f3U, 0xbdb79485bda17ffaU, 0x3daf7d0b3d5cdae7U,
  0x3e1ca4a5bc9df828U, 0x3d48c260bd27bcc6U, 0xbcd5c11fbb6823feU, 0xbb20ba313d4c477aU,
  0x3ce77672bde3c375U, 0x3db4debebd5cb08eU, 0xbc9fef74bd4b1a7cU, 0x3d70a374bd9477e4U,
  0x3c91e7293d1fc856U, 0x3d35e8ab3b3e7077U, 0xbc901985bd85a327U, 0x3da66db63d99c9f4U,
  0x3d33d0c4bca2c71cU, 0x3d2b7ca8bd5f400cU, 0xbe0267d7bd22bb6bU, 0xbd3163e93c455112U,
  0xbb3bbeb6bda898e2U, 0x3da325363dda8ef0U, 0x3cc2ac3cbd83c64bU, 0xbcf2b3cebcf54ec5U,
  0xbdc4b1613c8b33fcU, 0xbbd6a98d3db38f51U, 0xbbe30f78bc07b493U, 0xbb054764bcfee90cU,
  0xbb5a5771bc987a75U, 0xbd359195bd134e13U, 0xbc579fb83b952aa8U, 0x3c6fa3ff3d617613U,
  0xbc1d6aeebd247848U, 0x3d0582d73dcb09e4U, 0x3ddf2a62bcf47a64U, 0xbd950d373d8bff40U,
  0xbd4aac27bd0b2fd8U, 0x3d5957703d1aa81bU, 0x3dec1eabbd6d85a9U, 0x3c96ce4d3be534a1U,
  0xbdb4690f3cea6b19U, 0xbd40cc8a3e77f1d6U, 0x3d65ecdcb9f1035aU, 0xbd8eac40bd6de46bU,
  0xbd337e26bd28947bU, 0xbc9230883d0505c3U, 0xbd049245bc242928U, 0xbcf7bb513df2e6b7U,
  0x3d1459aabc4dbb0cU, 0xbc80c490bcc7379bU, 0x3caae6c4bd5b8016U, 0x3ba7e6abbcc63204U,
  0x3c6ca212bccd5a57U, 0xbcae2bf33dbdf15bU, 0x3d86b718ba9b6434U, 0x3c4c2d9abcb19a93U,
  0xbd132c65bcfcb219U, 0x3d088a46bcdbcfa4U, 0xbd25e3843d0a0d7bU, 0x3dc1f4a63ccf231eU,
  0xbd598e0abd29f88aU, 0xbdd8543cbd109d83U, 0xbd85c5d83ad8b9bdU, 0xbd2ddda03ad130edU,
  0x3cdfc950bcbc7d6eU, 0xbcb7f7ff3d178810U, 0x3cc87b01bccceebeU, 0x3d3044e4bc9517e2U,
  0xbdae7cb3bdd080aaU, 0x3d856062bd9d8543U, 0x3d3c67c33d9c94f2U, 0x3d4cd8b1bd7a2647U,
  0x3d418b683c852b51U, 0xbc8752c03d0ed60dU, 0xbc44ac7cbb5a196dU, 0x3d197f4dbcc4ac81U,
  0xbcb10ffe3d79f7a9U, 0xbd0f817f3da249d0U, 0x3dbbfc59bd757a54U, 0x3ceb438abbfdddd5U,
  0xbdde88b33d2167ddU, 0x3cbc2dcebd83de10U, 0xbc4c93a23d9a1d5eU, 0xbdd32b3a3d47986dU,
  0x3ddd1578bdc71d10U, 0xbd2fffa2bdb7ef22U, 0xbe57a6bf3d51c6eaU, 0x3d0364c9bc5b90afU,
  0x3db9f8363ddf408bU, 0xbdede1613d8089dfU, 0x3d52e00abcc323f2U, 0xbd819535bd67b774U,
  0x3d5c43adbd256d85U, 0xbce25cc8bbcd08b5U, 0x3bff3325bd945aa7U, 0x3dbc3719bd234f7aU,
  0x3af7acc43e09b09bU, 0x3b465d66bd6c9f9fU, 0x3c74f222bc86e4a9U, 0x3ca140ebbd1a58c7U,
  0xbd46840b3d8163bdU, 0x3d61bd8fbdc7daf7U, 0xbcf406643d5802c5U, 0xbd1869fe3d168d9fU,
  0x3c71a20b3ccb2e05U, 0xbdea33f63d5f2109U, 0x3d22b905bd57185dU, 0x3dbcf89fbd70f778U,
  0x3d265d0e3db8cc6eU, 0xbd8d9cf4bd3e8afcU, 0x3cac29ce3d334f98U, 0xbd7a1292bd35430eU,
  0xbc3b5a8c3d9077f0U, 0x3d198dd1bddcf8c0U, 0xbd370d463cb3a757U, 0xbcace4a7bd54fac8U,
  0x3bfe2418bd01d0c1U, 0xbd8e8d82bce5d0f3U, 0xbce0080d3c6eaa5dU, 0xbdbfff4dbd64989eU,
  0xbd070071ba3e104fU, 0x3d928915bd51393aU, 0x3d4754c93d9dedffU, 0xbd007926bd4bd5f5U,
  0xbcbcd045bd0a79d2U, 0x3d259677be081670U, 0x3bd362da3d2cab0fU, 0xbcb478b5bd8e9526U,
  0x3d155bfa3da2093fU, 0x3c028a18bd972d93U, 0x3d91ce9fbd0a0019U, 0x3d5ad23fbd3bbbe0U,
  0x3d2673ee3e2adb34U, 0xbd3f5d38be293cdcU, 0xbb7d6a1e3c67c9d7U, 0xbd7d1f46bbc55704U,
  0xbd81ee8ebdb21179U, 0xbde1456cbd92c40fU, 0xbd68b6d83d4618e9U, 0xbcb3b5da3d065969U,
  0x3e3242383d96dd6dU, 0xbcfcbfc03ce08a1bU, 0xbd693f4cbc95725cU, 0xbd7843cf3d8b249dU,
  0x3c1db09c3db24757U, 0xbd0de372bd60de6cU, 0xbe0ece20bdac405fU, 0x3dcef4d93cfbe466U,
  0x3d4db73cbcaf55acU, 0x3d1031f93d8441b9U, 0xbc421c0bbb8d7e81U, 0xbda1bbb73e00d66fU,
  0xbd5a3208bd349fb8U, 0xba80ba45bd4c9626U, 0x3cc43c153cb39c2fU, 0xbc72a1113c01fc3fU,
  0xbc4563f7bc9ae46cU, 0xbd9597c03db13cfcU, 0xbd9526b1bcadfe56U, 0x3d5a3be33cdb6264U,
  0x3d9810713c964c92U, 0x3ce647f63d9bf7a0U, 0x3d6762d93c89f3b5U, 0x3c226e3d3b419bcfU,
  0xbd21ed50bcce118bU, 0xbb069b273d99bf9dU, 0xbc52acb63ddba652U, 0x3ce745f3bcb4a462U,
  0x3cc708913d428d92U, 0xbda93bd63d4a40d2U, 0x3d18381cbdd8d9d0U, 0x3db0701dbcc75990U,
  0xbd1e78f53d72e659U, 0x3d2404653d21d608U, 0x3cc4f8b33cfe39a7U, 0xbc3b6176bd3e7387U,
  0xbd501c1dbdacdbfdU, 0x3d0193773d4bc7c0U, 0x3ccd6580bc8ab25aU, 0x3a8b262abc018671U,
  0xbb3db9043942e5e4U, 0xbcd1dd48bcb6fcdfU, 0xbe1483dabd2b60a9U, 0x3cc2907e3cf3cd2eU,
  0xbb2aa0df3c53044eU, 0x3b2bbb143dfbf0e3U, 0x3d4bd8cfbd6bd822U, 0xbd84b8783d821798U,
  0xbdf6fa073b7a6d93U, 0x3d0ec390bce68ca5U, 0x3d208a983b952ad9U, 0xbdb461c13dda9114U,
  0x3bb412d0bd1ac5e5U, 0xbd91fe493cfba2e6U, 0xbe473cf9bc7afe77U, 0x3ce6fc863bfff9d2U,
  0x3d72ac693df0ddc9U, 0xbd9f2f2f3c8fc6f7U, 0x3c1ec8dbbc2b0017U, 0x3d063e093d54f4f2U,
  0x3bcbc57d3cc742b2U, 0xbda68ff63e0e75dcU, 0x3d12c1313d79b85cU, 0xb921a2b33dafcb7bU,
  0x3d9618acbdac069cU, 0x3bd70d603dc447b0U, 0xbd7c72103c351351U, 0x3da824febd4391a7U,
  0xbc8e89ae3ce866c8U, 0xbc8aa8093dcd5339U, 0xbd4ad9acbd0014e3U, 0xbcfed53dbd997b36U,
  0xbc5fbd53bcd4b89dU, 0xbd5998833dfe4c39U, 0x3ab257b43bb83eb3U, 0xbd3559473d49745eU,
  0x3dd96d02bb800e6eU, 0xbc6e75f83d9fc676U, 0xbcae8126bd94de71U, 0xbca94cb93d8165fdU,
  0xbdab6206bcbd8f32U, 0x3cfd433d3e544a1eU, 0x3d4a8ff939d944e4U, 0xbdcb34f63caab44eU,
  0xbbcc68de3cd05316U, 0x3bcbc8bfbd414fcaU, 0xbbbe2c813cb7f165U, 0x3d217f013dec26e2U,
  0x3ccf41aebdad8becU, 0xbc8042babd933101U, 0xbdcdd9143d72d4d4U, 0xbda521543c818f7dU,
  0xbdb720073d2b89e9U, 0xbd9eb7c23e07c5a4U, 0x3c2548e9bce377bdU, 0x3de19528bd2a215bU,
  0xbd3488a63d2227a3U, 0xbb9dd4fc3d06bd69U, 0xbd2dd23d3d739cf8U, 0x3c6a6b323cfeb49cU,
  0xbd0e39a2bd3bc1e7U, 0x3d0674a43d7de31dU, 0xbddc04dfbcf808a1U, 0xbd25d93d3dae48bcU,
  0xbcced30d3dc0cc12U, 0xbd962d4f3d6420deU, 0x3d66cf08bd66cc63U, 0x3d20b3b83c2b04ebU,
  0xbe02ba213d3a728cU, 0x3d0283833c85dbc6U, 0x3e07ebc03c916e6dU, 0x3cec4bee3cbdd338U,
  0x3da682afbcd2ad65U, 0x3c9cb7f03c042c16U, 0x3c569b90bd3fdceaU, 0x3ce6fc7fbdc28f95U,
  0x3c633458bbaf91efU, 0xbcb3d035bd5c28c1U, 0xbbc775003d53d7f5U, 0x3bf7a695bc691014U,
  0xbc470ad83d7812f8U, 0xbe16e4ac3d1cfd42U, 0xbbfec4d6bc66a0b7U, 0xbc2b944abe293f02U,
  0x3b61d3aabc8c7a86U, 0x3bb51680bcab34a1U, 0xbcb409e73b00ab11U, 0x3d30b810bd84a5cfU,
  0x3c71f8bcbc4a9ab5U, 0xbdb2292fbde5d4c4U, 0x3b6a0f693dbbc082U, 0x3cb2715cbda3a961U,
  0x3c1b972a3d33fe46U, 0x3c51c6f4bd30cddfU, 0x3db1c6f7bdb505c6U, 0xbd1b3f8d3d2c2ff6U,
  0xbd1201853e087782U, 0xbd7d0b40bd5c4012U, 0xbc47dc9ebc85cc18U, 0xbc8f9347bcae5f51U,
  0x3c251221bca3d179U, 0xbdfc7c61bd41af16U, 0x3cde3fc93df0d945U, 0xbcba9c18bd9bb7caU,
  0xbd0dd2c8bbee2061U, 0x3d752818bc67c5b5U, 0x3da2718fbcf3d702U, 0xbcc3644aba129c2eU,
  0x3cf898d33d936c4aU, 0xbcdeb67abd6c384bU, 0xbbccbd2bbca835d3U, 0xbcd003543bb583f0U,
  0xbd01f94b3b5bf489U, 0x3d54800e3d7d65d1U, 0xbd310b7b3e1095bfU, 0xbd2e2e733d513ac8U,
  0x3d4b1bd93a781fa7U, 0x3bb1a578bd909797U, 0x3be67c19bc28777bU, 0x3c7f8173bd60704fU,
  0xbcdc7c4b3d199c42U, 0xbd55eeee3bced30bU, 0xbc5ae7c8bc686f63U, 0xbc7efd573bc2f898U,
  0xbd29cdf03ad1b14bU, 0x3cd6279bbd5e11edU, 0xbcf018eb3d5e99fbU, 0x3cdb72203c5c0067U,
  0xbd0c6a01bd5c5026U, 0x3d2113dcbd46eda7U, 0x3d972b8339dc5f5dU, 0x3cd62460bd66f539U,
  0xbb8c587ebd1a6b53U, 0x3dccddafbd3c52e9U, 0x3d811b673d802c4eU, 0xbd11e092bcf9ced3U,
  0xbdb586593c54ceb9U, 0xbdcfc283bd005266U, 0x3d016e82bd69cd33U, 0x3d9d3c1fbd8b1962U,
  0x3d988152bd09c742U, 0x3d30415fbcc7bad1U, 0x3d873c76bd857adbU, 0xbd8c2cd7bdf22228U,
  0xbcca69d73d1faa66U, 0xbd57b7583d1e7808U, 0x3ca799e73d34d134U, 0xb9bef849bd4cfbf2U,
  0x3c122275bd633b2eU, 0x3def4f96bd7d9278U, 0x3ccf11f93dfe3fbdU, 0x3dcf32bdbd9188f6U,
  0x3d19e5f8bd6885acU, 0xbdbe9317bc12baf2U, 0x3d29ca213d93e9f9U, 0x3c6000d4be42cf8cU,
  0x3cd1a596bc750301U, 0x3d180d52bd2315b4U, 0x3daa32703db0306bU, 0xbca7e9853b69d27cU,
  0xbcfa72babd91c2e8U, 0x3dfd1506bccdc00dU, 0xbd354e0d3d9bf489U, 0x3d28f3b3bd446fd4U,
  0x3d3acfb23d60c0b5U, 0x3d21b29abdbf272bU, 0x3c92dc63bd31b9a6U, 0xbb76c2583d4e770cU,
  0xbdca46fb3c8c8da5U, 0xbd874c32bd8b4029U, 0x3dd7b5923d702d20U, 0xbd9bde7c3bd20198U,
  0xbaf891a039fe3f36U, 0x3ced43b5bdf1836dU, 0x3cf678ecbd29cf8dU, 0x3d51f6f8bd91b9edU,
  0x3d861c92bd7a33b1U, 0x3d295e6fbdadc522U, 0x3d03ce02be0cfadcU, 0x3d836d1a3d0bdd4fU,
  0xbd8851743d9c02acU, 0xb9587415bc847a01U, 0x3cb847843dda8315U, 0xbd98c7a13cd61345U,
  0xbd4af68b3d278804U, 0xbd0cf4593d46e689U, 0x3d554dea3cd5292fU, 0x3d94f801bc79fb34U,
  0x3cd705023d2f1139U, 0xbdc22d343da99b9eU, 0xbcc6dcb6b9440786U, 0xbd36228a3daeff8eU,
  0x3db7c87dbd86ed39U, 0xbd1ff1d6bdebd0aaU, 0x3d2101fd3d297928U, 0xbb92745d3c633e77U,
  0xbd109f3dbcccb9ffU, 0xbd5c664e3d7649f1U, 0x3d6fc9483c0435a1U, 0x3dc172fcbd8f452dU,
  0x3d10a2903d795ed1U, 0xbd6a59503b98215dU, 0x3c260a88bc601ff0U, 0x3d058ade3c8eedb0U,
  0xbc9cc956bd8dab4dU, 0x3d27aa87bd90bfcbU, 0x3c77ce8c3d955f64U, 0xbc6bb5e4bda86587U,
  0xbdc15972bcdfbedbU, 0x3cd73f463b10a6adU, 0xbd7151efbd580791U, 0xbd081a98bd83e5cbU,
  0xbd03b2703d6b3042U, 0xbd581cc9bcf54cc4U, 0x3d90d3fb3d9753a8U, 0xbc3565a0bd3a8928U,
  0x3c7c8366baa2b0c8U, 0x3c1c1027bda32527U, 0xbb6642313d512c67U, 0xbd93da893be219c6U,
  0xbc04f6fe3e14f7bbU, 0x3b5904f43d8556c0U, 0x3da485debc28a5a7U, 0x3c98c9e8bd772e09U,
  0xbd73d58a3d8a28dcU, 0xbc4d6acaba9e1764U, 0xbc5f14303c427613U, 0x3b33038b3c3330feU,
  0x3debd69cbd5b61d9U, 0x3db65353bd0bf95fU, 0x3cf1542a3e1f0737U, 0xbdaf6cb7bb408ea2U,
  0xbd5568c73cf7d838U, 0xbda093023bcfeebfU, 0x3d9a8f683d774e5eU, 0xbca8a4c6bc206fb5U,
  0xbd8f1ac2bca36340U, 0x3b5c8bd63c10f44dU, 0x3d1cad07bca40340U, 0xbce6113bbc95f426U,
  0x3d60dcfa3e173207U, 0x3cba48e83a993073U, 0xbd67962cbd1c7a34U, 0xbd3296e63bfba122U,
  0x3c65bc51bcb798fcU, 0xbd1780d2bd5dd3bbU, 0x3cedac103d7fd6c5U, 0xbc2d049ebc008f0aU,
  0xbd9b04ac3d1257e3U, 0x3d004020bce4f47cU, 0x3dbe3f11bb6baf21U, 0xbd829d34bc9102b8U,
  0x3df743e33debdd04U, 0xbd7a30e33cc5e05dU, 0xbd8f2945bce8ffceU, 0x3c2756143cba13a7U,
  0x3cbab9a0bd49be38U, 0xbbba3aa53def7a52U, 0x3c7b5b773e42e307U, 0xbd55e393bd363c2aU,
  0xbda3b950bdfaf67cU, 0xba58272bbbc39856U, 0x3d9237083d72ff63U, 0x3ce7933bbd8a25edU,
  0x3d066a923d8f274bU, 0xbac031133d9798abU, 0xbd104aa5bb89b6b5U, 0xbc51ff773cb4fbc0U,
  0xbd24d5063cf52318U, 0xbd1a516cbd023ef8U, 0xbde46df83ded7031U, 0xbce4f9ee3c50a884U,
  0xbe333d33bcb86004U, 0x3d1af8503c3501e2U, 0x3b2817913cc0f149U, 0xbd8c331a3d8a6db9U,
  0xbd11c3563da703c6U, 0xb8bc74aa3da64ea9U, 0xbd42d9723d1e16adU, 0xbd9ad7a2bca2c1e4U,
  0x3d3537bb3d153b84U, 0xbd85013e3c458d8fU, 0x3cb2777b3c2a577bU, 0xbd390b4cbcc635bbU,
  0xbdcf68533cd5952bU, 0x3d403ed73d897dc6U, 0x3cf3ef8b3d823033U, 0xbc8c3cbc3c2c948cU,
  0x3bdd344ebd2f1eb9U, 0xbb716b763d359fddU, 0xbd5f5d91bcc7b28dU, 0xbc7263a03dcb9754U,
  0x3c1b86753cf162f8U, 0x3c65b1afbd9e3710U, 0xbd6cb8ef3d3f476eU, 0x3bde48da3dea14daU,
  0xbadd18e5bbb34367U, 0x3ca9ea543da5b6dcU, 0x3ce6c4abbd94c50fU, 0x3d748a1e3d7b279eU,
  0x3cf705a53cb72663U, 0xbd7272cebb7fb480U, 0xbc9a7bcc3d23dc7eU, 0xbc9af9543d1eca32U,
  0x3db7c69d3d6c1889U, 0x3b86b7e2bdcd952aU, 0x3c0771f73c6b1ab2U, 0x3ce665083cd91356U,
  0xbd2c15e0bb9fb6b4U, 0xbd3a855e3dcddba1U, 0x3d0927623c000179U, 0xbc71ff2a3c9506b5U,
  0xbaccd3943ce8e8b6U, 0xbd18444f3c45c94fU, 0x3d12fbee3dbc84edU, 0x3cd318623d7b057aU,
  0xbcd00dddbd039b4dU, 0x3bcb4936bcb711c1U, 0x3c6e9401bcde3e5dU, 0xbcb0ed8d3d626b9aU,
  0xbda6ebe4bbf3a0c8U, 0xbdbdd1273d9a6e5eU, 0xbbea172dbbdac2d8U, 0x3d3b7ad63dbb64f7U,
  0xbb25763abcfdaa33U, 0xbd0c7f3cbcd3b129U, 0xbd97e9993db190b6U, 0xbdc713723dc38affU,
  0xbcb6e9973dae5e44U, 0x3d5cacd43d7e433dU, 0x3bf775b33c58c8bfU, 0x3d17e60f3df66ee2U,
  0x3c8de731bd52b953U, 0x3b6227313e313504U, 0xbd96e220bd57126cU, 0xbcc1a7503ccb2264U,
  0xbd5e8748bda3162bU, 0x3b98f61d3df64168U, 0xbe143df23d759d50U, 0xbcc18c1b3d485755U,
  0x3d0b4b433db01aeeU, 0xbc8fa5183df97180U, 0xbd7d95bdbcb3d9c4U, 0x3da596413d7d7cbdU,
  0xbca6deafbdb2cee7U, 0x3d7a82e73d4254a0U, 0x3dc432c5bdab4073U, 0x3c8695273ca9e4bcU,
  0x3d81cfe3bd1e23c7U, 0x3dc38096bc673455U, 0xbbdba2903d44d9cfU, 0x3b1f949ebc729813U,
  0x3da5d7d2bd3b5155U, 0x3da46eb6bdd2cf9cU, 0xbd0ae690bdb6c176U, 0x3d11dbb6bc05da6cU,
  0xbdb6b197bdf8d460U, 0x3db7fb8fbd8a0ba3U, 0x3e2f7098bd64279aU, 0x3bd5ca34bd5a75afU,
  0x3d40ce7f3d696d90U, 0x3c6becf43c734726U, 0x3c5132e23c02ac31U, 0x3bcb64a2bc4f3403U,
  0x3bc86e7ebde60debU, 0x3c3da759bdfb85dbU, 0xbd3e20003d021e49U, 0x3dc5173b3d9331a3U,
  0xbd076a08bc980e8bU, 0x3a0112d63d83afffU, 0xbd3d10bfbc7c930eU, 0x3d2363ff3caf3408U,
  0xbe0c2ecfbc3cd711U, 0x3cc9d0f8bbbcec18U, 0xbc9a751e3aaef1c7U, 0xbbdb3dc83dcdd7faU,
  0xbca4277cbdfad24bU, 0x3c2890473cd387fcU, 0xbd994b91bd5a4947U, 0xbd1ec8863d0e237cU,
  0xbcab81ee3d02d306U, 0x3af9a7373d582103U, 0x3e02e991bd0cbca1U, 0x3cb72f35bc772818U,
  0xbd80c033bd049f21U, 0x3d09258a3d9676e6U, 0x396fe8d1bcaaac02U, 0x3c79c4c53d43bcb3U,
  0x3e05cf00bc9ff649U, 0x3c8daa65bddd93a4U, 0xbd8dd9bdbda7b7f4U, 0x3d181b833d0ce978U,
  0xbd67b17cbc2fbc55U, 0xbd13031e3d897398U, 0x3df92901bb5a30deU, 0x3d1012653c8ddcd3U,
  0xbdba5a40bd19b08cU, 0x3e127c6f3cf529dbU, 0x3c3c247abcb69e29U, 0x3d7a9b18bd46a7d7U,
  0x3d7d162cbdec7103U, 0x3d8df418bdfdcff4U, 0xbcba5c613e04120dU, 0x3c99570bbc88eb25U,
  0xbd95ef69bdd8d751U, 0xbcd862723cb649baU, 0x3d920d0abd163309U, 0x3c804525bdcdd024U,
  0x3b1847ba3daadd6dU, 0xbd9d78613c47c043U, 0xb8fd06613cdbdd60U, 0x3d6785ff3cd85837U,
  0x3d568163bd43cd42U, 0xbbc2ea37be058c55U, 0x3d3415053dd17ad7U, 0x3c0d016f3d19cffdU,
  0xbd925baa3d3804eaU, 0xbd626251bc095332U, 0xbd3f6fd93d34058bU, 0x3cbd5e2abd06c453U,
  0xbd9ac4df3e17901eU, 0x3c9bb021bcb4aff7U, 0xbc7b93b0bdb2df5eU, 0x3da723cc3d45abecU,
  0x3d418828bcd9ebd1U, 0xbd60e6e1bd3ef10fU, 0xbd40fcbf3d41d165U, 0xbd1e25e63d8739c7U,
  0xbd4e88a2bb0c1067U, 0xbc837d9a3d13447cU, 0x3d230f82bd953231U, 0xbd11d3e7bd814b12U,
  0xbdb7dce93cf7aedfU, 0x3ce72b923c7f3297U, 0xbdf5c8b83a691adaU, 0x3ce7f165bc507239U,
  0x3ce1919dbb82c328U, 0xbcc559febd8eb3daU, 0x3bb30c9f3e19a53fU, 0x3c4eb4493d40034cU,
  0xbbc7b5bb3b99dbe8U, 0xbc1c283f3d1032efU, 0x3d2b9d973d26a8d5U, 0xbd965e9b3ccea6c2U,
  0x3cc9abcb3c21ea7cU, 0xbd10bdd93d29581cU, 0xbcc40ce13c3acf55U, 0xbc8d2b1c3df0bd92U,
  0x38ab3af23d79a74eU, 0x3ce1afdcbcabbff6U, 0xbd8ddfec3d27b21dU, 0x38151c343cfee78fU,
  0x3b672c72bcbc85b3U, 0x3de67e20bdb782c7U, 0x3e00b78bbd04ba74U, 0xbc88615cbc4ae771U,
  0x3d546563bdadf8c1U, 0x3e21c500bc5db532U, 0xbbbec780bd505922U, 0xbcb670ea3c03a54aU,
  0xbb2c85f5bd9dbd90U, 0xbd529e9bbd9a33c5U, 0xbcbeaadebdae30b9U, 0xbb055a1a3dce2688U,
  0x3c45efb73c1a1ff5U, 0x3dea0dddbda5c102U, 0x3d950c0abdf2a1aeU, 0xbcc222d6bc949abcU,
  0xbc5f1ea4bc729cffU, 0x3d555d07bc6e79fdU, 0xbca57e88bd396bf6U, 0x3d2b04aebdb01b42U,
  0xbd69349ebd22a328U, 0x3b3d7ddbbdd3852fU, 0xbd942adf3d612e65U, 0x3d8d51d8bc464a14U,
  0x3cbf3aa43c194569U, 0x3d7d8f6c3d992fa0U, 0x3da35f58bd482c19U, 0x3d7b0cdfbdfa60b0U,
  0xbd6254a6b92c6d32U, 0x3ded9fdc3c467a5bU, 0x3cea066bbcda6372U, 0x3c2725fa3d35b7a0U,
  0xbd300d52bd082e04U, 0x3dac5b7b3cc4e620U, 0xbc036602bc43cb51U, 0x3d21b94cbbd849e5U,
  0x3cda0316bdbce7c4U, 0x3ddc83033cf25905U, 0x3da178d0bd06cd27U, 0x3e1bf36bbb1e6cd4U,
  0xbd6cafe7bddc7b1eU, 0xbbcd9323bd4532ffU, 0x3d043404bb9de7cbU, 0xbd184147bbb1a1f8U,
  0x3d8fbe33bd063ebcU, 0xbc47048f3d77342bU, 0x3db0779dbd4a271aU, 0x3d3ca4c03d4eddbeU,
  0x3da8d3163c1c0133U, 0x3c8220cc3be94009U, 0xbc53b6bcbd5dc665U, 0x3c8088a03d0f9b58U,
  0xbda9115bbb91bf45U, 0xbb593934bb0fcc6bU, 0xbcb52d16bdbc6472U, 0x3d68f79dbda7a315U,
  0x3dc867403be946faU, 0x3c2a0d183e002588U, 0x3bf7f93ebd05befbU, 0x3d1c77d73d08145eU,
  0xbc6bd713bdad7922U, 0x3db64468bd968639U, 0xbcb02038bd3eeee0U, 0xbd0852d23e00cf52U,
  0x3c05d716bdd4cc94U, 0xbc4dec543b814d8bU, 0xbcf9e23a3c866cd0U, 0x3d5664a8bda6426bU,
  0x3db98ec4bd159ff0U, 0xbc14963b3dbdc418U, 0xbbc93d6a3c902711U, 0xb94267343cfb888dU,
  0xbc9abd97bdfbf9d8U, 0x3dd1bdf23ca60d93U, 0x3d63e412bd1f32e0U, 0x3d525c9b3c93c35fU,
  0x3c75d7043d12d224U, 0xbe1037b73d564bd0U, 0xbd2674cbbd94c795U, 0x3d8a6fdfbc8ae106U,
  0xbd9779953dc8fc8fU, 0x3d15e2e3bb1c9866U, 0xbd4aa1b53bef0209U, 0xbcb5e33b3d633d14U,
  0x3d0ee162be2b87f7U, 0x3dc652263d060e55U, 0x3c97e2ebbc023e14U, 0xbc975e9ebd22e3e9U,
  0x3cce21363d2930f2U, 0xbd2141dabc97b247U, 0x3c1e5303bd81bac4U, 0x3db7bebbbd872042U,
  0x3d8934e2bdb78e46U, 0x395286143d820e51U, 0x3a80fc24bdc20bfcU, 0x3c8800b83b17ad06U,
  0xbc3ec6d3bd3e1db4U, 0x3db1ddf0bda3517bU, 0xbcb241963d8f803eU, 0xbd02117f3cea0ffeU,
  0xbd1f1bf4bdf3e017U, 0xbd1a516cbd60ae95U, 0xbd4540b8bdee1876U, 0x3e033197bda682c5U,
  0x3d86b6fcbd00bdbfU, 0xbda3a76ebc3bdf92U, 0x3cf75fbfbbd8011aU, 0x3b7164d4bd5da1a2U,
  0xbd6540b0be068073U, 0x3e016707bd5f827bU, 0x3d09fa573d55f34eU, 0xbc1913373d0c8fd0U,
  0xb91fa603bd087564U, 0xbdb32c133e20c9c3U, 0xbd72f644bddc9d32U, 0x3c92f0f3bd27e092U,
  0x3cf1120cbcfd5ce1U, 0x3ca000003d8fb7fdU, 0xbc224b433d4a5388U, 0x3d00ddfd3d09ee4eU,
  0xbd5fda0dbd80d29eU, 0x3de5a70c3ce4a716U, 0x3dd9d1c73beffffcU, 0x3d9ea76d3d1f4ac1U,
  0x3cf6537fbcdda3b2U, 0xbdd4cff03d2a43b2U, 0x3c52e264bdb9140aU, 0x3b9a54ee3cc09206U,
  0xbc8e7bbf3ce13d9cU, 0x3e2553dbbd1a346fU, 0xbd3803af3dbf064aU, 0xbd54a0f93c1c76b9U,
  0x3cb5d424bd5a6344U, 0x3e0778503c8c4999U, 0xbd2294dbbcfa7f82U, 0xbd2149d6bd70a6faU,
  0xbd9f36203b23ba65U, 0xbda9b12c3d176cf6U, 0xbd2cbaf8be07339eU, 0x3d554c2dbb545c8fU,
  0x3ceed7173d55a1e3U, 0x3d61e0863cf7b5f8U, 0x3c92e2dd3bb33d7cU, 0xbc0d904bbc00dba5U,
  0xbd9997b7bdacf150U, 0x3dfbdd1a3cd6b3d9U, 0x3aa9255439197b4eU, 0xbd0940f63d10a7a8U,
  0xbd086b70bd4f38c6U, 0x39d255023d182249U, 0x3c0d7123bdbd48a3U, 0x3dce656dbbd9a9a3U,
  0x3cea81b8bce50c29U, 0x3caa3acd3d6cc65dU, 0xbd2640e5bd75f9dfU, 0x3bf5b47f3d08d94aU,
  0xbdcdaa0ebd86defeU, 0x3ce32e283d166349U, 0x3d18c0d73d8c6a36U, 0xbdbb93cd3d5e9c9aU,
  0x3bcbc949bcd1bed2U, 0xbd8f29123d2f62e4U, 0xbc05e81e3dd04944U, 0xbc40ba213dbd7b38U,
  0xbd4dedf3bc5808d0U, 0x38385ac03d9f7076U, 0x39d1d3a7bda84369U, 0xbc4c915a3c8a2985U,
  0x3de2e4873d22f150U, 0xbd63cba63db0748bU, 0xbdcbd9bdbd6e1487U, 0x3c23faa8bbb3fcecU,
  0xbc9d8720bc7549efU, 0x3d34296a3d344fe0U, 0xbd2860713dca5618U, 0xbc80a9133d8ed130U,
  0x39ed85693bd633cbU, 0xbd57e7673d06787fU, 0xbcfa7f31bd86c9b3U, 0x3c9ab8e2bacf66aeU,
  0x3cd92c0c3e0c628eU, 0xbc95f4153c69750fU, 0xbccd28a1bc1c22b4U, 0x3ca8579cbdcc5866U,
  0xbd8b281f3d1a1fabU, 0x3d8cb0c93c32ab61U, 0xbd018eea3cb2810eU, 0xbdab8fb53d34bdf7U,
  0x3cddf3d2bd3ba193U, 0x3d8314cbbd383399U, 0xbd0dbeefbc5c5548U, 0x3d0de51c3d8efedaU,
  0x3b709b3e3e0630dfU, 0xbdeb32783c0f09c2U, 0x3d0adb9d3cf8cf3eU, 0x3d1a01debcf9110eU,
  0xbc1927fc3cf23d6cU, 0x3d3201513c2523a5U, 0x3d1aada53d19059dU, 0xbcfea4163e0cfeb4U,
  0xbcb37b413c7f6dfbU, 0xbd267529bd003bafU, 0x3d8a6c09bd11aa9cU, 0x3cf6e5a3bd8a914fU,
  0x3db9db293d747fd7U, 0xbcd7d90a3d3bc000U, 0xbda9f91abd8abadcU, 0xbc49415d3cdd7050U,
  0xbd24a8d73c02147dU, 0x3d1d975dbab3afe5U, 0x3c3a1e893cdb1e98U, 0xbd8418bb3e61c751U,
  0xbcaa1dcabd08fe6aU, 0xbd36142ab88f5feaU, 0x3da48408bc4f2936U, 0xbc98d98d3d19646bU,
  0x3d0ed0f23e4a8a80U, 0xbd8d88e73da95893U, 0xbd4c487a3d807436U, 0xbd33b14b3d9005aeU,
  0x3c2c09ddbd383768U, 0xbc861d54bce6cbbeU, 0x3c9a316f3df26361U, 0xbdb7988abcc07c87U,
  0x3cb432bd3badebdaU, 0xbba0ca22bd71cb24U, 0x3dcb7d7cbd4237a6U, 0x3dad7ae0bdea818cU,
  0xbc739edb3dcd286aU, 0xbd92229e3d909a9bU, 0xbd19e9e13d2f4a08U, 0xbd108bfbbafcc6a3U,
  0xbd8c9e833a081c86U, 0x3d34220bbd6822efU, 0x3d2f75b73d52a10eU, 0xbd6dcb8d3d0f0e50U,
  0xbd36ad18bd5cb2cbU, 0xbca53c183d98ef7bU, 0x3d3ee3e2bc90aa22U, 0xbcf33dc2bd4d2ec6U,
  0x3d9a9b003d4cfcf1U, 0xbd35b7da3cc82658U, 0xbd422f2dbda062bbU, 0x3cd97d293c72adf4U,
  0xbdce8be0bd843cc4U, 0x3d4ab141bc4ad2cdU, 0x3d04d6c13defed78U, 0xbdd9c552bd438d83U,
  0xbdbccb953ca5379fU, 0xbd20fdb1bc44b23fU, 0x3d9946273c9d53bdU, 0x3d9d0aadbcebfca9U,
  0x3d6755a43dfb0c5cU, 0xbdbcda583c100be7U, 0xbd222b593d9f551aU, 0xbb642c563c863c20U,
  0x3d60470c3cc501f8U, 0x3d4243f03cd11c52U, 0xbd77e26a3d2cbddbU, 0xbd4acd8f3d0892feU,
  0x3c6de2d23c1eed68U, 0x3d57082bbca74885U, 0x3d0a5376bd9df858U, 0x3d6da988bd27da6bU,
  0xbd2880403dad33a8U, 0xbd613f883d4a35fbU, 0x3d16b2453d84a1d3U, 0x3cd4ffa6bbdfce0cU,
  0x3d346e313c801981U, 0x3d09fe2b3cd12650U, 0x3cc0beb03dc5cfcbU, 0xbd0d88463bfab38dU,
  0x3bbf29a23d8067e7U, 0xbc4a1685bd6a6135U, 0xbc2c49acbd379fe1U, 0x3d0d6db5bdb5c225U,
  0x3bc0b07c3cf9e56cU, 0xbd0a7ec4bd97cbc4U, 0xbcf47339bb517795U, 0xbd371fa5bdb9116aU,
  0x3dd01c49bd2b5741U, 0xbcbbe575bd4949dbU, 0x3d0e59e13e0f0f1fU, 0xbc1aef593d7d490bU,
  0xbc8cc3c33c8731a9U, 0xbd0604043cd695ffU, 0x3d037d553bd4e2ddU, 0x3d1c121fbdb58bc3U,
  0x3cba36ab3de98b76U, 0xbe03472b3d8ee1fcU, 0x3d0bd3b2bcabf2fdU, 0x3d2e529fbd2990a5U,
  0x3c4a8eecbc59ddcdU, 0x3df659e53cfa5c98U, 0x3c4a29913d617f97U, 0xbd6154c8bc126356U,
  0xbd99dff6bc106079U, 0xbcb918d13d8caa60U, 0xbd74d7e23b3497b4U, 0x3d5cd299bd812f8cU,
  0x3c725e433d95b9b8U, 0xbdc438cb3d1b3beaU, 0x3cdcff73bd049169U, 0xbd42d34dbda69f43U,
  0x3c7b1ff2bc97756eU, 0x3da4d93d3baf8220U, 0x3dd8c6453dd879b9U, 0xbd72e7a2bc755bf5U,
  0xbd5e7434bd1f4165U, 0x3d2aaafabcec0584U, 0xbc87ee9bbd83b874U, 0x3c9f8d803c9ac857U,
  0x3cc7f2f3bd4cf112U, 0xbd0b44663d65a124U, 0xbd1842593c9bd32bU, 0x3d960e473d70321fU,
  0x3d03b41b3d0e529bU, 0x3c968f8bbd7fc097U, 0x3e2ed64c3de2ce3dU, 0xbd3589b43ce57fdeU,
  0xbdb71253bda0e818U, 0x3c8b9052bcb8402aU, 0x3c6667a63b70eaa5U, 0x3c054fbdbcafdd03U,
  0x3d0e570d3d056d04U, 0xbd8cb74a3c545538U, 0x3b11146cbdcc1cb2U, 0x3db7f651bd588bf1U,
  0xbc56024b3db01f13U, 0xbb9d9426bbfc6bf1U, 0x3d169f753c7e3316U, 0xbd9e291b3d0dfbb8U,
  0xbcb85d213dac91a8U, 0xbbc485c83b436563U, 0x3d84fc4ab803a480U, 0x3d41d6c7bdae2d3dU,
  0x3d0f92943db48eabU, 0xbda49cd43c158c43U, 0xbc2f0d1bbd0f4e40U, 0x3bdde1a5bd102f6cU,
  0xbc7dd4883d4147ceU, 0x3cd57ecd3cbff51dU, 0xbb59981ebc9a64f7U, 0xbb806bcbbd74e8a3U,
  0xbd2e1c893da2fbb3U, 0xbc6c6239bcf4d943U, 0xbd30409f3ccfa5d6U, 0xbbd6d8d8bd668cf3U,
  0x3d7d6f013db5bfb7U, 0xbde8a11fbb6a0dfeU, 0x3c4fa43c3d444b1fU, 0xbd067464be49da5eU,
  0x3d3431fcbbdf5db8U, 0x3cb90406bde9e3a9U, 0x3d9e7a1b3d93e3caU, 0xbd719499bdaa27ceU,
  0xbd756c653cd7f8acU, 0x3d3e00ebbd9d4f01U, 0x3c95bfe53cc07428U, 0x39ac6fb8bd98dfacU,
  0x3dae18f53d948667U, 0xbd3aee6fbcb267d9U, 0x3cc7cb0bbc87d552U, 0x3d60e903bcb61d78U,
  0x38c610313e293816U, 0xbc818c89bdf3c617U, 0x3da324853db674eeU, 0xbdb35fe2bd5f897fU,
  0xbd461ac1bd4eb7b3U, 0xbde17abebe0a7b48U, 0x3c910b0bbcf345dfU, 0xbc4a2f093cb9af34U,
  0x3decb6823d867c72U, 0xbbbf020fbc88d5c1U, 0xbdb84be4bdbb6402U, 0xbd53d1ee3d9d2926U,
  0xbc57ae933ded28eeU, 0xbb4b1726bd507d19U, 0x3cf60821bda05e04U, 0xbc7e21dfbb20edb0U,
  0x3caee935bd4e0d28U, 0x3d7201a4bc3cec83U, 0xbd4a8c0a3ccadc6bU, 0x3d37bb87bd011f3cU,
  0xbc79c4643ca2bd0bU, 0xbcce72a0bda9dc3eU, 0x39cf33b03d400c41U, 0x3d8171d2bd9eea21U,
  0x3d294d3dbcb6951fU, 0xbbcaecd63b997c5cU, 0x3d9a7527bd951619U, 0x3d02d0b93c088408U,
  0x3ca723dabd571b4aU, 0x3dd663adbb9efcf5U, 0xbce9c43d3d54fc0dU, 0xbd31bcb73c6a6291U,
  0x3d5414ccbc347e70U, 0x3ccd0df3bd9d0eedU, 0x3d7820dfbd491295U, 0x3dfeaaeabd6e1dfcU,
  0xbd8546e03d7ee333U, 0x3c3fd4c3bcd62a57U, 0xbc9b1224bd18397dU, 0xbd445fc63b153885U,
  0x3ca81c2e3d59057cU, 0xbd444006be66f471U, 0xbbc9ac4c3c51a03dU, 0xbc668400bce4f4ddU,
  0x3d8320993b5b023bU, 0x3bc0a9b7bd549fccU, 0xbd70e68fbdc21c0eU, 0x3d720223bd5eaf8fU,
  0xbdc40e4a3d96df7dU, 0x3c57c3f8bca99cd3U, 0x3da9817ebd0215c2U, 0x3da99a21bd1ae2feU,
  0x3d6bfe7abe0a518aU, 0xbda33401bd8a509aU, 0xbcd1dabf3e23df44U, 0xbd89a131bce453c0U,
  0x3d8ee8e13c4c7bdfU, 0xbd94d9b1bd139212U, 0x3c913a15bcaaadcaU, 0xbd89b991bd2848ffU,
  0xbc04b8863cf5262fU, 0x3c42f576bd53b99eU, 0x3d8f257d3bff1923U, 0x3d6ed7e9bd5cc84dU,
  0x3c80131abc4bf4bfU, 0xbb84d9f9bd3cacd4U, 0xbe0f9b513db5dd1aU, 0xbd757ae33bad4c31U,
  0xbd545f543d3fd33fU, 0x3ccf5f46bc2a1554U, 0x3e12003fbd999cffU, 0x3d98ec4ebdb1ed6bU,
  0xbd15576f3d8917baU, 0xbcb3a7c4bcfd1296U, 0xbd4d304abd833d79U, 0x3d195d393d3ab5e4U,
  0x3d8e842a3d24da32U, 0x3d12680fbd913409U, 0x3d93791fbd36b64eU, 0xbbcab3473ccb18feU,
  0xbcc6b322bd075431U, 0x3b668f50bce65d45U, 0x3d9c9e2cbd9aa5a2U, 0x3d25fe2cbd8f73c0U,
  0xbc8c722c3d1580b6U, 0x3cba8c4d3c8d9b7cU, 0xbce8f756bd1832edU, 0x3d52aa253c37e285U,
  0xbd0b754ebd82af75U, 0x3cf2a38cbd9d52d2U, 0xbc2e8a8abc5d2535U, 0x3d1075053dc02980U,
  0x3cc58a18bdba286fU, 0xbb6bb7e1bc8060c6U, 0x3d5d7de7bd455025U, 0x3d465e5abdbb9f18U,
  0xbe0d41723d2afdaaU, 0xbc353bf73d4ffb2fU, 0xbd0cc5e5bd110dd2U, 0x3d5baa613de028b2U,
  0xbd1787c2bdb1dd50U, 0x3d3b4fa33d6523a6U, 0xbd95dc0bbdad158fU, 0x3c80e9813cea7362U,
  0xbd14dd0ebc9e7b5bU, 0xbcb093ff3d7d54a4U, 0x3e07c822bc93004cU, 0xbbe4e723bd87f0c7U,
  0xbdf5169d3d6089c0U, 0x3e0e5d003df1eb43U, 0x3d276f973d3cd381U, 0x3d9606b7bcd9d049U,
  0x3bca66d5bd83bf39U, 0x3d38b27ebde43f93U, 0xbd3fc93bbdc1ddd9U, 0x3d1cb88cbba79370U,
  0xbd822a2d3b1a645cU, 0xbd7ce1443d94f5feU, 0x3e25dd643d4738f8U, 0xbdb0804bbccee355U,
  0xbd94f6483d135c22U, 0x3d3acd8f3d4e551fU, 0x3bebe42abd0410b3U, 0x3b7d78ec3d60cd69U,
  0x3b9d02913d92aab5U, 0xbd0f5a093dc117b9U, 0x3d8a36413db14acbU, 0xbdcc2875bc6f16b9U,
  0xbdb8041a3c628ec1U, 0x3b18c38b3cfbef30U, 0x3d68c851bd9b035bU, 0xbd8f61143c54775aU,
  0x3daf7de1bd657fc6U, 0x3d86e3e83d3e8ee4U, 0x409fe0da4085faeaU, 0x40a4d0de40a4cde9U,
  0x40844e884097c659U, 0x409f81f8409bf376U, 0x408425ad40983fc4U, 0x407b1e1440b76ffaU,
  0x4062391640771657U, 0x406db617409210b7U, 0x40c09f8a40ae2e76U, 0x40c2f1a64091e490U,
  0x409aee0c40c2dd7fU, 0x40843d7e408d8a22U, 0xbf06935b3df49eadU, 0xbef330a5be9d4c30U,
  0x3fbd3a163ee4f194U, 0xbed60f38bf6d2719U, 0x3e98e53c3f9e39d7U, 0x3ef042113ecb5af3U,
  0x3eaf5dc9bf87af6fU, 0xbf172a98be22e836U, 0xbf95f6f13f554e92U, 0x3eb62c94bef885f2U,
  0x3f77821e3f1a9476U, 0xbebac7043f904380U, 0x3d631613bdb99e90U, 0x3cdef0e6bda8c827U,
  0xbf0527743c980da5U, 0xbeacd994bea79215U, 0x3e252cf3bea8b1c5U, 0xbe0ef07b3edffa40U,
  0x3ef49cbfbf039904U, 0x3ea716a73e3c818dU, 0xbe83cadf3ea84837U, 0x3e9ddf53bf0321baU,
  0xbe4bae19bee19404U, 0xbe98a787be6df68dU, 0x3d23f7943d5aecf8U, 0x3ea22cd43eb9c9c8U,
  0x3ef2445fbe8e93b0U, 0xbedcf36abecc5da2U, 0xbeb6aadf3ebf42a7U, 0xbeb2e176bdf65e47U,
  0xbe2d7611bef0ca58U, 0xbec2f05c3ea8551dU, 0xbe8e8aa1be9a8788U, 0xbea232543ede7fb5U,
  0x3eec042b3efd2e21U, 0xbee108233e2d6c43U, 0xbdfc4817bf063d9aU, 0x3eaca014be6002deU,
  0x3e889a383ecd9b0dU, 0x3ee7e7d8bec06c42U, 0x3f1c0ecabe94d360U, 0x3eb79515bebc6ff7U,
  0xbdadd9863ed902bdU, 0x3e995c0fbedfca6aU, 0x3d8107fd3e6998deU, 0xbe905278bf166636U,
  0x3ef96e4fbed0dca8U, 0xbe8803bf3e586345U, 0xbf1a6d533dca91ddU, 0xbee673c9bea2f2cbU,
  0x3e872637bf1c3c13U, 0x3e8f1aad3eef801cU, 0xbe920c00be9ee326U, 0xbedcd7cebefd85d9U,
  0xbf0238a63df03548U, 0x3ecfd8893cc4ea30U, 0x3d956a8cbedda934U, 0xbf0243073dd0bc7fU,
  0xbf12e4793e222e4fU, 0x3e8dd62dbf152375U, 0x3f1308633ef98577U, 0xbea6ff75bdc6cc98U,
  0xbed1fb1e3b903b8cU, 0xbe7b73b33e308a9aU, 0xbed68dee3ea6213cU, 0x3ec879a2beb3bd5eU,
  0xbe65e52e3e19751cU, 0xbecadae4bf0e32b8U, 0x3edd32603e9fdaffU, 0x3eea11263e2265f1U,
  0xbed6e59dbe6c8abbU, 0x3ea322c43ec6d71dU, 0xbee1f269bba368e8U, 0xbe547142bf02e3c3U,
  0x3ead57deU,
};


ai_buffer g_model_data_map_activations[AI_MODEL_DATA_ACTIVATIONS_COUNT] = {
  AI_BUFFER_INIT(AI_FLAG_NONE,  AI_BUFFER_FORMAT_U8,
    AI_BUFFER_SHAPE_INIT(AI_SHAPE_BCWH, 4, 1, 21744, 1, 1),
    21744, NULL, NULL),    /* heap_overlay_pool */
  };
ai_buffer g_model_data_map_weights[AI_MODEL_DATA_WEIGHTS_COUNT] = {
  AI_BUFFER_INIT(AI_FLAG_NONE,  AI_BUFFER_FORMAT_U8,
    AI_BUFFER_SHAPE_INIT(AI_SHAPE_BCWH, 4, 1, 13892, 1, 1),
    13892, NULL, s_model_model_weights_array_u64),   /* model_weights_array */
  };


/*!
 * @brief Get network activations buffer initialized struct.
 * @ingroup model_data
 * @param[in] ptr a pointer to the activations array storage area
 * @return an ai_buffer initialized struct
 */
AI_DEPRECATED
AI_API_ENTRY
ai_buffer ai_model_data_activations_buffer_get(const ai_handle ptr)
{
  ai_buffer buf = AI_BUFFER_INIT(
    AI_FLAG_NONE, AI_BUFFER_FORMAT_U8,
    AI_BUFFER_SHAPE_INIT(AI_SHAPE_BCWH, 4, 1, AI_MODEL_DATA_ACTIVATIONS_SIZE, 1, AI_MODEL_DATA_ACTIVATIONS_COUNT),
    AI_MODEL_DATA_ACTIVATIONS_SIZE,
    NULL, ptr);
  return buf;
}

/*!
 * @brief Get network weights buffer initialized struct.
 * @ingroup model_data
 * @param[in] ptr a pointer to the weights array storage area
 * @return an ai_buffer initialized struct
 */
AI_DEPRECATED
AI_API_ENTRY
ai_buffer ai_model_data_weights_buffer_get(const ai_handle ptr)
{
  ai_buffer buf = AI_BUFFER_INIT(
    AI_FLAG_NONE, AI_BUFFER_FORMAT_U8|AI_BUFFER_FMT_FLAG_CONST,
    AI_BUFFER_SHAPE_INIT(AI_SHAPE_BCWH, 4, 1, AI_MODEL_DATA_WEIGHTS_SIZE, 1, AI_MODEL_DATA_WEIGHTS_COUNT),
    AI_MODEL_DATA_WEIGHTS_SIZE,
    NULL, ptr);
  return buf;
}


/*!
 * @brief Get network weights array pointer as a handle ptr.
 * @ingroup model_data
 * @return a ai_handle pointer to the weights array
 */
AI_DEPRECATED
AI_API_ENTRY
ai_handle ai_model_data_weights_get(void)
{
  static const ai_u8* const s_model_weights_table[1 + 2] = {
    AI_PTR(AI_MAGIC_MARKER),
    AI_PTR(s_model_model_weights_array_u64),
    AI_PTR(AI_MAGIC_MARKER)
  };

  return AI_HANDLE_PTR(s_model_weights_table);

}


/*!
 * @brief Get network params configuration data structure.
 * @ingroup model_data
 * @return true if a valid configuration is present, false otherwise
 */
AI_API_ENTRY
ai_bool ai_model_data_params_get(ai_network_params* params)
{
  if (!params) return false;
  
  const ai_buffer_array map_activations = 
    AI_BUFFER_ARRAY_OBJ_INIT(AI_FLAG_NONE, AI_MODEL_DATA_ACTIVATIONS_COUNT, g_model_data_map_activations);
  
  const ai_buffer_array map_weights = 
    AI_BUFFER_ARRAY_OBJ_INIT(AI_FLAG_NONE, AI_MODEL_DATA_WEIGHTS_COUNT, g_model_data_map_weights);

  return ai_platform_bind_network_params(params, &map_weights, &map_activations);
}


AI_API_DECLARE_END
