
/**
  ******************************************************************************
  * @file    model_data.c
  * @author  AST Embedded Analytics Research Platform
  * @date    Sun Feb 12 16:50:51 2023
  * @brief   AI Tool Automatic Code Generator for Embedded NN computing
  ******************************************************************************
  * @attention
  *
  * Copyright (c) 2021 STMicroelectronics.
  * All rights reserved.
  *
  * This software is licensed under terms that can be found in the LICENSE file
  * in the root directory of this software component.
  * If no LICENSE file comes with this software, it is provided AS-IS.
  ******************************************************************************
  */
#include "model_data.h"
#include "ai_platform_interface.h"

AI_API_DECLARE_BEGIN

AI_ALIGNED(32)
const ai_u64 s_model_model_weights_array_u64[ 1701 ] = {
  0xbf775a14be1e1cb7U, 0xbf5f9c7a3f1bf301U, 0xbf7c0d27bea8d846U, 0x3f4b8bf03f852988U,
  0xbef910693f264baaU, 0xbf264286be7e37adU, 0x3f570ca0bf7238dfU, 0x3ec7a496bfa46ddbU,
  0x3f490fe2bf180bfeU, 0x3ebcd500bf7e5fb9U, 0x3e4ccc1d3f17b4bcU, 0x3ede7e2bbe635f09U,
  0x3eb36fa9bf28cf9eU, 0xbe04cf763d9caddbU, 0x3dd3bf29bf04fa19U, 0xbf6468483f97b559U,
  0xbea73f6bbf3d1414U, 0xbf0ecd383e112946U, 0x3ef79f9bbea2675eU, 0x3ee565efbf4ee861U,
  0x3f24c19f3f4b5f7bU, 0x3f8a0bb63e2691cdU, 0xbf623dca3ef05454U, 0x3fa31aef3f9741aeU,
  0x3f2aa1203f4ee9a0U, 0x3d9c0d623f0cc8bdU, 0xbf43e4963f3e6225U, 0x3e602402bd11b6fbU,
  0xbe2b2c1f3ed0b400U, 0xbf4b535b3e8698feU, 0x3f19218bbf45a5c1U, 0xbf5e98003edb4c06U,
  0xbef087433f2fd6e8U, 0xbe680dfe3f1d1a37U, 0xbefcd2cfbf45dee9U, 0xbf0d4a46bf166a2aU,
  0x3f5e157abf38436dU, 0x3dcb195bbedc61fdU, 0xbf0f99a23ecf70bbU, 0xbeeb662f3f19dbc1U,
  0x3e5b98e73d887eefU, 0xbf2aa9d23e38dfd4U, 0x3f029d9c3f6307feU, 0xbef9de173e3f9765U,
  0x3f51fc0bbf37c579U, 0x3f2cdab1bcb52db3U, 0x3c33f1343eb21f2dU, 0xbeec7d2ebf40e061U,
  0xbe4914ba3f1eec23U, 0xbcf44849bedc81f1U, 0xbd8e3b46be34fcbeU, 0xbe3ae37cbeb0a82dU,
  0xbf375206bedb7a43U, 0xbf0131553f204c83U, 0xbf3076e3bf1300abU, 0x3f0e577ebe6ecae2U,
  0x3e917519bd88439fU, 0xbf1ca0033ea76021U, 0x3f3ceaf2be43da0bU, 0xbeae9249bf3e770eU,
  0x3f1168b33e13b2b3U, 0x3f07bc1cbe370209U, 0xbc1bc1b0be1934f2U, 0x3f1a5c62be1dda0aU,
  0x3ca9c3253efb40c9U, 0x3f13841d3f111b08U, 0x3d1e87c93f14a741U, 0x3f152cd5bd578bb7U,
  0xbe5fdf1fbeeb8621U, 0xbf36178d3f12fc08U, 0x3f0ac87c3da2bad6U, 0x3dea026b3f68f21aU,
  0x3e8a19fe3e3cce85U, 0xbf1b87663e9bf5faU, 0x3f7df5cdbd855318U, 0x3e3f15533e07d14dU,
  0x3f710d103da383f2U, 0x3f86b5e3bd9428deU, 0x3e99e75d3e77f539U, 0x3dec8c193f1cfda5U,
  0x3e2b85b13eb1a773U, 0xbf89c55dbf901069U, 0x3f0b28bcbc266507U, 0xbe7bef20be389c60U,
  0xbf2d320a3e907371U, 0xbe0ed0dc3ea201dcU, 0x3f0829a23f21de51U, 0xbf237886bd53eacdU,
  0xbe8ac490bf95dd8fU, 0x3f8fc7823e31a8cbU, 0x3e978113beee8265U, 0x3f26e8d8bf1df2b6U,
  0x3e6e46283f8abdfdU, 0x3e6f7cc0beff303cU, 0x3da7068f3faf2b88U, 0x3f51b4273f4770e0U,
  0xbf5187f1bf0812c2U, 0x3e103dc6bdf611dcU, 0x3e636161bf5bc81eU, 0x3d67b9b43f512b5dU,
  0x3e833784bf3aaca3U, 0xbeff98053f118943U, 0xbf7783e9bf11568dU, 0x3fa04abebf9ff019U,
  0xbf1e06febf90cf0eU, 0x3ef8440ebf490a2eU, 0x3f6de9e93e39e8ffU, 0xbe3cb9f93e984d10U,
  0xbeb49597bdd75930U, 0xbf09e33cbf55e737U, 0x3f1c781a3f6eca3dU, 0xbf057d1e3f249072U,
  0xbf8ff30fbf08cbe7U, 0xbe927df73fe26587U, 0xbf56cd303f3d48a7U, 0x3e911f66bf838e10U,
  0xbf43e83f3fa267e6U, 0x3f50f0aabed72632U, 0x3ea0164cbf193054U, 0x3fac2a943efd085eU,
  0x3e9ebce8bfb2be93U, 0x3f984327bf2feed5U, 0xbfaf36683ddcf08fU, 0xbf3f63f83f202862U,
  0x3faf977b3f790e15U, 0xbf24638fbf721a29U, 0x3f4b6ae4befd4b0aU, 0x3ec4a5e2be72548fU,
  0xbee8b15f3e94cf81U, 0x3f5a4cc0bf6e3846U, 0x3ca896433f82fe34U, 0xbf1c5cf0bf25e6a0U,
  0x3ede550b3ed3bbbbU, 0x3ea2ede23ee38830U, 0x3d99a88b3f16f6b5U, 0x3f8063fb3f0b2fdcU,
  0x3eacb776bedec6cdU, 0xbe86a78cbf4d55faU, 0x3e59329abedddd26U, 0x3e8e6052bccf1ab2U,
  0xbc8724d63e91f749U, 0xbdfd3fe1be0d1633U, 0xbe436c753de5d903U, 0xbf14ce57be2e09a4U,
  0x3efa79bdbf2e11a6U, 0x3f1712623e17e41cU, 0xbe587ecd3e686a66U, 0x3df65dc43f07ca46U,
  0x3ce3379cbda6c418U, 0xbf40d7abbeac20ddU, 0x3e8427bbbf00bce5U, 0x3efe836e3f88437bU,
  0xbf0ad9e83f36bdecU, 0x3ee6919fbda1e8cfU, 0xbf49d99f3ef3f54dU, 0x3f2fb14b3f7e9b2cU,
  0x3e4891c9bf8c3d90U, 0xbf4d0955bec323a3U, 0xbe6a17293e29be99U, 0x3cb163c6bf4fbbfdU,
  0x3f4eb5733f91736fU, 0xbe4a9d81bd86625aU, 0xbf1ab8d53debe844U, 0xbf7aa9b6bdc2666fU,
  0x3f51b055be1cacb5U, 0x3ea23ee1bf3155d2U, 0x3f1ae2c7bf091096U, 0xbeef50a53ec770e3U,
  0xbe230009be8a2adbU, 0xbf3402ee3eb79906U, 0x3f2e5f873e422e40U, 0x3f41874d3e827c33U,
  0x3f3df05cbf363287U, 0x3f89707bbf6c90ccU, 0x3f3e3c513e87ec6bU, 0xbec140483e8f31f0U,
  0x3e8cf17f3edd6541U, 0xbf202f383f04728eU, 0x3f1737e93dcf8a3cU, 0xbf72cec1bee297beU,
  0xbf0903dfbea5a62cU, 0x3f4f615d3eb970c1U, 0xbe1bd0803e452113U, 0x3e93594a3f5834ffU,
  0x3ed284113eebd1d4U, 0xbdd91179bf5449bfU, 0x3d7227183e97232fU, 0xbf0b522cbe2217eeU,
  0xbf255ca2be32bba0U, 0x3f0fe9dc3ee88264U, 0xbee01f6e3eb45726U, 0xbf965681bf275ad5U,
  0xbe4b720ebf7c269cU, 0x3e8f06113de1c1baU, 0x3e81caee3f14f78dU, 0xbe8f2fdebe58ef18U,
  0x3f4fe9c93eb62ac1U, 0x3d97f7d7bf143a04U, 0xbf31ce0e3f0bccf4U, 0x3f2455cabe9fa433U,
  0xbee3e6003d4f8387U, 0xbf256b793f26864fU, 0xbeb20ec03e023ad3U, 0xbf5b11e3bf0b5b13U,
  0x3f93d0253f09bff8U, 0x3f6591fc3fc45382U, 0x3f36ce4cbf6912d8U, 0x3f9563a13f4957c0U,
  0x3f5a0d703f3679f4U, 0xbf8adf6b3e108930U, 0xbcdb7586bee3a254U, 0x3f22a2103e9c5b3cU,
  0xbf3e32d8bf2a9532U, 0xbf275c063c77339eU, 0x3efb3813bf1c7d2aU, 0xbf85ebf5bf74112cU,
  0x3c95387ebe55564fU, 0x3e56f37ebe8eb8daU, 0x3e44d8be3f0e6021U, 0xbd1af55fbee9ea30U,
  0xbf5834713bc1c7d3U, 0x3de166afbf1660ecU, 0xbec81a3c3edf8434U, 0x3e882d4c3e2261efU,
  0xbf4049653f05a1a5U, 0xbf1ecb11be8d09baU, 0xbe533915bf815f4eU, 0x3cfa7daa3eb433b4U,
  0xbec2c3db3eb32626U, 0x3e4333793dbdd18dU, 0xbd5da0b1bf1af798U, 0xbd3908033f1a8fafU,
  0x3f19e2663eaf09beU, 0xbf17d8a53f5d2487U, 0xbe9962963f163f04U, 0xbe6ee5f33e028b7fU,
  0xbecba8613ef91928U, 0xbf0c889cbf2643c1U, 0x3f54d397be181507U, 0x3df1f3f03daf27c0U,
  0x3e72d2263f5d123eU, 0x3f0606833f31275aU, 0x3e94b8b3bb2b2a3eU, 0x3eb1464dbfb23541U,
  0x3efcbdf13edba468U, 0x3f0d336bbf3bdeedU, 0x3ea8cf8bbe07d750U, 0x3e1f9c8e3f2491a3U,
  0xbe6ea4a8beef9e7dU, 0x3f11668d3f814987U, 0xbf454e03bf328ea6U, 0x3e0968cbbf2edb9eU,
  0xbea866afbf0a28aaU, 0xbf287bbd3e056d04U, 0x3e7f72f7bfb1091bU, 0xbf62a6fabed7af62U,
  0xbf760b8fbea8b30bU, 0xbf6ee3763ed9bd75U, 0x3f3530203e8043dfU, 0xbf7e610f3f3a7387U,
  0xbe265ab2beb62c47U, 0xbf687b903f3af173U, 0x3f46f7893f0571beU, 0xbe37fcaebac1f6b2U,
  0x3f56d9fdbf15d883U, 0xbe297a60bf77b9c2U, 0xbf230df53ee56bb9U, 0x3f0302ca3e998d57U,
  0xbe9d1ba9bf84392fU, 0xbea018e83f340cb2U, 0x3c84ec4abdfa928eU, 0x3eb9f53d3f14cfceU,
  0x3f054a963f3961d3U, 0xbf9622883dc02234U, 0xbf81eb1abe061ff8U, 0xbf15f3eabc8ec3a8U,
  0xbeba1ca6bdea2d46U, 0xbf66709abc37e1d0U, 0x3f5265893e3b7315U, 0x3ec5a14b3e4cf54aU,
  0x3f0ef8193e268bd1U, 0xbf14ee06be7782f7U, 0xbf2f3e67be702327U, 0xbe75faba3f2552c4U,
  0xbf1e6cdb3f11caa5U, 0x3e0ea93e3e328472U, 0x3dffc7dcbf1365d9U, 0xbfac914cbe979fc5U,
  0xbed28cd53e239882U, 0x3ed9bdcc3e4c91a0U, 0xbf990fb13f04a503U, 0x390be4acbf8723e0U,
  0xbe9ba1a8bf684127U, 0x3e180f7d3ec2e5b6U, 0x3f0694da3e426181U, 0x3d1f2f203f72b852U,
  0xbf7b87403f874ea3U, 0x3f70f33abf56066cU, 0xbd81877abefd5a5dU, 0x3ed33ec7bedf40e4U,
  0x3fb793c5bece6ab5U, 0xbe5786ac3e9e33c1U, 0xbf72ebce3eb89766U, 0xbf651875bea1d01bU,
  0xbcf919353f2e105aU, 0xbeb83f153ee0af45U, 0xbf5ad82e3fa46bbbU, 0xbf168f1b3f4573b3U,
  0x3eb545713e85faf0U, 0x3f4095403ecd582cU, 0xbf93b65dbf9f6c8aU, 0x3f1cbf9fbf09c57aU,
  0x3f2e5d193e8d7beeU, 0xbf0c6c0abf3430d9U, 0xbdfbe374bf921662U, 0xbdb8cbaabf8af2b0U,
  0xbeb8fa513f6f2e4cU, 0xbf191c683f006140U, 0xbe99f2d6becbc430U, 0x3daf84e4bf768f89U,
  0x3f5058d9bf2160e4U, 0xbe6fc04cbf40f9d1U, 0x3e97a53a3f76d4c3U, 0x3f4976ea3f0f2767U,
  0x3fc0d0e3bf6d10d8U, 0x3f13b442c069e499U, 0xbf026e93bf68e12cU, 0xbe8e9f96bf116649U,
  0x402babb7bf134423U, 0x3f93ab663fb1730aU, 0xbd6591003dbfe3efU, 0x3ceca2453d97f549U,
  0x3e1ddaa73c1f3d29U, 0x3e46fc9fbde04d61U, 0xbe15e4e83e207c38U, 0xbe0eac01bdda512bU,
  0xbe6154a4bd3e79ceU, 0x3dd78347bd2a5f5fU, 0xbd5c0e593de37b65U, 0x3dbf5519bdb56561U,
  0x3e3675143dbceeb7U, 0xbdc4ae843d6f7a23U, 0x3dfaa096be6958feU, 0x3e893e553db85b1fU,
  0x3e2ef4c4be64862cU, 0x3d4fd0213c87e9c8U, 0xbd8ff850be03615eU, 0xbd6f19373d4940d5U,
  0xbdf68f243d4fb7e9U, 0x3e7f76fdbc6ca5b2U, 0x3c938b50be2ac41fU, 0x3d3380573d6fb69aU,
  0xbdcf18363cb8c5efU, 0x3d862572bdc2d0cbU, 0x3dade94bbda13d75U, 0xbe03f239bd582cc6U,
  0x3d8f0c3c3e1726b1U, 0x3d45a0153e53eb03U, 0xbe1847a43e0ad2d1U, 0x3d5c86b23e5e7614U,
  0xbda87115bd9ed124U, 0x3c5205b53e46840dU, 0x3dba5f6b3cc11f68U, 0x3de62d6cbdc670f5U,
  0xbdc0bea4bcfc6db9U, 0xbe1dfeaa3e37827bU, 0x3be4ab013e2789bfU, 0xbe2907933e0a6d1aU,
  0x3d873aa6be9d2fe8U, 0x3e2ea9c3be2c8682U, 0x3dc9f83abde7b091U, 0xbcf4ae8f3e5cea00U,
  0xbdb6ac433e2694ecU, 0x3e98c76a3daf3fa6U, 0x3e4d0b37bc02aecfU, 0x3c8d1edebe12be38U,
  0xbe9affa4bdcb1ca8U, 0x3db813e3bcb90114U, 0xbd874cfa3d4422a7U, 0x3e1e65233da36f6bU,
  0xbc2de510be108e66U, 0x3b53db37be234cf0U, 0xbe1b9cb23d868598U, 0xbd06e1e03dc5d5ecU,
  0xbdbabd5f3cae957fU, 0xbd59ef6fbd30a680U, 0xbda2dc9bbe9d0d3aU, 0x3dbb35fe3d4fa1a2U,
  0xbe448eaa3dbf5b7bU, 0x3db231283d2b6e09U, 0xbd9f63f93e79e2c6U, 0xbe24985fbdd01a62U,
  0x3e224c88bbb3946fU, 0xbd829752be64645aU, 0xbe8e5bb73d5b50c1U, 0x3e3278d4be199864U,
  0x3dcf24303af85879U, 0x3e8051a93e28116aU, 0x3ea27c9d3dbea37cU, 0x3cf2b724bd98d30cU,
  0x3c2c2b16be052d85U, 0x3cf995123e4ea8f6U, 0xbe07c9573e3da5b6U, 0x3def1e983beae884U,
  0x3de29651be2af772U, 0x3ddcec973df4b74dU, 0x3e1eecf5bea07d18U, 0x3e2c75da3e7e0109U,
  0xbdd290293d056634U, 0xbd806240bd2a216eU, 0xbeaed1c43da83224U, 0xbd819fd23d894124U,
  0x3e08ffa9be5e7b3fU, 0x3e1911083d82844bU, 0x3e6900063d706d66U, 0xbea55a10be1d8856U,
  0x3e2fec0fbe154d01U, 0x3d0d6f403bd1ccd1U, 0x3d3f93c13c793f48U, 0xbdb115dcbe4d9934U,
  0xbdcdc4d13db12965U, 0xbda2a74f3e848d18U, 0xbb0d5d80be36503bU, 0xbd45114a3d614a86U,
  0x3d723dc33ddffac0U, 0x3d74bb5fbdeccb29U, 0xbc0068193e99b573U, 0x3db24e54bd8657e0U,
  0x3eb9db69be782fb7U, 0x3e26d068bdf1130dU, 0x3dad2a2ebe325528U, 0xbd6340e3bd40968bU,
  0x3dff215ebd168b6dU, 0x3d84882bbe47b1dbU, 0xbe0585643e050690U, 0xbd87e2c8bdda71cdU,
  0xbe430d01bd657110U, 0x3e121389bc6e2a45U, 0x3e890e8c3d229138U, 0xbece3c8cbd3fc450U,
  0x3d5e7a7dbd8d9022U, 0x3e8ed2a03e1c9ed2U, 0xbcadd85ebe93d10cU, 0x3b7e0871bdbbfd70U,
  0xbe444530be2b1706U, 0xbd6977fe3b1735c5U, 0x3e5257833e1fd715U, 0xbde8fe7c3e454976U,
  0x3e10e8f33e23384dU, 0xbed94c783daebff6U, 0x3d4bbe633d33db50U, 0xbe8bf73d3dd9a54cU,
  0x3dc411013d1227ffU, 0x3dbb81de3e76805eU, 0x3dca52f1be215ea4U, 0x3dedd5f2be9e5526U,
  0x3da9c63fbc955861U, 0x3df647fdbd0324c8U, 0x3da4e7343cfef887U, 0x3ed28c2c3df30ea2U,
  0x3e6329f93d90c63cU, 0x3db8010fbd2a9834U, 0x3e3042fbbd70afbdU, 0xbe90735d3e4fe022U,
  0xbd9bcc23bebb1fa0U, 0x3dd89683bd2475edU, 0x3e058aff3e61e313U, 0x3e5f9923bd57073fU,
  0x3e967b26be1d8388U, 0xbdd2d9e2be119acbU, 0xbe06e7143dc65d63U, 0x3e9449523d8ba5caU,
  0xbdb359e0bea30f86U, 0x3c9bc2febebe1e21U, 0xbe1fc727be82f642U, 0xb912caa83e411d40U,
  0x3dad4e8bbdf67b55U, 0x3d014d86bd71e8e3U, 0x3de280e5bc9c5fc1U, 0xbea2bcb1be6c7cd2U,
  0xbd8dceb73c414052U, 0xbe35d0603e2e9ad7U, 0x3de5ec2a3dc2c5aaU, 0xbd0e16563e57a1afU,
  0x3e4e14f53e7a0e6aU, 0x3e71aeae3e246b26U, 0xbe7585ed3d96c8d5U, 0x3cc18c953d9130e1U,
  0xbd6073223e592e32U, 0x3e27a04f3e1d3b8aU, 0xbe87e4573e2f8f2cU, 0xbe9a290d3d1ecd09U,
  0xbe62dbf8bdf65a71U, 0x3e7231ccbde5de04U, 0xbca9f3e8bd1afd71U, 0x3e3731d23da2739bU,
  0xbd9887dabd9ad39aU, 0xbe3081993e6ce9f7U, 0xbe2e360f3dd82a56U, 0xbe47bf9fbcdce923U,
  0x3e21977cbe02f61eU, 0x3e8c6c6dbe2fd51bU, 0xbdf75d573d526962U, 0x3de3591e3c8919d5U,
  0xbd99ede7bdec25fdU, 0x3e9944c73e84443bU, 0x3dacb47fbcea69b2U, 0x3daa43df3d2be6b1U,
  0xbdb3e46f3da4fd5cU, 0x3e2666e7bdc4fe60U, 0x3c60255abca54646U, 0x3e1d28113e302b2eU,
  0x3e3482c23c8a24d0U, 0x3d04264f3d8abd0cU, 0xbea71137be421ee3U, 0xbd249f5cbdcf0e0dU,
  0x3d792af7be0d842eU, 0x3e17b4e53d5c818bU, 0x3e01c7cdbd2909b0U, 0x3d24db523cab37fbU,
  0xbd9db338bd2c54f7U, 0x3caed98bbdc11a82U, 0xbe19c80cbe1054c7U, 0xbcd849a5bd14de2cU,
  0x3e492501be0752aeU, 0xbd19b8c4be2a2e21U, 0xbe02ab3f3bf6cc89U, 0xbd46cc0ebdc4bc94U,
  0xbdaff7873d5b835dU, 0xbea2c69b3e513935U, 0x3e276abcbe17fbd6U, 0x3d21d2673dedd1eeU,
  0x3c06fb503cc30eb5U, 0xbd6dad343e3be276U, 0x3d7209053e598be4U, 0x3d0f8943bd87477fU,
  0x3e5c6864bdf2eac0U, 0x3e651ea4be0c5104U, 0xbd4fde70bdd6faaaU, 0x3acea077bd986a41U,
  0xbd5a7cd4bd528c4aU, 0x3e1736203b7b86aaU, 0x3da7a1b53d40a4edU, 0x3d051a5f3d94f90fU,
  0x3de4c55dbc84f24aU, 0xbdbba9e9bd54059aU, 0x3d6beebe3d249ad8U, 0x3dfa4cd33db333a4U,
  0xbe0d96a93ebb8a85U, 0x3ea656cbbc7f2ca5U, 0xbe3267e0bdc40c81U, 0x3c6c47b2be9eb741U,
  0x3dfd1a7bbe06d989U, 0x3da0632a3e8ebf47U, 0xbdbbd1333e6de9c0U, 0x3ea09103bcefee80U,
  0xbd3ee716be299900U, 0x3d4c18a4bc11ce26U, 0x3d4ac52f3dbdf4f5U, 0xbdc4ce3ebe38f7ebU,
  0xbe03be2b3db0a158U, 0x3c645596be10933bU, 0xbb4325463de3d7a2U, 0xbdf5c851bdd61beeU,
  0x3da01d12bcc05a22U, 0x3d7f991f3cfe5225U, 0x3d941fd8be8da743U, 0x3d984bb0bc44a168U,
  0x3e2406d13d0988eaU, 0xbd2d548bbe7d0724U, 0x3ddc04d9bdcb4707U, 0xbde82e1dbd8b8c92U,
  0x3e3155593d5c0a59U, 0xbdc0f49a3d9b75f4U, 0xbde8dd7b3e186824U, 0x3d83b84dbeb27b5cU,
  0xbda5e0523d05788fU, 0xbc333d653def98fcU, 0x3e0327743e85ac6dU, 0x3e43a9723e5d602aU,
  0xbe328b44bcacd625U, 0xbe28ab173e0ce14bU, 0x3ddbfa403e1d9fdbU, 0xbdd795203e144888U,
  0xbe481ef13ea9aab0U, 0xbe13eb113d3a94b8U, 0xbe19ccab3e00ba1cU, 0x3dbe1aeb3db621e6U,
  0xbe2fd5f3bca3b881U, 0xbd7200143cd013d6U, 0xbd5464d0be8815b3U, 0x3d201a173d2d58ceU,
  0xbe00c72cbe0184b6U, 0xbda2e78ebd915732U, 0xbe603dda3e325705U, 0xbe48e66abe8723e1U,
  0x3e35de65be6dba7eU, 0x3dc102db3dda08f9U, 0xbc7eb7683dc64db8U, 0x3e6a73bd3d774365U,
  0xbe758091be0fd177U, 0x3dabe1473e2d7cb8U, 0xbc448b563e9d7dc3U, 0x3e5d6d1abd201d9eU,
  0x3e00b9b03e16f5fcU, 0xbce8933d3e032f67U, 0x3e22e357bdea8656U, 0x3d2fd653bdc526c1U,
  0x3cbd51e2be270166U, 0xbd1cdb0fbd0b4453U, 0x3e47cdaabe5f74ecU, 0xbd525115be01d3aeU,
  0xbe2505163c00d76aU, 0x3d3ab2d03ddb6613U, 0xbe4f30d63e21faaaU, 0x3e3f55943ddf60abU,
  0xbca350093da5f219U, 0xbb98d851be101621U, 0x3dfa9fd93d864dd8U, 0xbe7a509c3e254023U,
  0xbe28e4793dddefa9U, 0xbd994092bda0a928U, 0xbce71c213e822d75U, 0xbc1f0d00be46c88aU,
  0x3d59ad0bbe10356cU, 0xbdb91a013e906b5aU, 0xbe9ba1d93e0a43d7U, 0x3e2b505a3e388c16U,
  0xbd3510f3bdd5a2edU, 0xbdc1f4aabcf41d33U, 0x3ddb36cf3dd86e47U, 0x3abd5580bdf9695eU,
  0x3e46ee74be3f5317U, 0xbdc0d7333e4dfb76U, 0x3a16c81abd8d0e3bU, 0x3e38218d3d90864bU,
  0x3d75e0143d5b66f7U, 0xbd846f2bbde94a0aU, 0x3d934292be1e9514U, 0xbde595bf3dff70a7U,
  0x3e636375be08318cU, 0xbddcec1cbdbbed1fU, 0x3cde9d653e8f161aU, 0xbe1de3b43e422624U,
  0xbdf4aa543e2ef39eU, 0xbc7a1b9a3ce933efU, 0xbcfa52673e66ef71U, 0x3c5367d4bd43b46eU,
  0x3e5ee0983db8e55aU, 0xbe0caa80bb057e16U, 0xbd4415d83dddced3U, 0x3ec99f43bbd51484U,
  0xbe0864d9bdf9a773U, 0xbe2a2c00be53ddd6U, 0x3c5bcf9b3e851692U, 0xbd5de1d13d87a051U,
  0xbe105a4e3e616a4cU, 0x3c53fe833e6f58fbU, 0x3bcb4c55bda8667dU, 0xbe63c3e03db4d640U,
  0x3e42bbedbe81e5d9U, 0xbe41590d3e5b74b2U, 0xbe32e533bdb4bccdU, 0x3d1ee819bdb0092cU,
  0x3d32b64f3dd89365U, 0x3e1660c1bd4f3b1cU, 0x3e97db64bd66c040U, 0xbe0a71d53e9a9081U,
  0xbe178dd3bd180b8dU, 0xbd641c713e08f0acU, 0xbd8d9f11be556245U, 0x3ac0c7883dbdb416U,
  0x3dfccfefbe99f734U, 0xbe0aa2983e9c7e2fU, 0xbd23d8e0bddd3f49U, 0xbd8517653e95f9f8U,
  0xbd88bdc1bdbf6d9cU, 0xbd9a7f473e242ccdU, 0x3d6df2b93e5c9640U, 0xbdd2ec803da39031U,
  0x3daa1504be2acdd7U, 0x3ede923b3e9ea70fU, 0x3e533e53bd800da4U, 0x3e8e04f83c25d2b7U,
  0xbdf19a3e3e11d46fU, 0x3cddb45e3e6bdfdfU, 0xbe04e971bd9d8591U, 0x3dc5f46a3cb0c60fU,
  0xbdbd60323e586781U, 0xbd8df70cbe6b548fU, 0x3d5cefc03e358052U, 0xbe288702bc687f0cU,
  0xbdf44eb53e0e8bfcU, 0xbca2a62bbe290bf4U, 0xbe2315743d84df03U, 0xbd8a5fc73db6ae3eU,
  0x3e320a50bd1c2bd4U, 0x3cbd8d0fbda76838U, 0xbe92b0963eba8049U, 0x3e476e383e197f8eU,
  0x3e6b7b84be4b124bU, 0xbea9e10dbe4e1e53U, 0xbd06096fbe517920U, 0x3cb3b3b73e267954U,
  0x3c4df9623e1485c2U, 0xbe3aa7773e7ff4d0U, 0x3e65897a3e7a5ec6U, 0xbde74062bd8f446cU,
  0x3cd2e38b3e304c6aU, 0x3ddfcd2fbe4dabfdU, 0xbd9a40e33e389a9eU, 0xbe6ecf323deff532U,
  0xbe3c7e6cbd5838ebU, 0x3e43447fbd1b7e51U, 0xbdf679c5be409d38U, 0x3d09135b3de71b0cU,
  0xbc174d9dbe861b97U, 0xbe712d2b3dcecd56U, 0x3e803f743ca86ce4U, 0xbe085d8cbe06994fU,
  0x3def6526be2e192bU, 0x3e4ee15e3e678143U, 0x3e19b1043d81effdU, 0x3dc3e75abe9ccc88U,
  0x3c089de73c56d97fU, 0xbd2f60dabce2384eU, 0xbe0b73d7bdeb7d56U, 0x3d91ffe1be8d81adU,
  0xbded7b623d9c41eaU, 0x3e0bea94bd73c105U, 0x3e340896bc30e769U, 0x3d0180543e642d7bU,
  0xbe07e63ebe74eb78U, 0x3dbf65953e0873bdU, 0xbe76d73a3db968cbU, 0x3cda43fe3e7153a1U,
  0xbe5192d23e31e4e9U, 0x3e13ecafbded7a62U, 0x3c3ca6ebbbab5f22U, 0x3e889f61be596a61U,
  0xbdeb57cabe96e8feU, 0xbdc38cbebd8e1eefU, 0x3e858548bd997771U, 0x3e1731b73dbdb20bU,
  0x3e0614ffbe83862bU, 0xbcb9f3b13e21b6ddU, 0xbd6e30343db10637U, 0x3de4eb9e3cbd5bb0U,
  0x3d16adf0bd8c196dU, 0xbe274b553e1caf24U, 0xbcde681cbe0840acU, 0x3e1df34a3e17711eU,
  0xbebd6ed33e6c8ae7U, 0xbe8f9a3a3d63ea62U, 0x3e9375ebbdd8436cU, 0x3dd456ea3e2b2780U,
  0xbe8ff87e3e4c9a4aU, 0xbe5bf27dbe2693f6U, 0x3ca2b7bdbdb27c61U, 0xbe695a79bd258a9eU,
  0xbda040a73e2c19c1U, 0x3e9f3ddd3edf4b1aU, 0x3a49fd36bdb2fad3U, 0xbcfa7c4e3ea0c28dU,
  0xbd4806443d03e159U, 0xbe1e363dbe5c0034U, 0x3ac51e453ea17df8U, 0xbe0ec59c3dd4faf3U,
  0x3dcef6833dbdd6c0U, 0x3d538654bdf47858U, 0xbd2c58f33d97ca8eU, 0xbda7ebc53cb2d86bU,
  0xbddb49023e24210dU, 0x3e9a98f1be6b743aU, 0xbcb7a339bce9fb83U, 0x3db2c731bc8086d3U,
  0xbe5b0fd2be53b63fU, 0x3d7d240cbcde9910U, 0x3d0b68853eaee4a3U, 0xbdece6483e1d533fU,
  0xbe29cc21be4a3a3dU, 0x3e8c5bf43e8f921dU, 0x3d2824a4be23af81U, 0x3db6153a3d77e814U,
  0xbdad7ca33e8338fbU, 0xbc5c31a2ba897ab5U, 0x3e0b6ecabdfaa6abU, 0x3d3e5977be168595U,
  0x3d5a084fbdb4f446U, 0x3e067bc9bdad6d20U, 0x3e808c0c3dc30816U, 0xbe858c4fbe32c511U,
  0xbe4b141ebd4af1d7U, 0xbe868b21bd0e1b5bU, 0xbe5781d03e6cd98dU, 0xbde9d2b0bcbc3ec1U,
  0x3d0c66bebdc4d893U, 0x3ea24ba2be339de8U, 0xbd5a6ca7be45e649U, 0x3d8850f8be58978dU,
  0x3d8e33d33e309667U, 0x3e3f635cbd8e424cU, 0xbe849d1bbe8a7106U, 0x3e2e574c3dbb9a40U,
  0xbb8fd269ba39b7f5U, 0x3dbdd01c3af214dfU, 0x3e895dc3be16cbb7U, 0x3e9eba7bbdd0b035U,
  0xbe4ffdd93eaf0c3aU, 0xbe6aa0cbbdcf03daU, 0x3df27a563dff8008U, 0x3e4796f83e057180U,
  0xbe8cbcaf3eb8f22bU, 0xbc5d85adbe039bbbU, 0xbe0d9d553e80fc2eU, 0xbb82749ebd218f86U,
  0x3d8e58983d537b01U, 0x3d5691513d9ee8c7U, 0x3d0dfe813d21c5b8U, 0xbd72ecd9bc3415bdU,
  0xbe5337fcbde46cadU, 0x3e3ebf293ea949e8U, 0x3dbc98efbeb78ac1U, 0x3e1dc20fbe1e966cU,
  0xbd8a719fbd0e0994U, 0xbd362e28bd9c2a75U, 0xbe158cc9bd6f94e3U, 0xbe5006243d84dd59U,
  0xbce8ad25bd94d8bdU, 0xbbe424bc3e3a5ca8U, 0x3e61aba83e47e8caU, 0xbe3cbb4dbd964533U,
  0x3e4dcc7b3d9b6b6bU, 0xbe2051aebce7a4d4U, 0xbe50f54fbdf42667U, 0xbd708f223e2526a8U,
  0x3de111933d15141dU, 0x3dc6dd96be85ef34U, 0xbe12ca453e85d353U, 0xbc8c32e0bd7e47bcU,
  0xbe273a593c677be8U, 0x3de4ace63d82d250U, 0x3e572fdf3dc71e03U, 0xbe4f4d43bdf83195U,
  0xbeb4b5223e4ea30fU, 0x3da083f13d0ebed2U, 0xbc8fcaf7be957a6aU, 0x3e751abfbe9343c0U,
  0x3df1195ebe523b4bU, 0x3c95eaacbe42ea2aU, 0xbdc0ad58be2fddffU, 0x3b34279c3e8e562fU,
  0xbe934e84bec3bd55U, 0x3e7be706bd68afacU, 0xbd780090be197f39U, 0xbe21256c3ca9c182U,
  0x3e83eb9bbda951d5U, 0x3e11a6d1bcd5aa27U, 0x3c217435bce1ccb6U, 0x3e14c71fbcb5e4acU,
  0x3e72360c3e4bc2aaU, 0x3dff4a08be3de6ffU, 0xbce9393a3e142bd8U, 0x3d83e792bcc9e613U,
  0x3cfd184a3c861fa4U, 0xbd78e7ec3e685219U, 0xbc88ac16bcdbe273U, 0xbddfdd2bbe76f3e6U,
  0x3cc4f4bebd742de8U, 0x3e948a33bdc4f828U, 0x3cb00a2ebdb8c8e7U, 0xbe072ea2bd9bd2bdU,
  0x3ea2a835be85845bU, 0x3d5fb609bdb98746U, 0xbd07ccd0bd231e34U, 0x3cb33b023d4cdfd2U,
  0xbe31e7d93e81a1d5U, 0xbd4aefa63e545449U, 0x3e59beaebe1f4c7cU, 0x3de192753d226a57U,
  0x3e16ac7dbdfad293U, 0x3db97228bc7e27ebU, 0x3ddc3d25bdf0b9e1U, 0xbdbfb5cdbc9ca67dU,
  0x3dd1a7dabd851114U, 0x3d29c5553e8421b7U, 0xbe422c9d3d7ae5a9U, 0x3e9a0d58be847d53U,
  0xbe12608f3e7d6681U, 0x3e4b3414be9f9070U, 0xbdbcfbb03dbabc14U, 0xbe311173bde10f75U,
  0xbd3d2562bc61f76fU, 0x3b7732a53dc78412U, 0x3c6fba993ea9e991U, 0xbe4d2dce3e54f207U,
  0x3e9c7d01be94da6cU, 0xbe51a5783e4b67c7U, 0xbe06eb16be07cf71U, 0x3e5dedac3dc5dd19U,
  0xbd8bdf93bdd9c2fcU, 0xbcd49330bdec0d00U, 0xbb9f2431bd922b10U, 0x3c7a1dc03dce413eU,
  0xbc1f3c9ebd86b731U, 0xbe0d4e5a3d394020U, 0xbe12eb723e5aee47U, 0x3dc2cf5f3e4783eaU,
  0x3e9ceaac3d28a5c9U, 0x3d9a2439be363293U, 0x3e4ba0cbbe4ea4f9U, 0xbdfabdd83e77aacaU,
  0x3e6c5cd1be27e08bU, 0xbd5666c3be67bcadU, 0xbd8bc3fcbdef9669U, 0xbd88b3f6bd7bf801U,
  0x3bf4322f3db7a2a2U, 0x3e25e9f7be8f2e5bU, 0x3e4fbf5e3e6fc8dfU, 0xbe2678f2bdd4eeedU,
  0x3e0c7189be21eb38U, 0x3e1eb3743e42d01eU, 0xbe845afd3ce015b8U, 0xbd1d4ac8bd834836U,
  0xbdc4a527bc1eff6aU, 0x3e04a6983c9aa8d6U, 0xbe4738cb3ca437dfU, 0xbe0bb00d3dce2a7cU,
  0x3e44360ebe4d0b8bU, 0x3e40c5d43e37e096U, 0x3e57c2bd3b3c1afdU, 0x3e44d64f3d8081a4U,
  0x3e2aa9383d2e93e9U, 0xbe679880be808622U, 0x3d54b71d3c183918U, 0x3e4339cf3df5248eU,
  0xbd561c92bdb1f733U, 0xbd6fe3b3be89d707U, 0x3e0fcaca3ca19dbfU, 0xbc4864debdd7105aU,
  0x3d5d40593db61a98U, 0xbdfa1e853c9e51deU, 0xbd72137e3d009461U, 0x3d0d6b42be1cc611U,
  0xbe0c2ccbb942c220U, 0xbde69b163cece67eU, 0x3e004cd73e2c9347U, 0xbd24a3013e571006U,
  0x3e07470c3d278e82U, 0xbe4c88e8bdbfbca6U, 0xbe2c6b273ccd34f2U, 0xbe1af96abd139a23U,
  0xbd74e7eb3e3b649dU, 0xbcff169abc7877b6U, 0xbe1fc38b3e333080U, 0x3e368739be4e616dU,
  0xbe0c93ed3e01c244U, 0x3dd16c4abe2d540fU, 0xbd0b12b23da28350U, 0x3df3fd1ebd04c79cU,
  0x3df4817abdafb227U, 0x3e65bee0be4e6b26U, 0x3cd18d7c3e10d2faU, 0xbd14e714be38ff89U,
  0x3df687cbbdebea0bU, 0xbe04a80e3dbb4a27U, 0x3ca45124bd96ee0fU, 0xbe8d0df33d3f9876U,
  0xbdc6c26e3c901b78U, 0xbe50d3fa3e261869U, 0x3d4c5044bd7310b4U, 0x3e45db573db55416U,
  0x3e79b9b4be158917U, 0x3dbac36d3d0cd5f0U, 0xbcbcc9233ceef26cU, 0xbdc32ac63d938da4U,
  0xbb44a6503d7fbd57U, 0x3de9aa0e3ce56bcbU, 0xbdfc01b63e00c5daU, 0xbd1c84bebe59da0bU,
  0x3d90d8d83dbab83fU, 0x3eae6624bce1e4d2U, 0xbc8cd57abea33090U, 0x3d62a9d13dd4df55U,
  0x3e32a95e3e3233c8U, 0xbe3617463d987f52U, 0x3d6adbb3be7d7c09U, 0xbc81e6783eabf21dU,
  0xbe4f561c3eaea085U, 0xbe8c8d75bdab32d0U, 0xbdc0d37a3deea449U, 0x3dfb68953dd93a4aU,
  0xbd86ffa83e5a590fU, 0xbe27e057be68ffa5U, 0xbc7111a53e3a7584U, 0xbd5dd09ebe206eb7U,
  0x3d876dd4bdc00866U, 0x3d5115d93e81c531U, 0x3e0645e63d8af4cbU, 0xbe6e8af0be960042U,
  0xbd30723e3e13a888U, 0x3cd44555be305986U, 0x3e7515273e1cac7aU, 0xbdfd14223dde31f9U,
  0x3e65f4fc3e4d1135U, 0x3e90c7043e0684a8U, 0x3cf14e513c4d0fc8U, 0xbe8f71373d42a24dU,
  0xbddccfa3bd9afe76U, 0xbe59692d3ca76a88U, 0xbdab8d6ebdcb999fU, 0x3ea8a5873d5e40b8U,
  0xbca2cfe5be22adf2U, 0x3d273ec83e1e03f2U, 0xbe4a45bdbdd32da8U, 0xbe2499c63e8087acU,
  0xbcae6fc23e11f0feU, 0xbb58ec00bd8ea7c2U, 0x3e2f03d23e70d483U, 0x3d8b30fb3df727e8U,
  0xbe14c43fbdb6fb23U, 0x3e1740053d8c8cb3U, 0xbbb5cf2ebe8ddde8U, 0xbdfcc7d8bd974c0aU,
  0xbe27c238be290cabU, 0x3e3b14b3be72a1b7U, 0x3dd085d3be767f23U, 0x3cdb7e343d6d6008U,
  0xbe08e35d3c8a7b3fU, 0x3e557797be0551c5U, 0x3e53c2ad3dca4d8aU, 0xbe08447a3cdd221fU,
  0x3e961c9d3db0c422U, 0xbe7a5087bcf3c086U, 0x3d3ede443e2f7000U, 0x3de9759bbe664e5fU,
  0xbd79d774bde4927aU, 0x3d67e284bde860d4U, 0x3e51f7823c526f0dU, 0x3d960240bcfd66dfU,
  0x3e4fa67ebe7d66c6U, 0x3df25b55bd208c46U, 0x3db8d9eb3d3d1e86U, 0xbdcb8a313d518e01U,
  0xbd83d578be0d898bU, 0x3dfae5083a586386U, 0x3e4ed89abe3e323dU, 0xbe2bfbef3da1d53cU,
  0x3d637b953dd52867U, 0xbe6c099abdd1ff98U, 0x3e148653be964f1cU, 0x3df3f8acbcd46a4eU,
  0x3ce4e5de3d607216U, 0xbc617de63dd4baa6U, 0x3d87f4fe3e3e1cdaU, 0x3c80a0d7be55a1b0U,
  0x3e0b2a283e362ae3U, 0xbd2b692b3e077d54U, 0x3e2cec28bb97f5d2U, 0xbdc66cdd3d29c7c3U,
  0x3e3c8b413e1e1c0fU, 0x3e4bd577bdaafe99U, 0x3e12dc6fbe243b75U, 0xbe8d5bd73e6cbb0aU,
  0x3da65719be280ea6U, 0x3e1f80a0bcf07dc5U, 0x3e0a1089be287979U, 0x3dfedfc73e63f941U,
  0x3e75f8dc3d7ee904U, 0xbc899351bbbcd172U, 0x3cf110d5be82ed2dU, 0x3e095b2bbb4c4a36U,
  0xbe1fbe643d051ab3U, 0x3df50c093e26d3d6U, 0xbd31ca903de1d2a2U, 0x3ad7f8c23e74e4d2U,
  0xbc8eb54dbe6781c6U, 0xbe21aa933e3cbda0U, 0xbdf7368cbc1e7af8U, 0xbe91ad483cb6f223U,
  0x3e2811a93db29afeU, 0x3e2c94c03e1ec23eU, 0xbdba32ffbd80a7f9U, 0x3d8fc908bd32080fU,
  0xbdd53675bdf6e4aaU, 0xbe3134373cf143c3U, 0xbde8b6dabb813be3U, 0xbd9482a73e9c0d4bU,
  0x3e5311ccbebf1e53U, 0xbe6e227e3e8b4fb9U, 0xbe50bd053e6c826eU, 0xbe44d78e3e1ff127U,
  0x3ea3291e3e803ee0U, 0x3d8b50ed3d842ddbU, 0x3e7531603daf3f59U, 0xbd3d2da63e4cf13cU,
  0xbe852d173b8fab48U, 0xbd4b9f0ebd130a66U, 0xbe148f823defd07bU, 0xbcc38114be804d80U,
  0x3e1ee92dbe9dbebcU, 0xbde7e4a9bb562d6fU, 0xbe7c84dd3cd028b3U, 0x3e2c93a53e316db8U,
  0x3e4a5e543e7fb6cbU, 0xbc85169abdfbb406U, 0x3e0d45363dc6f378U, 0x3e65423bbe847fe7U,
  0x3e3719363cbb3692U, 0xbe0164103e8705d1U, 0x3d3cd053bcbed158U, 0xbe1863d7be2fccdcU,
  0xbb66606cbe8e5369U, 0x3e220f6d3e12af1fU, 0x3e97feec3dae72a4U, 0xbec02196bcd9ac2bU,
  0xbd0cc7f8bdbff7bdU, 0x3e8600f23e2ef4d4U, 0xbde1c1c1bd0e34b6U, 0xbe3bd10a3e281658U,
  0xbe4614fe3e37458bU, 0x3e0491c0be7ed9d5U, 0xbe03257f3dbd788bU, 0x3e3fe22f3d2fc7ddU,
  0x3e9ae3ccbea219d7U, 0xbd6c9fa3ba92ca67U, 0x3d0e0aebbe97f79bU, 0xbcb0d400be586367U,
  0x3dccd9c83d94c799U, 0xbd32c7493e394fb9U, 0xbdbddf443d0eb75aU, 0x3c70030b3caf3d33U,
  0xbe0d21f0be86d512U, 0xbcd1fcd4be73b14bU, 0xbe06c4af3d79d3d3U, 0xbe151a7cbddc967fU,
  0x3eb696a0bdf4e316U, 0x3e3944cfbc3441d9U, 0x3e409f6abe111e21U, 0x3de6f4873eb2ae50U,
  0xbe4d82413df60b82U, 0x3e78b3b7be0e0c62U, 0xbe0c012fbd0c479dU, 0xbde5a7263ddb7bfcU,
  0xbde702723db3f1abU, 0x3e71bca93e16b1ffU, 0xbe565978bd6d6cdaU, 0xbe25a80e3e1b3316U,
  0xbe794ae63e842e21U, 0x3dc48fefbe872cd5U, 0xbdd1f6f0be5dbfeeU, 0x3d0e702c3c9fda46U,
  0x3e8368383d75201bU, 0x3e5d65c63e06665aU, 0x3e4cfe4bbe87dcdbU, 0xbdb3de8c3c82f1cdU,
  0x3e2c638ebe3ddb07U, 0x3e1a6491bd17e68bU, 0x3c9aca4c3dfd45d9U, 0xbc6482f33d4e8510U,
  0x3e7d35683e394537U, 0xbce25e4dbd232fceU, 0xbd96bb07be841196U, 0xbbf8aee13d07f544U,
  0xbeab0fa7be73c3d3U, 0x3de45cccbc237077U, 0x3d016c633e7c39e8U, 0x3da431a3be5c3683U,
  0x3e56d066bd317bc3U, 0x3e17f22bbcb87379U, 0xbd5837a73c2a3b76U, 0xbdb93a0b3e594d28U,
  0xbd2bc561bc0aa6ddU, 0xbd1925fabe235195U, 0xbe7054493e7ba98bU, 0x3dbf064fbbea6542U,
  0xbe3e244cbd90c710U, 0xbd139fa2be17891bU, 0x3e2be647bd6b6381U, 0xbdd599e2be39677fU,
  0xbe69419b3e4d9b34U, 0x3e376b0c3da286d5U, 0x3deee5ae3e23fb56U, 0xbd77b99e3e0c6c65U,
  0xbd7c16653e66fb50U, 0x3e3fc7d2bd7a2a5eU, 0x3e1edb3e3caf7bb3U, 0x3e20e0513da6a141U,
  0xbdb41313be500ca4U, 0x3df1c52fbc84c540U, 0xbea383e7beae72deU, 0x3e0fe907be0c1ff6U,
  0xbe1a1daa3dba40b6U, 0x3e82beacbc43e961U, 0x3d9b3a593df0021bU, 0xbd5d1ed83d3b1211U,
  0xbcb787debe086f3cU, 0x3d32e25c3e4daff3U, 0xbd0e1a163cda2338U, 0xbde1f073bd90c266U,
  0x3e0e8a663d7279d9U, 0xbe08bdf6bdbedb04U, 0xbdf96fc6baf6c391U, 0x3cd7dac83d7cd091U,
  0x3d34b86e3d5176c0U, 0xbe1a235dbe72f0beU, 0x3e89dff33b8e610cU, 0xbc48cb543c7cc6e3U,
  0x3e208ab6bd870624U, 0x3dfd2ab43bfbb1d0U, 0x3c4174a0bdd59340U, 0xbc456d6b3d45fddfU,
  0xbbb6cec63e36df16U, 0xbd1c8be7be7aa7f3U, 0xbd2e0286be18ec3aU, 0xbdb20a5a3da7e867U,
  0x3d1fe0d83e16a2c7U, 0xbda66605bd6a3645U, 0xbdafb240bdbedf9bU, 0xbe21172abdefdd3bU,
  0x3db5f029be6d0a64U, 0xbe0ec6f83e29102bU, 0x3cec99513e4ab679U, 0x3d7f4a47be305d82U,
  0x3e05acd03dc4a7a8U, 0x3cb8014b3e2bce4aU, 0xbe2b5ca93dafbb07U, 0x3d2b39f7bca81c17U,
  0xbdda14dfbe0c6f3fU, 0xbc709c8e3dd2ea77U, 0x3e1271653e748b35U, 0xbd3d700f3dd4af63U,
  0xbe363714bdf176e0U, 0x3d5a7d33bcd35db1U, 0xbbd85fbc3aa04f89U, 0xbba085bc3e0c51caU,
  0x3e3da4f9bdd7b7b5U, 0xbbf603aabe4cd3d0U, 0x3ea7acd7bd985d3fU, 0xbdb489f4be88d4aeU,
  0x3e6f9f9dbd85d086U, 0x3d1bf3423e46ce74U, 0x3e4d2a213d83065fU, 0x3e3f3c68bcee1cecU,
  0x3daf05e8bded4ebbU, 0x3d595079bdb434e6U, 0xbdea96a9be4b2ba1U, 0xbe9a8cb53dc23da8U,
  0x3c887a17bd88b6ceU, 0x3e369570bdfe71ffU, 0xbd3346273e351a91U, 0x3e831e92bdb96ecfU,
  0x3e862c433e3a4f90U, 0xbdbd31ee3e283766U, 0x3d84c5123d4477e4U, 0x3e446127be54bdd2U,
  0x3d240c0f3d5bada3U, 0xbd9ae431bd47fcceU, 0xbe6c38fa3c676c29U, 0x3d866da5be400542U,
  0x3dd7ffbebec188bfU, 0x3e45c1193e2ebbb2U, 0x3dd13b99be2e47f7U, 0xbd01dc74be407fc6U,
  0xbd58e72bbb8a1ae2U, 0x3d2c3f093d829cd2U, 0xbd3408193d1b29caU, 0x3cb49788bdd3d25aU,
  0xbe442d44bda42330U, 0x3e68c0c8bc81a330U, 0xbdd535f03e6384f4U, 0xbc359c123d9742e2U,
  0x3dbee186bdead2e1U, 0x3e72c7823dd06edfU, 0xbd8fc6613d9cab66U, 0xbdb0210b3d252eaaU,
  0xbdc96b923e50686fU, 0xbd7410713e91b928U, 0xbdf19a2c3d8a390eU, 0x3d70deea3de8ec9eU,
  0x3d57f5bfbd8db8acU, 0x3d5673aebd1961efU, 0xbdb7d313bdc63909U, 0x3d0e5207bd567fefU,
  0xbe2e49b9bcdaec04U, 0xbd7cab633c5d2f89U, 0xbe851558bddfc803U, 0x3dba21c1be29bcfdU,
  0xbc9acc423e271f95U, 0x3b77c6acbe618565U, 0x3d95438ebc9ed6c6U, 0xbc6a12413e1224adU,
  0x3dc871183c5778f8U, 0xbd77c11cbdb73f8cU, 0x3e43fdb53e17bd99U, 0xbd2bed873e44456bU,
  0xbde7c503be499c1fU, 0x3e83a0e23dd112b8U, 0x3d85d611bc3a60deU, 0x3e2021c3be0d57fcU,
  0x3de28d4fbde28486U, 0x3d88bafbbd8ae94cU, 0x3e54653abe11b860U, 0xbcdcb1ff3dfbd16eU,
  0x3de30c3bbe84e97cU, 0xbe1052673ea97603U, 0x3e83b287bea2125fU, 0xbeaf6a353d739e73U,
  0x3d4cce023e948c9dU, 0x3e4421e7bdb53d0cU, 0xbe3628dc3e8b00abU, 0xbde9f7c83e32a399U,
  0xbe2f60e8be6f4093U, 0x3d93ef313d735b0eU, 0x3df13eb8bd60ddd2U, 0xbe0c4fba3e6ae75bU,
  0xbc69710bbe652ffeU, 0x3cdd0f0c3dd789f9U, 0xbe80f306bdd3b51fU, 0x3ec252fc3e3ed1edU,
  0x3ec206193c4fd245U, 0xbe6d0692bd84f7f2U, 0x3ea613ab3c8ab10aU, 0x3e3b67e83e2cb373U,
  0x3de8e0e8be037881U, 0xbda33bf6beabf041U, 0x3e3cad90bcd33d26U, 0xbe1e409cbe70b5a0U,
  0x3e78fe133e245669U, 0xbe96e1b03e9b9ee3U, 0xbdb2dec13e0dec03U, 0xbe9d38ae3dcbadc1U,
  0x3eac21573e9735c4U, 0xbe84bc2cbc82a28dU, 0xbd91c712be55fcb9U, 0x3e910f0d3e54639bU,
  0xbe2357143e1eec76U, 0x3d9928fcbe8c3738U, 0xbd8f85343e3acb92U, 0xbe30705dbdf6f747U,
  0x3e6bc427bdb7e899U, 0x3ddff620be2c04abU, 0xbe3318c83dd499faU, 0x3e8954bcbe2cedadU,
  0x3da801a33e7c112fU, 0x3d4e4082bdc73965U, 0xbe0397de3cf6dc71U, 0x3dacd06abe9b4782U,
  0xbe7da349bc21e5cfU, 0x3eab26a2be2decd8U, 0x3e2f8c193e92f2c4U, 0xbe346195be235527U,
  0xbdfd84713d6118d2U, 0x3e250d9ebd819c36U, 0x3ec3a2fabe8b79f7U, 0xbda0216abde95761U,
  0x3d9caa1abe551f61U, 0x3e0b59243dd4a1acU, 0x3e0fd5603d62eadcU, 0xbdefb698be507d93U,
  0x3d9299b63d0ee627U, 0x3e20bc71be58fe17U, 0x3de8726bbc82693fU, 0xbda9c15bbbfa4c06U,
  0xbe1bf3a53e02ed23U, 0xbda90b8c3e4180deU, 0x3e132796be767d1eU, 0xbe95209b3e1981ebU,
  0x3d8beb7b3dbad819U, 0xbdc83ac0be0a1665U, 0xbd3b02353e21d023U, 0xbe4735ac3e952eabU,
  0xbde8c015bd94da2dU, 0x3dfd7730bdb3d4b0U, 0xbc7b159e3e0dede4U, 0xbca0448ebc9de48eU,
  0x3cc7dd4ebdcbf0e3U, 0x3e18f2203d7bee44U, 0xbd6ed7073e3800aeU, 0xbd4a8338bd9b50fcU,
  0x3e881aa6be80282dU, 0xbde18b733cb04026U, 0x3d8bc4ce3d881c31U, 0x3d80a6ebbe9f4e78U,
  0xbe0d6bde3de7ead6U, 0x3d83b7b93d074810U, 0xbe2dd62f3df63eb9U, 0xbe9dd6423d3aafa9U,
  0xbe226f453d647470U, 0x3e06577c3e46fab7U, 0x3e7c3b34be3a5ebcU, 0x3e273b9a3e40cb6dU,
  0x3d7fb727bda7fe79U, 0xbe286b55bdcab4bcU, 0x3d5181a43d4f6103U, 0xbe2afdc53e639275U,
  0x3ea579febdd5bed8U, 0xbe2df74cbe115d2bU, 0x3e0751003e28b30aU, 0xbda2cf8d3cbdeecaU,
  0xbc000b39bd29accdU, 0xbd6c32e43c17e1baU, 0x3e33177dbd668b6aU, 0x3e7dd738bd99ba0bU,
  0x3e85d58d3dd7eaf0U, 0xbd9e5a99be1d3cf6U, 0xbdd1a16ebc9e559aU, 0xbe0a0fc83d280bf6U,
  0x3cadcfc13e3ece91U, 0x3baf6319be13990aU, 0x3de1a04b3c9fffe1U, 0x3cad274e3e09ea6fU,
  0xbda8ac27bbbce140U, 0x3dbc2da23da45241U, 0xbb8cd1da3c0d381dU, 0x3df9a4f4bd46d741U,
  0x3e8f24e2bc667abaU, 0xbd9902c2bd9909e4U, 0x3d9cb9d0be02fd87U, 0x3db32bc03c0cd4e2U,
  0xbcce906cbe23dab2U, 0xbdf90b1dbd8b9e38U, 0xbdb4651c3d9f9408U, 0x3d3bd4793be58115U,
  0xbd827bcf3ca8fcc0U, 0x3cf258c8bc32218bU, 0xb9d50d783deceec3U, 0xbe527661bd3a6727U,
  0xbdfb1cc3bdfa3ccbU, 0xbdcc65ffbceded2cU, 0x3e49b57fbd658b19U, 0xbcffb9b63dee576eU,
  0x3cc9e2fbbdbe6b4fU, 0x3c776b35bdda2839U, 0x3d49634e3d74e096U, 0xbd61c6ea3ccd7812U,
  0xbe23c07b3db7a1e7U, 0xbdc26cedbcf905d6U, 0x3e18f1933d0a16e7U, 0xbdb37c353e06b607U,
  0xbd158e47bd2292c0U, 0x3dfefc50be32a37fU, 0x3d5976273b5b22ddU, 0x3cb36b26be10c763U,
  0x3de1ce7e3d3b9000U, 0x3d8dfff63e2e95abU, 0x3e353010bdf50aa4U, 0xbe1141c5be29fa3dU,
  0x3e3ebbb2be5845c6U, 0x3c5fac83bb325eaeU, 0xbc051fe73d3e5324U, 0x3d65de913dca1a11U,
  0x3cb3f2c0be57ce57U, 0x3d9866073d6a65d0U, 0xbcaa1b07bb36276aU, 0xbe5beb103e2ea996U,
  0x3d35bf0e3db17868U, 0x38c340c5bd3e91dfU, 0x3d987e14bd503aa8U, 0xbccb46dfbd250aa2U,
  0x3df9265ebceaabddU, 0x3cb794203e02b675U, 0x3d293bb93dff202cU, 0xbdda888ebcd3bff7U,
  0x3e6759ebbe46e60eU, 0x3d8a1e803da6c86fU, 0xbdbb75023e04d8cbU, 0x3d3dc20dbded3e4aU,
  0xbd6f63423d91c196U, 0xbe0943423dae8857U, 0xbe062ecbbb25dde3U, 0x3e5e5092bcb71e7fU,
  0xbe93bb753e06c839U, 0xbc49fe533e0d9d90U, 0xbe274c013e5e8ddcU, 0xbd7c86e7bdc5e99dU,
  0xbd6d84793c843476U, 0x3d6653173daec2ebU, 0xbdd02cc1be369ea9U, 0xbdcf80613d7d0bd0U,
  0x3e82a3abbe1b4a5dU, 0xbdc1acafbcd46ac2U, 0xbdbc9e4abddb1448U, 0x3d75a6203dc52c4fU,
  0xbcae658ebac17da9U, 0x3e9799cd3d9d49f4U, 0x3d5567603dfe7866U, 0xbe1fc0bf3e1946f2U,
  0xbe15fbd4be531a1fU, 0xbda90f613cfd8208U, 0xbd347a2a3d892dd8U, 0xbcdc628dbcbe7522U,
  0x3cd5a9323e2c9856U, 0xbe385e9a3e4725b6U, 0xbcd222b6be7c6581U, 0x3d761f4d3cd93613U,
  0x3e04187dbdb4e026U, 0x3cc61a053d8a3346U, 0xbdb70b2c3e0acc6dU, 0x3cdfa11fbe09f9d5U,
  0x3d88ddd63c0000a5U, 0xbd0c7b50bbc4374fU, 0x3d4987f3be0c80ccU, 0x3c21f8273d414d35U,
  0xbeb7e0cebe3de9edU, 0x3e0c481fbe507c22U, 0xbcd02dfbbe73fef1U, 0x3d34fa743da941e1U,
  0x3e43cfb13c20c187U, 0x3cb2cc403c995322U, 0x3c8848fdbd04a096U, 0x3d3cd5703e006bb8U,
  0xbd8ad8d6be689563U, 0xbd3869533ddfd5a8U, 0x3d7129e6bdef7349U, 0x3e8bacb6bc708b54U,
  0x3e812032bce990f4U, 0xbc15cd71bc714167U, 0xbebe8f623db74ed4U, 0xbe40696c3e28433cU,
  0xbeb1865d3e311494U, 0x3de178633e552406U, 0xbd2c0e503e71fc86U, 0x3e9ef2943dce99f8U,
  0xbeaa258fbeb75806U, 0x3e7a3a88bda205dbU, 0xbe6437cabe19baafU, 0xbeb7b3df3d4dc79fU,
  0x3e6e8f443e849e2eU, 0xbe8679dcbce6b32aU, 0x3e643a663e49fbf0U, 0x3ede353fbe92e27bU,
  0x3d6548553eced4a9U, 0xbe9c85fbbea5f92bU, 0x3b235936be47668dU, 0x3d9946ba3d92c6d5U,
  0x3df42d4fbe85a5edU, 0xbd7ab68abe8c5a79U, 0x3e448ffa3da23f52U, 0xbdef172abd586659U,
  0x3e9af7b13cb537e4U, 0xbe126e6ebdd4de75U, 0xbdbb1fe43dd63e15U, 0xbed3bb1f3d1f0815U,
  0xbec3da533e80895bU, 0x3ce85dcebe4e6157U, 0xbe832acebe4d685fU, 0x3dc15c0f3dbbbcdeU,
  0xbe308c52be83fa68U, 0xbd906c6bbda7884bU, 0x3db033f63ba58645U, 0xbc8a77ffbd39663dU,
  0x3e6072f13e2cae15U, 0xbe03edfcbb8ca352U, 0xbe800d323cd37fffU, 0x3e1ab394be6cd550U,
  0x3cf1fbb63d623481U, 0xbe66e30a3df92542U, 0x3d81d4d83e93cfd8U, 0x3db5fe923d5382b8U,
  0x3dac63b7bd9b2d93U, 0xbc47c02b3ca4eabbU, 0xbeafc7e33ea6674eU, 0xbe774bdabd9f02ecU,
  0xbe69d7413e8a7660U, 0xbd1ce0233e3d5e29U, 0xbe76fcc3be4c7411U, 0x3e432fc5be25a676U,
  0xbd49bb103e989a8cU, 0x3e0fc5393e8821a3U, 0xbe8fc089be30fb96U, 0x3d1e30d63e82fff9U,
  0x3e3609113d1044bcU, 0x3dea12983c9383b3U, 0xbdd17b113e034e4bU, 0x3df59935bc323918U,
  0x3d192a7d3e47b92bU, 0xbe32dcc83da4c69cU, 0x3da45386bb9de124U, 0xbd3845c2bdc224abU,
  0xbdf0a826bd8579dfU, 0x3d8f0611be35dd31U, 0x3e62a7ad3daf92d1U, 0xbbb89d023d1640a4U,
  0xbdc80901be4048d1U, 0x3dacbc633daca921U, 0x3d0f4a273c9f6f39U, 0x3dbfd89e3dd9a0fdU,
  0xbe1e7b293b2b1c0fU, 0xbdb6f554bd6c3df3U, 0x3d2dca683ddf06fcU, 0xbbcdbc07bdec030eU,
  0xbde87c7e3c8145a1U, 0xbe5c496fbd428a36U, 0xbb8e1bca3db2ea90U, 0xbe1e2eb3bdfe98b7U,
  0x3dd65474be0767e7U, 0x3d6a6252bba6d7a6U, 0xbe01eb203cdc5e6bU, 0x3d57fa78bdfd34c8U,
  0x3e15d61dbdee1560U, 0xbe5cdb183cdea358U, 0xbdd79862be054035U, 0x3e189756bc206b72U,
  0x3e076a653dbf2b43U, 0xbd886fd03c28fba7U, 0x3e74c7a13a9f6702U, 0x3cadb0c83e589eccU,
  0xbd0ef583be0d9063U, 0x3dc08cd6bd4e7a70U, 0x3c9a16a23c861156U, 0x3dd997493cdf0606U,
  0x3d8a21883e4edf5fU, 0x3c0985d03cd6d49fU, 0xbe029dc43dd0e274U, 0x3dd9d5f2bc632f28U,
  0xbde3ae00be409e50U, 0x3de6d1163e46ba42U, 0xbe26a2cabdc85f5eU, 0xbd28c65bbc067600U,
  0xbd446ffbbe2182fbU, 0x3df5404cbd79e744U, 0x3e1a161a3cc4797dU, 0xbc9ee4913e026622U,
  0xbdf5fb2abc7bf2eaU, 0x3c1a82c73d59250eU, 0xbe56ad8abf8bdd14U, 0xbe8c1dc6bf8f9e13U,
  0xbf1c8c24bdf86669U, 0xbd83019ebfc58cd7U, 0x3f15cae4be1da8e2U, 0xbec4a8e0bf244cfeU,
  0xbfc4676dbedf511cU, 0xbe59600bbf667badU, 0xbf6390e23e238312U, 0xbebe8863bf708d56U,
  0x3e428a17bea0090cU, 0xbe542c383fd47ffcU, 0x3bf3f1d13a86f51bU, 0xbdf77aabbe307e33U,
  0xbe3982703d9cf2bfU, 0xbe1e72a2be1ba57fU, 0xbe425deebe70d165U, 0xbe14e680be5d580fU,
  0x3e25825c3e7543c8U, 0xbe476f093e5b8e3dU, 0xbe7021153e5304ddU, 0xbe5fac84bd3ac608U,
  0x3cedb9a23c1a4ba5U, 0xbd2bdca93e595229U, 0xbd8439263d5af79fU, 0x3e889ce73c8e3ae7U,
  0xbe8318da3d685448U, 0x3de44a51bda82c1aU, 0x3e82e780bdc32fb5U, 0x3e5e0d873e8653aeU,
  0x3e55a4f3be2c76f7U, 0xbdbc4ad4bdb5c112U, 0x3e3dcf70be441af8U, 0xbe7dcd7ebe5b7af4U,
  0xbe7de8fe3e487158U, 0x3e35b5d0bdf19631U, 0xbe2a93b13df510d4U, 0x3e180752be09516dU,
  0xbe22e5f3be0ba9c4U, 0x3ddf6ca13c728cd2U, 0xbd19c000be8cbeaeU, 0xbc233189bd85c804U,
  0xbe9299b9bd4bb972U, 0x3e23921bbe41aa6eU, 0xbe32d92c3e087a6aU, 0x3e37e7453e55cbb9U,
  0x3e6d5c04be931b0dU, 0x3e887827bdb936e7U, 0x3bcd75d03e3a3681U, 0xbe65be1abe380090U,
  0x3dcaadfebb6b2a13U, 0x3dee1964be8a0cfaU, 0x3d1bc2b53df56631U, 0x3d489c59bba56ef4U,
  0x3e24bf9cbda601fdU, 0xbe18a1303da14763U, 0x3e15be40be15a256U, 0x3e42cf4d3e487d2dU,
  0x3ddd1aebbe4ad9d3U, 0xbdedd3173e37488fU, 0xbd135e1fbe4815d8U, 0xbe3f85e43df65610U,
  0x3d0d7d7c3dd7e11eU, 0xbe85e5c63e2c20dcU, 0x3dd06a973e5cc24bU, 0xbe45bd63bd289b2cU,
  0x3df1fe3bbe5d2afdU, 0x3e81a7a53e50bd12U, 0x3e0de070be8aacc8U, 0x3e466aa0bde9e39fU,
  0xbd8fa1d23e86c188U, 0x3d9f7f14bd23011dU, 0xbe2e9a28be893025U, 0xbe117066be55b42fU,
  0xbe74b27eU,
};


ai_buffer g_model_data_map_activations[AI_MODEL_DATA_ACTIVATIONS_COUNT] = {
  AI_BUFFER_INIT(AI_FLAG_NONE,  AI_BUFFER_FORMAT_U8,
    AI_BUFFER_SHAPE_INIT(AI_SHAPE_BCWH, 4, 1, 12624, 1, 1),
    12624, NULL, NULL),    /* heap_overlay_pool */
  };
ai_buffer g_model_data_map_weights[AI_MODEL_DATA_WEIGHTS_COUNT] = {
  AI_BUFFER_INIT(AI_FLAG_NONE,  AI_BUFFER_FORMAT_U8,
    AI_BUFFER_SHAPE_INIT(AI_SHAPE_BCWH, 4, 1, 13604, 1, 1),
    13604, NULL, s_model_model_weights_array_u64),   /* model_weights_array */
  };


/*!
 * @brief Get network activations buffer initialized struct.
 * @ingroup model_data
 * @param[in] ptr a pointer to the activations array storage area
 * @return an ai_buffer initialized struct
 */
AI_DEPRECATED
AI_API_ENTRY
ai_buffer ai_model_data_activations_buffer_get(const ai_handle ptr)
{
  ai_buffer buf = AI_BUFFER_INIT(
    AI_FLAG_NONE, AI_BUFFER_FORMAT_U8,
    AI_BUFFER_SHAPE_INIT(AI_SHAPE_BCWH, 4, 1, AI_MODEL_DATA_ACTIVATIONS_SIZE, 1, AI_MODEL_DATA_ACTIVATIONS_COUNT),
    AI_MODEL_DATA_ACTIVATIONS_SIZE,
    NULL, ptr);
  return buf;
}

/*!
 * @brief Get network weights buffer initialized struct.
 * @ingroup model_data
 * @param[in] ptr a pointer to the weights array storage area
 * @return an ai_buffer initialized struct
 */
AI_DEPRECATED
AI_API_ENTRY
ai_buffer ai_model_data_weights_buffer_get(const ai_handle ptr)
{
  ai_buffer buf = AI_BUFFER_INIT(
    AI_FLAG_NONE, AI_BUFFER_FORMAT_U8|AI_BUFFER_FMT_FLAG_CONST,
    AI_BUFFER_SHAPE_INIT(AI_SHAPE_BCWH, 4, 1, AI_MODEL_DATA_WEIGHTS_SIZE, 1, AI_MODEL_DATA_WEIGHTS_COUNT),
    AI_MODEL_DATA_WEIGHTS_SIZE,
    NULL, ptr);
  return buf;
}


/*!
 * @brief Get network weights array pointer as a handle ptr.
 * @ingroup model_data
 * @return a ai_handle pointer to the weights array
 */
AI_DEPRECATED
AI_API_ENTRY
ai_handle ai_model_data_weights_get(void)
{
  static const ai_u8* const s_model_weights_table[1 + 2] = {
    AI_PTR(AI_MAGIC_MARKER),
    AI_PTR(s_model_model_weights_array_u64),
    AI_PTR(AI_MAGIC_MARKER)
  };

  return AI_HANDLE_PTR(s_model_weights_table);

}


/*!
 * @brief Get network params configuration data structure.
 * @ingroup model_data
 * @return true if a valid configuration is present, false otherwise
 */
AI_API_ENTRY
ai_bool ai_model_data_params_get(ai_network_params* params)
{
  if (!params) return false;
  
  const ai_buffer_array map_activations = 
    AI_BUFFER_ARRAY_OBJ_INIT(AI_FLAG_NONE, AI_MODEL_DATA_ACTIVATIONS_COUNT, g_model_data_map_activations);
  
  const ai_buffer_array map_weights = 
    AI_BUFFER_ARRAY_OBJ_INIT(AI_FLAG_NONE, AI_MODEL_DATA_WEIGHTS_COUNT, g_model_data_map_weights);

  return ai_platform_bind_network_params(params, &map_weights, &map_activations);
}


AI_API_DECLARE_END
