
/**
  ******************************************************************************
  * @file    model_data.c
  * @author  AST Embedded Analytics Research Platform
  * @date    Tue Jan 17 11:59:48 2023
  * @brief   AI Tool Automatic Code Generator for Embedded NN computing
  ******************************************************************************
  * @attention
  *
  * Copyright (c) 2021 STMicroelectronics.
  * All rights reserved.
  *
  * This software is licensed under terms that can be found in the LICENSE file
  * in the root directory of this software component.
  * If no LICENSE file comes with this software, it is provided AS-IS.
  ******************************************************************************
  */
#include "model_data.h"
#include "ai_platform_interface.h"

AI_API_DECLARE_BEGIN

AI_ALIGNED(32)
const ai_u64 s_model_model_weights_array_u64[ 3141 ] = {
  0xbf1c5e483ed79302U, 0xbf03d4d8bea57a34U, 0x3e89bdb63e906905U, 0x3f1f38b3bf61e9c3U,
  0xbe2e0e423f3895beU, 0xbf4012aa3fa21cc1U, 0x3f817426bf1f9554U, 0x3f52b7e9beed19c2U,
  0xbde94473bf949eabU, 0xbf9324abbf06dd6fU, 0xbee6b0873e6013f5U, 0xbfad41aa3fc0b1a9U,
  0xbf7ed057bed491e1U, 0x3c8eb153bed978ebU, 0xbefb3749bd2bd80eU, 0x3f63f0d5bf45d106U,
  0xbf759124bef77e74U, 0x3f316339bee271dcU, 0x3f8f20723edec949U, 0xbe90f67fbe228ba6U,
  0xbea9e4803ed45e51U, 0x3fa9a781bf63caeeU, 0xbfc3f296bf617bb5U, 0x3f61cb70bf080be0U,
  0x3ecd8f14bf138ad7U, 0xbeed9144be83dc2eU, 0x3f8600263eaffc62U, 0xbdcb9b573e43fcb2U,
  0xbf8ab6eebe717ec7U, 0xbe91d9523efc5d5dU, 0x3e4fb3c7be8af660U, 0xbf21e647be17d9c8U,
  0xbe8b28b23f4283cdU, 0xbf728551bf1e7f79U, 0x3c18d3a1bf80cabaU, 0xbdf22dc63ec5e5d7U,
  0xbf1139033de9b09eU, 0x3f9e0a90bdae3d44U, 0xbe7a2e533d1f3d36U, 0xbf1573babf152131U,
  0x3f3031fb3edb8882U, 0xbe3b2dae3eb5bc83U, 0xbf934d033e8ac33cU, 0xbeeb17d53f2801b8U,
  0x3e8f75c93e46462aU, 0xbcdb5e1f3e9a5e39U, 0x3f7c74203f65a341U, 0x3e1595a3bf398486U,
  0xbfb14551bf143642U, 0xbf766d05bf871773U, 0xbf8ee1153e86cff2U, 0x3f356701bf692923U,
  0x3f25fc473f8dd687U, 0x3f4983b43ec97bf2U, 0x3ee52a33bf1d6f50U, 0x3c5d01743f0c9898U,
  0xbf1a04e53edfeef3U, 0xbccabc4cbf0b6db9U, 0xbed074923dab1ad3U, 0x3e6dd3163f738cbdU,
  0xbeb677d6bfa1f3e1U, 0xbf9429c03e61dec3U, 0x3e49b7c1bf35f67bU, 0xbf0fe8c03f7bdadeU,
  0x3ef37b24bf3d3852U, 0xbf2fbbd3bf81235bU, 0xbf68f5d93ef7dd31U, 0xbf95a862bd44f2ecU,
  0xbf6f3aa73f82be82U, 0xbec4dca8bdfb446bU, 0xbe983b3d3f706cd5U, 0x3c396093be7aaf62U,
  0xbf9e35243f7e50a8U, 0xbf9ac05f3f315933U, 0x3f648dd4bf2936a5U, 0xbf068c62bf93d691U,
  0x3f1a5bd13f65730aU, 0xbf203cd7be5b8616U, 0x3f994623bf9b5f3cU, 0xbf2607733f0db4a9U,
  0x3f998ec93f844c74U, 0x3f0ac788beb6dcb4U, 0xbf41fe173f60eeeeU, 0x3f86c1a03dd94aefU,
  0x3f9fb0cabf1af009U, 0x3fa138f13ed9ef37U, 0xbfd670dd3e8304c7U, 0xbfa2bf923fac3834U,
  0xbecd2a863f816047U, 0x3fa7d0493ec059f4U, 0x3f188886bf27a869U, 0x3f5e34e53e244874U,
  0xbfb47e913f0814b0U, 0x3e2c91603e81df23U, 0xbf0a160d3d16b251U, 0x3fb748043e263329U,
  0x3d242ba53f0c77ceU, 0xbf394294be54a421U, 0xbf27d5283cb026d8U, 0x3f8b59363f5f78deU,
  0xbecdf37e3f902b48U, 0xbefbc151be903e47U, 0x3fc18bbabfd37a08U, 0xbf28dec7bec6aa7bU,
  0xbf361f2c3cbe2952U, 0x3e6ad25f3ee81da1U, 0x3f79e18fbfd18ed5U, 0x3ea303d63dc6cd81U,
  0xbecc34693eadd183U, 0x3f9bba733ec8e635U, 0xbe6185a53f11649aU, 0x3f52bba6be8dab2cU,
  0xbed2f221bf2080c8U, 0x3f9709d63dda50deU, 0x3f9d5c913e9d5464U, 0xbf6f3045bf75d6bdU,
  0xbec9febb3ee5a437U, 0x3f0e23913f204541U, 0x3e32837ebf591cc0U, 0x3e8f78e23e30eb9dU,
  0x3e04a165bf5cbc82U, 0x3f67b583bf076571U, 0xbf7426debf5e9036U, 0x3f7ecdfa3ea4035eU,
  0x3f4c691cbf794879U, 0xbf09c490be9f4b14U, 0xbe16dd763e96aa12U, 0x3e4bc902bf7220b4U,
  0x3b651efdbc724e18U, 0x3fa60360bea7bd87U, 0xbda30ec43db5f51cU, 0x3de3e248bf13e8cdU,
  0x3e4ee7e6bf296e9bU, 0x3ce45527bf1cc992U, 0x3f97211bbf145037U, 0xbf014ab9bf3533ccU,
  0x3f26eb353eb207ceU, 0x3f884d663f10a5b9U, 0x3f87b0283f7363d6U, 0x3c071591bf1c4db7U,
  0x3f3807b4bed2bf40U, 0xbf4fc9a03f0e2020U, 0xbf9218e33e0476b4U, 0x3f2e23e9bf4f7ca3U,
  0xbe517a623f7e890eU, 0x3f88510f3eca3c64U, 0xbe6ae0d63f2e3883U, 0xbeafb7e93f6759ebU,
  0xbe41b8453f283f69U, 0x3e8a71b9be87e045U, 0x3f85a9e5be8fccbbU, 0x3eb64e9f3f92ff89U,
  0xbf4690083f09f616U, 0x3e9e730dbeabad48U, 0x3e848837bea9f713U, 0xbfae103c3e07e971U,
  0xbe0ea38f3e9f69ddU, 0xbf381d303f0c0f4dU, 0x3e8b45b73f494229U, 0x3f681993be8b00f6U,
  0xbf21ead53e9fab80U, 0xbeb10faa3e41bbf0U, 0xbf4b61c03f94afa0U, 0xbf3f3d5fbee72323U,
  0xbec7d920be7f5c7fU, 0xbf08259fbf6fd6e1U, 0xbf1b9d8b3e9bc5c1U, 0x3c85e94fbea34360U,
  0xbeb248db3f88c43eU, 0x3f444815bfba2ec9U, 0xbebcd94a3f71f23dU, 0xbf9449723e4c8148U,
  0x3fb453473f83de45U, 0x3f544aaf3dd01eebU, 0x3f64244dbea75d58U, 0xbf34a2a2bf7b0e54U,
  0xbd33854e3f52a8d5U, 0xbf831f5e3f42524fU, 0x3f4b2dee3fa48920U, 0xbf664148bebf0605U,
  0xbee7c04c3eb7e4e5U, 0x3c9b292e3f1458eeU, 0x3f57abc5be3bedafU, 0xbde726e43de31069U,
  0xbeef749e3f3fad04U, 0xbf4bfa2ebecfafafU, 0x3f4be2a0be8dd3c3U, 0x3f583d6f3fb7ef51U,
  0x3e97a973bf2ab2b3U, 0xbf3c8515bf4f6e67U, 0xbf1095a2be9dabafU, 0xbf4ccabfbeb20bc5U,
  0x3df1a2e3bf362152U, 0x3a2c82673f18e31bU, 0x3e00f66e3f5ebc6aU, 0xbf7d921f3e85175eU,
  0x3f5ed50cbe1aa038U, 0xbf4918093e8456f3U, 0xbf14d915bf780d81U, 0xbf1c90393f478a88U,
  0x3f3629dc3f332011U, 0x3bef1ef23eac932bU, 0x3f446be6bda78e20U, 0xbda85d963ebf4433U,
  0x3e77759e3d486195U, 0xbf278a663e8ae640U, 0x3f6ce07abdce9ef4U, 0x3e9a81d0be19814cU,
  0xbec120f6bdc5c513U, 0x3e426d14be4de892U, 0x3eae71b73f005c85U, 0xbee4125bbf54757fU,
  0x3fa548313ee7fc1cU, 0xbe0a4aefbd1ddf29U, 0x3f2c5659bee3223aU, 0x3f8ac19cbefc8b37U,
  0x3ea2aca53e360dd9U, 0x3e4776923e51625bU, 0x3ec39c343e8cc577U, 0x3f2555abbf132976U,
  0x3d97734c3e134d41U, 0x3ed88849bef21ae9U, 0x3f4d83d63ef61b07U, 0x3f163f8fbee639daU,
  0x3f070bd03df931c2U, 0x3f3b55663e6be0bdU, 0x3db5a951bee83b81U, 0x3f0a8ac03ecf952eU,
  0x3ee4329c3de709beU, 0xbe190ce7bef6fd0eU, 0x3f0617c63c4f44abU, 0xbe19a0273cda537eU,
  0xbeab40223e0060d4U, 0x3ea209793f32c6e5U, 0xbce92a913ec0b6ddU, 0xbf367cffbe836c0bU,
  0xbf310c6d3e29c30fU, 0xbe5583303eb86408U, 0x3ea7003abf028667U, 0xbf20c05ebdc186bdU,
  0x3ef23a0a3ea0148cU, 0x3e684d463ef4c7c9U, 0xbe75cb723d77a65eU, 0x3e99e47c3e8d85a8U,
  0x3ec2acfe3faadf39U, 0x3ca572353f61d473U, 0x3f026d0d3d6dd2c3U, 0xbdf6ecf83f040578U,
  0x3eae4574bf6ec1fdU, 0xbf3a6dc2beb80a73U, 0xbecbf087bf22b1a0U, 0x3ea60d903e08669bU,
  0xbf10df773e59471cU, 0xbecc6ca33f15cea6U, 0xbfb2c5eebedb2402U, 0xbe77ac0c3f479173U,
  0x3fbcd7b43d35815bU, 0x3f4de931beec2757U, 0x3d4816223f1dc32fU, 0x3e119123bec6c376U,
  0x3eac93463c0a99c0U, 0xbfb305613f3a28a6U, 0x3ec017853f0e9a4eU, 0xbf881034bf1dbd10U,
  0xbfb8d20b3e84b006U, 0x3f90ee81bf6d3ec6U, 0x3f67ee503f3835fcU, 0xbf9f21823f973666U,
  0xbd8e1b02bf07c8afU, 0x3f1c42a2bf4d951eU, 0xbe28c5d9bdb7d398U, 0x3dd18923bf4dc002U,
  0xbf921e5fbf409a1aU, 0x3f83c5f9bf291007U, 0x3fb7fb603e55e4c4U, 0x3e78ed563fd22111U,
  0x3fa78da4be0a8766U, 0xbf149a8fbe045416U, 0xbf942d60bf1d8f6bU, 0x3faf16f13f02c85dU,
  0xbf7b1b873ef34ea1U, 0xbe6e16893fb0e56aU, 0x3ef27a2ebf61112dU, 0xbe87584abfa17366U,
  0xbf8db4abbe563b97U, 0x3fa0688d3fb7bd7eU, 0xbf53d8573e68c1e2U, 0xbe4777103dabf2a2U,
  0x3f8951803ef9d29cU, 0x3e267d153f736439U, 0xbe1d9d44bebb2ba5U, 0xbf3fc1563f735015U,
  0x3ec863e53e444348U, 0xbf5f0faabf50908dU, 0xbf3d6464bf1936c2U, 0x3ef5427ebf25215bU,
  0x3f490bb73e636dccU, 0xbd8fddd1bee8aa38U, 0xbf22eb9fbf00a45eU, 0xbed11e44bf525e95U,
  0xbf0879503f2be5fbU, 0x3f187ac2bf23a0f4U, 0xbf0dd70cbf5e04adU, 0x3ec0ea4b3cae57fdU,
  0xbf41034d3f4c03e1U, 0xbe8ef723bc503eddU, 0xbf99ae563f85f388U, 0x3d854f633ef8c667U,
  0xbb54370ebd6f8896U, 0x3f0d458bbf6625fbU, 0xbf23fd0abf6e8ba1U, 0xbe2154b63e8c5cdeU,
  0xbf1d97ac3f8eb824U, 0xbe914c15bf09148dU, 0x3e80e5bcbe5785d7U, 0xbf83fc6fbde350dcU,
  0xbecd461d3e2aed23U, 0xbf141fb53e9c7975U, 0xbf9b53adbe8ec46dU, 0x3d28af36befb33e6U,
  0x3f42371c3ece4091U, 0xbee1cb533efbafd8U, 0x3f7643fd3c44c1e5U, 0x3ebd2ac83e63b01fU,
  0x3f862bc74042345dU, 0xc012da053fc76dd3U, 0xc067f19e3f5eb668U, 0xbf29c62cbfd114acU,
  0xbf9f3defc008e794U, 0x40368ec6bd184456U, 0x3da5a9293e786bd9U, 0xbe2d4bcc3cfd2ddbU,
  0xbdd5d5e73bfb7aa9U, 0xbe08f66cbde0475cU, 0x3debf3afbe2d698cU, 0x3e1ba4043c16413cU,
  0x3eb6cbc93e03eba1U, 0x3e440edebda60f77U, 0x3e2bbc0dbe5aac76U, 0x3b4e208fbe94f57eU,
  0xbe9e1ecbbe9236cbU, 0xbd5ceeb13e495a98U, 0x3b39ebd4bd2e3e94U, 0xbe2fc4bd3e491633U,
  0x3e26a64e3e1ec9b4U, 0x3e4d41283d6e5c52U, 0xbe3e5c13be630299U, 0x3c8976bfbdcf81d9U,
  0xbeb807353eb3dbf3U, 0x3e8e39723ea7f16cU, 0x3e01424abe0b9dc3U, 0xbe9dfee7bdcdc803U,
  0x3e8b2bc43dec47dcU, 0xbe873a35bde22337U, 0x3cfa23cebd53232fU, 0xbed6a8983e227208U,
  0x3e0962c5be3dc7dcU, 0x3e20664fbe8aff8aU, 0xba2b8c213dd0de88U, 0xbcaea65dbe884f67U,
  0xbe83b877be4ec412U, 0xbece20803dae3860U, 0xbdac051b3d681c9dU, 0x3c55f0e4bdf1b0a4U,
  0x3e0da98ebdfd25caU, 0x3e4b521a3e8df7efU, 0xbecd47b6bd8c3800U, 0x3ebe6208be759364U,
  0xbc843c17be6ec036U, 0xbdb2ea443cff8759U, 0xbd296d303ec9e47bU, 0x3ea8aacdbd77acdeU,
  0xbc0e84e5bdefca31U, 0x3e90f4103e850b2fU, 0xbd476cd33e44c8d6U, 0x3e57e86c3de7b68fU,
  0xbea7e3febe79f18eU, 0xbe8c60fabea20f55U, 0xbcaf4db3bea751acU, 0xbe71ae2b3e66c255U,
  0xbd4903a13e32bfccU, 0xba8a19523e335f1eU, 0xbd931c893dfd4e34U, 0xbe20b793bda24527U,
  0x3e8c7b4bbe00d83fU, 0x3e5156d2be9c7318U, 0x3e5ea596be8834eaU, 0x3d71362fbd5d573fU,
  0xbe19ef723d87ea3fU, 0x3e42f58c3e16fb83U, 0xbe949bacbd0a1bcdU, 0xbd2041a13e2cc898U,
  0xbe6cc019beaa6d8fU, 0xbc32e1febe4f90adU, 0x3de5a57c3e3ab15aU, 0x3da4cdcebdcfcb58U,
  0x3aba31333e6b0a76U, 0x3e4b132dbd92ed80U, 0xbe818e663cca88ebU, 0x3ec4204a3e89bdabU,
  0xbe3f88e2bde9b316U, 0x3e428c1e3e44d552U, 0xbd589ad0bda51c2aU, 0xbe2a64853e09e488U,
  0xbe7f471bbeada29fU, 0xbe0858c5bd6d97d1U, 0xbd8a987cbc2f8fc8U, 0x3cd56bf7bdc2e57bU,
  0xbc9d49923dc58fbaU, 0xbe714688bc90f850U, 0xbdb7cb373caf4837U, 0x3d548ee93dbeaf64U,
  0xbd0992e43e23aeb5U, 0xbe801aaabeb460caU, 0xbe29628e3e89fd6dU, 0xbea266eb3e399406U,
  0x3e20e93ebea9ceaeU, 0x3eaa57f9be5bc9bbU, 0xbd11b7ec3eb5c5faU, 0x3e4a31963e315173U,
  0xbe3af2393d91d9cdU, 0xbe28efc33e093d58U, 0x3ebbdf10be5286a9U, 0xbdd023063e701192U,
  0xbd47c9ff3e44c843U, 0xbda0e82cbe541689U, 0x3e3f22833e69e1d0U, 0xbe514f193dad232bU,
  0xbde6c6b13e16802dU, 0xbd877f4fbe368a35U, 0x3e1324b03dd67c39U, 0xbdf8bf6b3cadb065U,
  0x3b4327e63d7f790eU, 0x3cf221d6bdf9af8fU, 0x3d946b1f3e6175f2U, 0xbe4f9acdbe389b93U,
  0x3e3ef0ab3e85c3faU, 0xbe3f5024bebd8123U, 0x3de6bf3ebda2d3cbU, 0x3d8e5393be12a722U,
  0x3e346bbdbe149ce6U, 0xbe133307bd00bd16U, 0xbd56ca80bd65fe28U, 0x3e46a34b3d1b5fc0U,
  0x3cb83f41be550321U, 0x3d9a77a0bd99872cU, 0x3e25c6883dfb25f7U, 0x3db419923dd7e916U,
  0x3e2a5990bce54fd5U, 0x3e29d05a3d1f41a5U, 0x3d6e35e63cdc1421U, 0x3d0c491b3db38290U,
  0xbc451461be3871d1U, 0x3e0c9e9a3e895088U, 0x3e2b5b2abde524dfU, 0xbc1d0451bdf657a2U,
  0x3dedd3913d7cedd1U, 0x3e5a573a3e2716f8U, 0xbd2ca8ecbe1449c4U, 0x3de32485bdebdddfU,
  0x3e3d34ee3ce456d8U, 0xbdbc3587bc6e62d1U, 0xbd6d76fa3dd8a521U, 0x3cb13ccbbd6198f9U,
  0xbb0be2a1bcfe9fbbU, 0xbdac6154be1256abU, 0xbd795c973ce00036U, 0x3aacef173e33aea6U,
  0xbe08d7783d9560eaU, 0x3e197bbf3c21700aU, 0xbe22df2dbdc4e042U, 0xbb1a88d63e3889fcU,
  0xbd79ad2f3c91bb52U, 0x3e4f8707bdc78480U, 0x3bf9fc9d3de512b7U, 0xbca3ea4d3e172853U,
  0x3b8867c1bd98021dU, 0xbe3ad7093e56e7a1U, 0x3d97c54a3e0321fdU, 0x3e4757003d8ab3bcU,
  0x3e0f14183dd74ebbU, 0x3dfc5298be01c003U, 0x3dceca1fbe629ae7U, 0x38bcd1273e2eae36U,
  0xbbe7e12a3d29a19cU, 0x3ae096773df90b23U, 0x3e3388fabc56c56fU, 0x3d0e9a793e7ebf06U,
  0xbd26ae04bdae5399U, 0x3d663406bbd3cc69U, 0x3e6c1b55bdaa399bU, 0x3d3fe752bdfcad86U,
  0x3e8c2c72bd6245f3U, 0x3df6b2b9bce10015U, 0xbe0dc9d73daecba5U, 0xbc3aa27cbcd77e72U,
  0xbb27b58b3e008ebfU, 0xbe3890003dbcac51U, 0x3e81bc623b8e60d4U, 0x3e88076c3ba9d496U,
  0xbe69b1fa3e84300bU, 0x3e495d843e80ad18U, 0x3e09fe7f3e34ba8cU, 0xbb1a049b3eaf341dU,
  0x3dc6d4583ea815f5U, 0xbd98e4f93e4f3789U, 0x3cb5aab5bd38fafbU, 0xbe3f0244bea3ac42U,
  0xbe2c54703e3a4e2dU, 0xbdeb8f593dc62638U, 0xbde674cd3ea90f3cU, 0xbe4aa336be62f5d9U,
  0x3e1b082cbe301eedU, 0x3e35b2f63d9c98fcU, 0xbe304d523e3f2564U, 0xbdf88c8f3e5f3fe6U,
  0x3e82c47dbe86873eU, 0x3d9b057f3eb800efU, 0xbea6ad1a3e036bb1U, 0xbe6a47c13e92547dU,
  0x3be403e1bd6d987bU, 0x3d3ce497bc509944U, 0x3e43fc5dbdc19ff2U, 0x3e5fbac93dd2f9e0U,
  0x3da4fa9abda277b5U, 0x3db1663cbe85ea23U, 0x3d6b8cebbdfb8becU, 0x3e0696063e9a2d43U,
  0xbe069c5dbe577135U, 0xbe6335a73eb1635fU, 0xbe041c053e91b472U, 0x3dae0c323e1196adU,
  0x3e5f8523be140558U, 0xbdf10ce53d317208U, 0xbd65e037be9c5fd2U, 0x3de1e766be5b7664U,
  0xbde933a33e4babb9U, 0x3e957ee73de74f7dU, 0x3e9f2bf13ca89cd6U, 0xbe69fe4ebcb15435U,
  0x3d4dc07fbde2b752U, 0xbd94fbacbd4ef521U, 0xbdac6cf63e388d78U, 0xbea409b5bc6d1ad2U,
  0xbe7c35fb3e21dea4U, 0x3e74f6a5bdb2f30cU, 0x3e68aa583de8da4cU, 0xbd398e5fbe9e1206U,
  0xbdcdc0513eb4635dU, 0xbe6eda51be01b21dU, 0x3dcb113abe1e85f9U, 0xbc3bb2463c964190U,
  0x3dc154e23e2f0b19U, 0x3dd3a4cdbdfc2116U, 0x3d33cdd83e26bf31U, 0x3bf31a2cbe041c21U,
  0x3e579eb9bcc44649U, 0x3d9da3e33df9fa22U, 0x3b3e4ef93db6f4f2U, 0x3e425ce3bdff6d30U,
  0x3df3d5ffbc9ee1abU, 0xbe28bf753db8f1e3U, 0x3cc89fe3be9b8de9U, 0xbe0938243ce322e4U,
  0x3d6e0343bd016ef7U, 0xbe372891bdd53845U, 0x3e81d5db3e22b555U, 0x3d2297b7bdfa5f5dU,
  0xbd6e0c3b3dc861faU, 0x3e0516903e77728fU, 0x3e547874bd94ee0eU, 0xbe4b40483e48af38U,
  0x3e82eca0be8b9b91U, 0x3b1b963d3e52ecebU, 0x3d97cf6c3e12a830U, 0x3e38df32bbe6c8c1U,
  0xbd4b0c143e85ba77U, 0xbe2fc2a7bd8e7decU, 0xbe191b943e398c24U, 0xbdc4907dbe4c9905U,
  0xbd49e27bbe18a94eU, 0xbe0e294c3db9aca5U, 0x3e87ddd13b0c965cU, 0xbd64635cbe1ec33bU,
  0xbdfe3f1d3e75e904U, 0xbd884366bdf0e1bfU, 0x3cacb751be69014bU, 0xbd96bb333d8bc656U,
  0xbd751c9a3da88386U, 0xbdf5ebd43e7015baU, 0x3d9d33b4be20bae9U, 0x3dfc7356bdae2d78U,
  0xbe7ce87ebd962825U, 0x3d511a7cbdcc5c97U, 0x3b26b639be1aa923U, 0xbbdfebd33e01fb7aU,
  0x3e10893d3e1b2900U, 0x3df6181f3e662ef0U, 0x3cdb2218be817e10U, 0x3e534c373e32f22dU,
  0x3e69e2ccbde31af6U, 0x3d083935bc9900b6U, 0xbe366803be200518U, 0x3e43a4443e1f60d4U,
  0x3e2557fdbe8d63f2U, 0xbe206252bdac4d3cU, 0xbd177fff3db63319U, 0x3e9049633e2b2cf1U,
  0xbdabefca3cff237bU, 0x3d50d033bd915f64U, 0x3cfc26d33e9da67bU, 0x3ddd1cdfbe8df42bU,
  0xbda7b8c7bd4616ccU, 0xb990f4663e76df85U, 0x3d0f62cebe229579U, 0x3e34b0bb3dff2a69U,
  0xbe240f8c3e64ad84U, 0x3d251a563d99166eU, 0x3d996563be23f659U, 0x3dc26557be3ebb7aU,
  0x3ddf62bcbd87aa2fU, 0xbc68fc793e099e35U, 0x3ddcd830bd6f5f2bU, 0x3e8865e73e89d7d5U,
  0x3e96fff7be05ea7dU, 0xbe1d50af3e8c478cU, 0xbcd513babe2a6d06U, 0xbe03ee52be1afa11U,
  0xbe5bd1443dc9aa64U, 0xbccf1a37be41a1eeU, 0xbdb7c83c3ea10399U, 0x3d86268ebdc524abU,
  0xbdda76643d97cb38U, 0x3e28855f3dc2f92bU, 0xbe3904da3d777e28U, 0xbe37dfd9bdfeed2aU,
  0xbe222efbbe8fbffdU, 0x3e628a243e525c75U, 0x3e989b0cbe886808U, 0x3d26c6693eb763eeU,
  0x3e482ae63e53e5c8U, 0xbe2e9d3abe83f440U, 0x3e11e4503e5d7193U, 0x3eaafbca3e5bae8cU,
  0x3e2be7f43e90d7b7U, 0xbe9511ac3e5ce5ceU, 0x3e64d0f7bd9be865U, 0x3e8db1b6be208b2aU,
  0x3e18c6cf3c2e113fU, 0xbcd7198dbe924e5aU, 0x3d0e31f5bdea429bU, 0xbd761c033cb22700U,
  0xbe38ce15bde68765U, 0xbe582f543d3f5194U, 0x3e31f438bd9e40d7U, 0xbd85d17e3bf05b60U,
  0xbcc0a640bbbe5ba9U, 0x3e956ddc3dbcd608U, 0xbe7450773c722b6cU, 0xbe3fd9333c86a33bU,
  0xbc1fca2c3e6c211bU, 0xbe33ecad3db77e38U, 0xbe8a7ae7bdee50a8U, 0x3e31ecc43d499a94U,
  0x3e2634a03de69b41U, 0xbd320015bd71ebacU, 0xbe167c723e6ccb2bU, 0x3d6b07e83d3a5c02U,
  0x3db6be02be6fb11fU, 0x3e4904f5be3a8ef4U, 0x3dc6255a3dc8ea86U, 0x3d397af6bd5f51caU,
  0x3dfc36243e019dfcU, 0xbcceae30bb7c5c79U, 0x3cc08acdbd683820U, 0x3dd7746e3dc382f7U,
  0xbda9f2873ba6155bU, 0xbdf29168be490578U, 0x3d1f9ab5be6240b6U, 0xbe0e917abe954fb9U,
  0x3e2d6bb23e0ee538U, 0xbd5d71d73b849e8cU, 0x3e3e9bbfbdf156b1U, 0x3de55d5abe4b6672U,
  0xbe57a8aabd3be2d2U, 0xbce0fb87bd0315aaU, 0x3e6769febd4bfaa6U, 0xbde7ddfebe131fe2U,
  0x3e681a433e111f7dU, 0xbe0ca19c3e2963b6U, 0x3e431a9cbd324daeU, 0xbd8aca69bcb2a702U,
  0x3e297e973a085589U, 0xbd1805da3e841207U, 0xbe8581453baa1772U, 0x3d9626c63e64090fU,
  0xbe8f2aba3d2506d4U, 0xbcc107cb3cd56ca9U, 0x3db000fb3d81fdbfU, 0xbd0d91b53ddee813U,
  0x3c6ba8033df30e6cU, 0x3e0ed2aabe668aa8U, 0x3df4c818be045383U, 0x3e4c139a3e0e7c60U,
  0x3c8532ddbd75b8c7U, 0xbdffe1c73e576914U, 0xbce81cc1be057da8U, 0xbe0f88db3e8486c6U,
  0xbdfbe1b03e46a616U, 0xbe7eee063e7f91f4U, 0x3da6c7cb3eaf8a1aU, 0x3e97f9a13c938ecfU,
  0xbe88e1a03d68acb2U, 0xbe45193bbe7bd02dU, 0xbe0a545f3e5c05eaU, 0xbe28f5773e64287dU,
  0xbea0dc103e175413U, 0xbe6eec1ebdb83c7fU, 0x3e65647b3c47749dU, 0xbe0ffedabe9d9c47U,
  0x392c97dcbd493c91U, 0xbe5546663e56714cU, 0x3ea0831ebe082b5aU, 0xbdb999b33e4b69edU,
  0x3db3689f3d5880cfU, 0xbe8487423d7a1415U, 0x3e29d4edbde9247fU, 0x3ec59fd0be52341aU,
  0xbe40546bbd5d64d8U, 0x3d93207b3eaab1d2U, 0xbc81213bbe2d6f8bU, 0xbe0cdaff3e462e5dU,
  0xbe92db9cbef1f4a1U, 0x3e8b3c6f3e7ea963U, 0xbd8d31d8be98e420U, 0x3d3825c83e36d9deU,
  0xbd3657f6bcab1de1U, 0xbdc3cc3dbcc9c049U, 0xbec100a93de22225U, 0x3e07fc743e84fcd9U,
  0x3e9257c9bd1b57fcU, 0xbec668dfbe829a9aU, 0x3e3c26a6be7c677bU, 0x3da71e52bdd29621U,
  0x3dddb9243e35d904U, 0xbdb9bb2bbe044ddcU, 0xbe2fd3083d764034U, 0xbe0bba9e3d473367U,
  0xbdff9ae0be8f83f8U, 0xbddd4f74be9b11d1U, 0xbe1df32d3d5f12f0U, 0x3e438fd13e9efeb4U,
  0x3ed834edbe9e52c7U, 0xbd7be5e43e21a229U, 0xbe26e100be0ccf2aU, 0x39b2ccb4bcc14b92U,
  0xbdd84b0b3dd6c114U, 0xbcbc9cfc3e5fceb5U, 0x3d80cf13bcd3c0f8U, 0x3dcc6c203dd149e9U,
  0xbca8e1533dcdaa64U, 0xbe3675503dee3904U, 0x3e3703f93e77f3d1U, 0xbb1a65dfbe23e782U,
  0xbeaebd91bcd3bde0U, 0x3c3c1eb4be87e051U, 0x3e691ec33e05c6f5U, 0x3c69eaf1bde94434U,
  0x3e2ee3b0be82c44dU, 0x3dd33d953e83e3f1U, 0xbd84fdb23ea63ff4U, 0x3d432763bea7d1c5U,
  0x3e8e9c62be94478aU, 0xbb79f20dbe2b0823U, 0x3e4b0b64be444924U, 0x3e847a4cbd48f730U,
  0x3be86d5d3ea6194dU, 0xbdb7cc1c3e3a5c96U, 0xbe2acf753d3d9a93U, 0xbeb72d51be583b41U,
  0xbd8f98e23bfc19a8U, 0x3d9800d8beac1d68U, 0xba69ef803cfb53b1U, 0xbe2f25ba3d01eb5cU,
  0xbdb95fe9be95dfdcU, 0x3d17e2a5bd7177f4U, 0xbe254b9cbc120678U, 0x3dd0da95bea55eb5U,
  0x3dc117813d950b75U, 0xbe7ca656be9ad0a8U, 0x3eb07b7ebc19a60eU, 0xbd11fbb73e13ccebU,
  0x3daa805bbdf41769U, 0xbeb6f9f4be28fd9bU, 0xbe6c8b48be1ae279U, 0x3e9ee1273e1cf8ecU,
  0x3e7bafe4bd33f264U, 0xbd8d28afbe22d61dU, 0xbd7d0e8e3dc59e93U, 0x3e5a7a6abe012a81U,
  0x3cc62595be20a780U, 0x3e1ebe8fbd7677d6U, 0xbd18d1c6be1d1babU, 0xbdca1c723e233d37U,
  0xbe7bc4ef3da4188aU, 0xbe0d4a2a3eb20931U, 0xbe1b671fbe225355U, 0x3e23afe43e5bbbabU,
  0xbea0fefebe01b010U, 0xbe561b42bd360e98U, 0xbde3e161bc0e263eU, 0xbca8ebbe3e2c805eU,
  0xbe227c2fbe0f3a95U, 0x3e2f535a3e006431U, 0xbe1f9b823ca397d2U, 0x3dc9857b3da7f837U,
  0x3e2afc8c3da2f924U, 0xbd22bb2ebdf724a1U, 0x3e4f336fbd13c69cU, 0x3d17c0033dd8167eU,
  0xbe1289a8bd7e5291U, 0x3d59abfb3e4be762U, 0xbe0f96c5bd89f68bU, 0xbe23bb633d9172e2U,
  0x3e040531bbeb1d40U, 0xbdb55c1c3e070868U, 0xbd53615dbe066d58U, 0xbcca67703cf83f11U,
  0xbc171dabbd6a588aU, 0xbe1d7c90be6b8e53U, 0x3d9bfea0bde3a978U, 0x3dce1cf23bb9a538U,
  0xbe54ee56bd99ab02U, 0x3e7d7866be111a81U, 0xbe16327dbdc91e7aU, 0x3e568476bcff8010U,
  0x3be34d81bc57ad6fU, 0xbe62b60fbde5d4eaU, 0x3e73befcbd222440U, 0xbe04c3a3bd886295U,
  0xbbd94f723e137b3dU, 0xbcc768b03df53982U, 0x3e282db03bee1396U, 0x3daca92d3e41c589U,
  0x3d4b5c63bcf8b138U, 0xbc08ec413e739da3U, 0xbc5c61a63e135bddU, 0x3e1bbc15bd046501U,
  0x3dff9e12be109d6cU, 0xbe23cdd13d782f2dU, 0x3e805f5cbd9af605U, 0x3e3139653d367dc5U,
  0x3e71b314bc0c087cU, 0xbe8bf6733e969461U, 0x3b189a273c19c252U, 0x3dd1ecd83daf98e3U,
  0x3dafe8c73e5c09c6U, 0x3e59f3c3bdb96d81U, 0xbd61e7503dff62ccU, 0x3e027df33d818b28U,
  0x3e0521d5bdb1cbceU, 0xbe05d01a3c7e3bb0U, 0xbd6074c53d97afeeU, 0x3e97d3d2bd49ab74U,
  0x3d238f9e3e2d272fU, 0xbe44948c3e1fce91U, 0x3d4b18e13b8d688aU, 0xbe3d97653d643424U,
  0x3e6092debd89a6ddU, 0x3e826e2d3d2059bfU, 0xbe9128febe0fa3b0U, 0x3dea0c3cbe36efb9U,
  0x3e4f929ebec36d57U, 0x3e940072bcce8935U, 0x3e2076d1be02a3a1U, 0x3de1313b3e8a92fcU,
  0x3e5dc603be1e73a1U, 0x3e91215b3dce896cU, 0x3e7167913e37425eU, 0xbe969c133c15d29dU,
  0xbeaf4fe43e0fae8cU, 0xbdacf236bda2282cU, 0xbe9877c33e2ef73eU, 0x3e029836be1ec338U,
  0xbdcdfb5cbda7076eU, 0x3d15a3ec3bd48f0aU, 0xbe266218bb789facU, 0x3ea57144be75f6f3U,
  0x3e2b46d83e4f766dU, 0xbdbda91b3e2ada27U, 0xbb9d06453e2e25bcU, 0x3e9ded0dbe03fd9cU,
  0xbed42aaf3ec4d436U, 0x3e079bf8bd001fd2U, 0x3e0f32743eb821cfU, 0xbed140f0be384453U,
  0x3e591630beed833fU, 0x3e6e99593d0a16b5U, 0x3e1132c9bdbc0b6cU, 0xbe0f0458be0ffb23U,
  0xbeef8b9b3e44def9U, 0xbe416d02be4fae65U, 0xbeb10107be823d99U, 0x3eef34133e47154aU,
  0x3dc62f613ec61bc5U, 0x3dadd708bede3bb2U, 0xbed432033db17ca3U, 0xbeb5c049be07c4ccU,
  0x3b9070b0be307e29U, 0xbe8c1e383ea5e2d1U, 0xbe4a8984be80bb59U, 0xbe4dc6013d7cdd4aU,
  0xbde168073d901adeU, 0x3e1afe9d3e236c0bU, 0x3db775efbe773791U, 0x3d607e843d99cb18U,
  0xbd02d99f3c339b14U, 0x3b2b2e553e5159edU, 0xbe8c523a3e2e5777U, 0xbebdeadabd9b34ecU,
  0xbd3c253d3eabe83aU, 0x3de3b60c3dacd4b0U, 0x3ebadcc33d0bd761U, 0x3e24e5533e3670a2U,
  0xbea6d94d3d94fe98U, 0x3e1ef3fb3ec1356dU, 0x3e6bb8b83e7bf000U, 0x3dedbd18bd356df6U,
  0xbef25beabe58e06fU, 0xbebe9b463e91260dU, 0x3eb747cc3d98f741U, 0x3ea5ea353dd257aaU,
  0xbd813a493dd4cc7aU, 0x3e5b909e3ed04a49U, 0x3e47a0c03ddcec4bU, 0x3e029cbc3d5833f8U,
  0x3ed94424beb86ac5U, 0xbe785c2cbe54eb96U, 0x3e74ddb73e90dca0U, 0xbde6b11ebd915a14U,
  0x3ea6d37dbe65ab0dU, 0xbe8153d03eb0a575U, 0x3ee34d9f3cca4fc8U, 0xbe8f0ce7be7d8cb7U,
  0xbc361a453bcedef8U, 0xbe800ace3d8bb893U, 0xbe0d58a9beae8f99U, 0x3e841336be5dd877U,
  0x3e046e7bbe2393d8U, 0xbe9a58fc3ea4df88U, 0x3e204d073e1b6fe7U, 0xbe1c3f203e705c79U,
  0xbe045785bdf991bdU, 0xbe41176abe042996U, 0x3e7bf495be1926e1U, 0xbd8657ffbe049776U,
  0xbbbcaefc3dcf5eacU, 0x3e08f85bbe3e9129U, 0xbd021e413ea5af9fU, 0xbdc9cbc3bddde48dU,
  0xbe24d0c43e10bb02U, 0x3eda581e3e83524aU, 0xbe484fd4bd8ac274U, 0xbee3bca8bdd034abU,
  0xbec7ff3e3eb5705dU, 0x3ea1d103be2ceb39U, 0x3e0af386be42cc99U, 0x3ecffb283bc7d5ecU,
  0xbca6af1ebe51c6fdU, 0x3cce2722be0d2590U, 0x3e4387363e28169aU, 0xbd5613da3eb8d8b0U,
  0x3e5072e5bdbdb466U, 0x3e896e8b3d14276cU, 0xbe8a9a5ebe8a6160U, 0x3db73c46be97a3bcU,
  0x3e3d5e343dfff792U, 0xbdacd51c3ed42bedU, 0x3c5394773cdd9be9U, 0x3de6f9263e1164fdU,
  0x3c6cd278be272da1U, 0x3dc482313e994200U, 0x3e5261ecbe06eb72U, 0xbe0b3ca1bdf13b38U,
  0xb8bc08163d7cc45bU, 0xbe227f97bd848c19U, 0x3e5f1097be0a50e3U, 0x3e15984dbb6ff2f4U,
  0xbdc1633e3e3333d7U, 0x3dff5f503d3b561bU, 0x3e875a67bd71156dU, 0xbe30c2273e5b042cU,
  0x3c891ce43e5fed44U, 0xbe8b723d3e9e6ef7U, 0x3e809b81be5c4f5dU, 0xbe18b940be735bb9U,
  0xbe2924903d69199fU, 0x3e907e123e02ed69U, 0x3c55825ebdd064bdU, 0x3e1f1b4d3cb42e3bU,
  0x3c86757e3c7adec3U, 0xbe30af2dbe0f921dU, 0xbdfa9f75be27f3e8U, 0x3dcbef3a3e1ae996U,
  0xbe199e833e221b79U, 0xbe983a293dfa1656U, 0xbdcf6e763ca9870fU, 0x3dfb215e3ddd7300U,
  0x3c2e8f16be08a3b8U, 0x3e20be2ebe0e7e24U, 0x3dcf57aabd422e78U, 0xbca305403e8c111cU,
  0x3e22560b3c8209bfU, 0x3e0e8fdf3d22a219U, 0x3dcb9dd9bd467bd8U, 0xbe0a988b3e9733b7U,
  0xbe316881be5f8182U, 0xbe4119723d8c1e25U, 0x3d10701c3cd60e54U, 0x3e2cec393e810900U,
  0x3e15a06d3e392d1eU, 0x3e261776be058b8cU, 0xbe821d393e83431eU, 0x3e2125643e92d5b9U,
  0x3d4f3db1be46b3a1U, 0xbde001443d3ad9f6U, 0x3c5abaebbdfc0388U, 0x3dc6141bbe018acdU,
  0x3e28ec8b3e30b7bbU, 0x3d5240663de4ed1cU, 0xbd921f323dd54d37U, 0x3dfa2e40bccff59eU,
  0xbe110f483e6b5db4U, 0x3dc6e9a7be7f5e3cU, 0x3c6c6b4d3ed3acc5U, 0x3dcf45d63e8d3b21U,
  0x3e1756ce3e4a8ae3U, 0xbd9afe123e2c8546U, 0x3dea2c733d578686U, 0xbe41aa59be12f48fU,
  0xbdb640d23d5fc4deU, 0x3d9702ae3e4e1037U, 0xbec96500be872614U, 0x3e5bd0c7be1c7d06U,
  0xbe887d2cbd38dac2U, 0xbce138503e91f907U, 0xbce8a487bdfc67bfU, 0xbc9b1d77be187168U,
  0x3d89a08d3e450152U, 0xbe3bf3ffbe11c68aU, 0xbe2a13033e8d888aU, 0xbd227d873de77bf0U,
  0x3ded27683e8fc75bU, 0x3e16c9a7bcb1b9dbU, 0xbe927ceb3b4e95ecU, 0x3e338731be594ddaU,
  0x3e4a8f29be0f25a0U, 0xbe5eb9e5be34d055U, 0x3e69e69fbc2c7398U, 0x3d042b8dbcc44169U,
  0xbde5e0af3e50eeafU, 0x3e8a672ebdde4783U, 0xbdfcc6493de0e9bdU, 0xbe92ec30bdff8320U,
  0x3d7dc5fa3e808d87U, 0x3ecb4932bea32ed7U, 0xbe46bc013d2790e1U, 0x3dcf91d53e004384U,
  0xbb820bd6be047ff5U, 0x3e5945fbbdd2d9a8U, 0xbd01baa0be4dd797U, 0x3e859ef93e70ed10U,
  0xbea447d93e8e43ccU, 0x3e4e804c3e4ba7b8U, 0xbdf73ca13e7882e2U, 0xbe0bf424bd29b141U,
  0x3e05bc4d3da6b8daU, 0x3ca3ad703c3b1f02U, 0xbe14c94fbe396d43U, 0x3e0318dd3e41c4d0U,
  0xbdadc8d1bde82582U, 0x3dade1a13d956b87U, 0x3ce94b373e89871bU, 0xbe246c44bd7ac5e3U,
  0x3e03c6613e8a5227U, 0x3e3c012dbe444380U, 0x3c371abe3e3ea5dbU, 0xbd7a7d7e3e9bada6U,
  0x3ca3eba6be2af737U, 0xbd8147dcbd969b54U, 0x3d9fa7543dad6139U, 0xbe091254be1e6c46U,
  0xbd86d595baacbfa9U, 0xbe8b323d3d6d7d94U, 0xbdb227e43e32fda1U, 0x3dfbc2babe17b59cU,
  0xbe272ad0be5b1d7aU, 0x3c97f74b3e6550bcU, 0x3cf3e621bde5d7a2U, 0x3e14f2783e629845U,
  0xbe54d86dbe3f20afU, 0x3e520256be615d9bU, 0x3db24654be5cdb45U, 0xbe1718373dc1e0cdU,
  0xbdd09e8e3da029c4U, 0xbda42b40bdac0b51U, 0x3e07559ebc6d1d2cU, 0x3d862963bdf5f836U,
  0x3e81fda13ea5890eU, 0xbdc6ad33be06ea5eU, 0xbcd00d72bcbb1cb9U, 0xbe658a80be181d8aU,
  0x3e136626be5a20b3U, 0x3e9070093d8a396eU, 0xbd9e14d03dcfb582U, 0xbe5c89533e7f0201U,
  0xbe47afcd3dbb4e14U, 0xbeabfe11be9448d4U, 0x3e0cc50abde9ab72U, 0x3eb500f43c08701bU,
  0x3df4240a3e2ed041U, 0xbd4f73663e88c777U, 0xbe39c4453e70d3e4U, 0x3e41c10d3de69b4aU,
  0x3d49cf50be88fc37U, 0xbd343031be6c9c5cU, 0x3da4036a3cdcc2efU, 0xbdfd32c03d16b4b7U,
  0xbe81addabe5890acU, 0x3ddd004d3da3390cU, 0x3e3a3cbfbe4ca483U, 0xbd99c2fd3dac34b5U,
  0xbb25728abe417956U, 0xbdc3b4fc3e5004dbU, 0x3e08fd0e3d4c38a4U, 0xbe51f668be034c0fU,
  0x3dc232633dc6b5c5U, 0x3e4d325abc9dcb4dU, 0x3e2408333d931ec1U, 0xbc50fac2be554713U,
  0xbcb73ebf3e5dabc5U, 0x3d5b4107bdc35727U, 0x3e989ab03d9a3beaU, 0xbcf3b5d43e896108U,
  0x3de5e2393de6e8a5U, 0xbde350a53e4cb535U, 0xbe254b31bd239ee6U, 0xbe155fdabe242afcU,
  0xbe005b15be876e32U, 0x3d6bce013db4b97dU, 0xbc2ac7fe3d8113acU, 0x3b3fd677be02c634U,
  0xbe448da0be758746U, 0x3e3fd89dbd76b5baU, 0x3e8e4cc63e0f4ebcU, 0xbd0f54a03e2ca32cU,
  0x3dd84de93dea7123U, 0xb929a6fe3e23c06dU, 0x3e21570abe89f4c9U, 0x3e5d69223caa9fc5U,
  0x3e6ef8203e9078ccU, 0x3e40ea323e058826U, 0xbe39852cbe4aa360U, 0xbe88fc71be2669c0U,
  0x3dc008eb3e2e2d38U, 0x3d5867efbd817d82U, 0xbd5d513d3e1aed45U, 0x3d21f981be630681U,
  0xbe3beb70be9bb235U, 0xbd588ad33e8dcf17U, 0xbde07ecabe494055U, 0xbebd44673eaee9d4U,
  0x3d6c7e4a3e5c6433U, 0x3def68f8bc471a53U, 0xbe1aeedabc2726acU, 0x3e49766fbe2c63baU,
  0xbe0e18d93e36da89U, 0x3e665d2dbd613517U, 0x3ca6855cbe081a32U, 0x3e3d78edbe150e09U,
  0xbe1df822be8f99d9U, 0x3e448658beb3bd0dU, 0x3d583c163e92c7c4U, 0xbec65544be25211cU,
  0x3d9f4d373e85dcb3U, 0x3ec61048be1282fdU, 0xbd4649e3be3ef6c0U, 0xbc6a282fbeb7e6a8U,
  0xbeae30bcbdf9dcbeU, 0xbd25e2b23e041ce7U, 0x3e81d3a1be7580eaU, 0x3d8c4159be357160U,
  0x3d8ab7e83e6fe880U, 0x3e2b4abc3cdfc8f9U, 0xbd9a1712be51f9c3U, 0x3e522828bc171d48U,
  0x3d2327f53e77345bU, 0x3cf46721be496500U, 0x3dc45a33bd9996b8U, 0x3e67214ebe3e320bU,
  0xbe18a9cc3de0b602U, 0x3e8973f53d4910b8U, 0xbe8030cabe591478U, 0xbe20bb48be8402b0U,
  0x3e636f6b3e2f8fe9U, 0x3e4ed95dbd00c037U, 0xbe142278be1d4c2dU, 0xbe7c5d24be94b037U,
  0xbdabeeadbd8d53a4U, 0xbe09c0093e8b6130U, 0x3ee5f8f83d7826abU, 0xbe8ae8873daee265U,
  0xbced2a883e50d025U, 0x3e0c31a73ea30275U, 0x3cbd51713ee9a410U, 0x3dbbcabf3e298056U,
  0xbd822884be82fddbU, 0xbe8b51c5be239277U, 0xbd9e113cbd85adc6U, 0xbe60c4a3be800ac8U,
  0xbea642053e2ace4aU, 0xbd268971be954458U, 0x3d3dd057be6f9522U, 0x3e9999023ddd7e90U,
  0xbb3cdce7bd2f56acU, 0x3d9cf54dbde74cb3U, 0x3e1255c2bd09893fU, 0xbda9ac1bbdde0760U,
  0xbe2710e1be81a4b4U, 0xbdffc8d1be23b268U, 0x3ecba6473e8488e5U, 0xbec285e43e504e87U,
  0x3e80cb90bdcb9f75U, 0xbe280e153e35edbbU, 0xbd7b5632bd0b0643U, 0xbe8c5f60be8c9b98U,
  0xbe0680b13de3c22dU, 0x3e6652e63d5df13eU, 0x3cb021a33e1c0ad0U, 0xbe64631a3d847aa4U,
  0xbe8a0128be85a352U, 0xbe39fb703e6ff82aU, 0x3e89e0f0be75678fU, 0xbd4ba8e33e701b58U,
  0xbc7d97573ec046b4U, 0x39e1fe4cbdc26b42U, 0x3e82b0653ed25030U, 0xbe115c3cbea52165U,
  0xbe880ccdbeddb838U, 0xbdcdc15ebe40baecU, 0xbe508d4abce201a1U, 0x3d39f019be5ca0c1U,
  0xbc73e8fd3e06c7cbU, 0x3e6bc37b3e62770fU, 0xbe377bdf3da2e484U, 0x3cfabb4d3e9dba09U,
  0x3e549996be0e88aeU, 0x3e8830a23c581428U, 0x3e5083ddbe591c4dU, 0xbe9783b03e9bd401U,
  0x3ecdc6003dce2b72U, 0x3e4f8e673d29207fU, 0xbe8c979a3e56e358U, 0xbd8f6180be20740bU,
  0xbd24536abe6259fcU, 0x3e08a54cbe046dc5U, 0x3e3ff8b5bdda9a5fU, 0x3df79edebd451d70U,
  0xbe12a8953e70c251U, 0x3e5a1565be5ec4f5U, 0x3db87289be9a1d3cU, 0xbdde72d13eb5f7fdU,
  0x3e667bc0bea00f61U, 0x3d95726abe150df0U, 0xbe7070ef3e7fb274U, 0xbe39cbf7be9f4c1dU,
  0x3d0dfaacbe1c397dU, 0xbe8c3d22be6aea87U, 0x3dc600f13e6b68b4U, 0xbee61d7cbdd0a68bU,
  0x3e786061bddd2deeU, 0xbe34166f3dc78148U, 0xbdf1e7e93e645ca5U, 0xbe855319bcd8f9bcU,
  0xbe615a673e7c7f92U, 0xbea781cabe79c910U, 0xbee6c6283edd5e93U, 0x3c40ba8b3eb9ba85U,
  0x3e572e6dbc05ee2bU, 0x3c9f55d13e178b8fU, 0xbe7831823db0f548U, 0xbe40e1a9be42a0cdU,
  0xbe993e7cbdc8719dU, 0xbcca246d3e7413a9U, 0x3d2128ed3e05a333U, 0xbe53d7a4bdbb1d8dU,
  0x3caf787fbedb228eU, 0x3e2926183d8e9f64U, 0xbc1ddb293e92d92bU, 0xbc6d7b7d3b928942U,
  0x3dbe3063be86f2acU, 0x3e753d553db292b1U, 0x3e44857f3e130cc3U, 0x3e9258e73ddae9abU,
  0x3e5c87553dbca7a3U, 0x3e38be033daa489eU, 0xbe191acdbd2fa6b6U, 0x3db4e92bbe94aacdU,
  0xbeca6f1c3e290aefU, 0xbe9ff0813d800226U, 0xbe6c2a263e8a9849U, 0x3b1381203e39a3aaU,
  0x3ea92fa83dfac8e1U, 0xbdb852bbbe89bc74U, 0xbebc86d6be76e13fU, 0x3dd6410b3e0daec6U,
  0xbe1f224bbe2d89e1U, 0x3d1f9aaa3b6f7e84U, 0xbcdeaae73de61aedU, 0xbd3f58b03e873eefU,
  0xbe16dd0b3e75ef4bU, 0xbe9ed2373e739b7eU, 0x3e552969beb6da89U, 0xbe85b4d1bd4aebfbU,
  0x3b92aaf1bd28f18fU, 0x3e1fa8a0bda06f30U, 0x3e54bca23ee8f055U, 0xbe86799ebe00ffe3U,
  0x3e7de1bf3e02b9e4U, 0xbebbbd74bd984272U, 0x3e227ea7bdcd18f2U, 0xbe2150b93df2f059U,
  0xbc819de93e668624U, 0x3ecc7b763e523d35U, 0x3e9570933e35529dU, 0x3e7f19243eba5183U,
  0xbea6a838be60abd1U, 0xbe91b4d3be2570a4U, 0x3e845a78be5f0305U, 0xbe3d2d92bd8c5f9fU,
  0x3eca5a663e13fbb0U, 0xbc9a7e583e2fad4cU, 0xbde08ee7be883639U, 0xbe452e98be4d6718U,
  0xbe2ab03e3cceb9cdU, 0xbdf91a0bbe6e5680U, 0xbdda53023e8bc66dU, 0xbec0cf803ec13d3fU,
  0xbe5fddc53d02e3d8U, 0x3edddcc5bec9a417U, 0xbeb9a418bdeed159U, 0x3ec1f8623ea18f96U,
  0x3efdfae33ed1c18eU, 0xbe58c7cfbd44b84dU, 0xbe9d28a53ea897b2U, 0xbdacb765bebc1668U,
  0x3e2c1549bc898601U, 0x3e3625ab3e5f84f1U, 0x3e48c1c9be072253U, 0x3e15d14f3e46f8fcU,
  0x3c7b5a6d3e2802e7U, 0xbe0a2c453d9a4974U, 0xbd2d67643da713a4U, 0x3d21e693be3facdbU,
  0xbe01dd42be26d247U, 0x3d36fc1b3e65f197U, 0xbdc4afbfbcb5579eU, 0xbdd15e5b3e3767cbU,
  0x3e7972193dbaf1c9U, 0xbd46f7603cba3026U, 0xbe0840ca3c2b36cbU, 0x3c6421dabce49242U,
  0xbd65e4533ddfdcd6U, 0x3c50058bbdb7d75dU, 0x3e4e5a433db4b643U, 0xbe0d00aa3de0e76fU,
  0xbe6088b93dfed85dU, 0xbe21384a3e4c4454U, 0x3c688275bd1e34c4U, 0x3d842cc7bc7ca07eU,
  0xbda9d614bc786845U, 0xbe2aeab6be0c16e8U, 0xbd471402bdc5488eU, 0x3e43a7793dcfcecaU,
  0xbb86c1a4bd3353afU, 0x3d9e0453bcec3d90U, 0x3d5c4a42bdcc7ebdU, 0x3deb99783d8b2d08U,
  0xbd174109be0e7c41U, 0x3d9902f33e259f9cU, 0x3e0316803dd007baU, 0xbe3555bd3e287a59U,
  0xbe06e063bd8e75b0U, 0xbdeb5aadbc2d508cU, 0x3cd1f012bd2d52ccU, 0x3d962e55bcbc03beU,
  0x3e248fd23d99e450U, 0x3e19c820be44d482U, 0xbe176c723df223a6U, 0xbe509deabdfeb7ceU,
  0x3e9d1a19bd8e9be2U, 0x3dc3eadb3d9da9a2U, 0x3de110ccbdd6b4cfU, 0xbd796ac03d4e61fbU,
  0xbd89992dbe638d5dU, 0xbde224743d377d1eU, 0x3e84307d3e034a88U, 0x3defb32c3e21bc7cU,
  0x3e45b27f3e1cb34dU, 0xbe20f3633d6a98a7U, 0xbe3ecc0fbda22c38U, 0x3e60377b3db6151eU,
  0xbe24a9f23dae0b55U, 0x3e09e5903e5c05ecU, 0x3e1094ba3e186d0cU, 0xbe684e863df2f52aU,
  0x3d0bba90be3f6abaU, 0x3e7007903d2facfeU, 0x3e2283143e5eb244U, 0x3e891e433ebd0905U,
  0x3c0b880e3c961d22U, 0xbd2ebbedbe864f29U, 0xbd94d5febddafd3fU, 0xbddee61b3e1ea214U,
  0x3e00717bbe252d33U, 0x3d8a98b6be3b43c7U, 0x3dd926a93da87a59U, 0x3e166ab33e0c0ad7U,
  0x3e91e5173e6de5c6U, 0xb98a173d3e271cb6U, 0xbe11a7d73e9a607aU, 0xbe142e233e30eec4U,
  0xbecb07b73ddfd173U, 0x3ddfc6f2bd33e478U, 0x3ce005f1bdaa2877U, 0x3bb6245bbd15998dU,
  0xbd76424d3e9d13c3U, 0x3dfa10f0bd8d4dabU, 0xbcdc8c49be3a7e5bU, 0x3e86a303be33cb30U,
  0xbe033a7b3e031c56U, 0xbdfe5af1bda41abbU, 0xbe0f64823e7be374U, 0x3e0cc0fc3dc66bbaU,
  0xbe2ce06dbd839346U, 0x3e7c11a03e881011U, 0x3d59f27f3dd0db0dU, 0xbb5c9e0dbea3fcd8U,
  0x3e017e163da80ef4U, 0xbe80e09a3e893ae8U, 0xbe3643edbde0fa5bU, 0x3e961ad03e61493fU,
  0x3e900290bd156662U, 0x3e2f66e8bda433d4U, 0xbd8b7d453d9bdb66U, 0x3ae2b2633d8c8817U,
  0x3e1583a9bdf22073U, 0xbe692b563b6b14bdU, 0xbe74143b3e4182ccU, 0xbe4d31d2bbbfb0fdU,
  0xbe61a00f3ebaf3edU, 0x3d06936ebe187156U, 0xbdc632c13e3a41adU, 0x3e060db53df299eaU,
  0x3d26424d3e1c002aU, 0xbe886c2bbe95ec2aU, 0x3e3c65a8bdf67b49U, 0xbe68608cbd07a614U,
  0x3e9753aebe1590b2U, 0x3e143d513e314c4bU, 0xbce3a247bdc50f60U, 0x3e47944bbdd81e1fU,
  0x3e65df7ebac241f3U, 0x3da2b0d13de3fb02U, 0xbe5f8c2abdd2753fU, 0x3e997bb83dfa53c3U,
  0xbc97e1313cd18f71U, 0xbe1f0656bc27b741U, 0xbdd207323e5f7e98U, 0x3d77d1a8be456388U,
  0xbe0a7b94be1ad50fU, 0xbdfc76d03e2ec38eU, 0xbd9a8a383d8e799eU, 0xbcc03c413c66e82eU,
  0x3e1934f9bdfa0c42U, 0x3de5baa33c7e787dU, 0xbc9cd71e3d5da3d9U, 0xbe04b4983e53e378U,
  0x3e66bc83bd1cae66U, 0xbe6be9bdbcac3306U, 0xbdbe2167be1be603U, 0x3bd1df8dbd7fce7dU,
  0xbe86f3cabe4c035fU, 0xbd0ee099bdd65f46U, 0xbde1f0533e920b9bU, 0xbe5f9ffcbd991530U,
  0x3d88fc3cbe7aedcdU, 0x3e723802be6d3194U, 0x3e268d52be0b1c0bU, 0x3d26ad82be2e1af7U,
  0x3d0cb10e3e1d5fb5U, 0xbeab46e7bdd5b8f6U, 0xbd33bd8cbe261e0aU, 0x3e36dcd13d3882bcU,
  0x3e08f2f13e5066c4U, 0xbe91c8d7bd6dea4cU, 0xbe76a6583e7595bbU, 0xbd9ecd57be32d501U,
  0x3dae78d6be8a4bffU, 0xbcfc6e363d5e9708U, 0xbd06d3003d74b702U, 0x3ddbb46d3e64dfd1U,
  0x3e641dd53e94f013U, 0xbeb32a7dbe877f72U, 0x3ea0adbcbe6375faU, 0x3eb74ac3be946e38U,
  0xbde52c103e923c61U, 0xbdfbd26fbd830053U, 0xbd4ce21dbe075932U, 0xbabad8293da7bd37U,
  0x3de9f042be5d71ceU, 0xbe5507a53ccf4459U, 0xbe220c703b4c61ccU, 0x3e40e13b3e3344e2U,
  0x3ea436ed3d43ac16U, 0x3dae40d9bc882e5dU, 0x3e8a6499bdb40dd3U, 0x3e21386e3ea77264U,
  0xbdebdda9be49852dU, 0x3d06e3fabd0c40a7U, 0xbe51b8a23c5ce40aU, 0x3e44f7c6be168052U,
  0xbe74bf2dbe02ccb7U, 0xbe04cd803e48c6b6U, 0xbd9a4ef13e831199U, 0x3e9fee4bbe51c49cU,
  0x3daa950dbe62bb11U, 0xbd4490d0be0cd684U, 0x3e5298e6bd80399aU, 0x3e80ede3be1b63ddU,
  0x3bc2d2d83d8e710bU, 0x3c8f940e3e0e87a0U, 0x3e9c97fd3cfaa571U, 0xbce65d76be0e2590U,
  0xbe1e2249bde0a6edU, 0x3daecb39bd466c1fU, 0x3e0f711b3e9c6265U, 0xbd55b880be1d1949U,
  0xbe17e9d23e16c1f1U, 0x3eaafead3dc48020U, 0x3b17e3013e07679fU, 0x3d646b493e0f235cU,
  0x3e26a6b33d802e51U, 0xbdc5c38dbd74ba8fU, 0x3e6bedf63e4d132bU, 0x3d69ac593e8f30c9U,
  0xbb1ee34dbe847605U, 0xbe91460fbd05b907U, 0x3e83ec683d3f303cU, 0x3d6ca17dbe92ef13U,
  0xbce1b5e63e8052e5U, 0x3e4050453d8dd436U, 0xbdd54176be650669U, 0xbd6460c2bea38456U,
  0x3e19e8b43e8f4b6dU, 0x3e84fec13e753430U, 0xbe1cf218be1e5361U, 0xbe8cc1223ea6fa59U,
  0x3c897d783e239dafU, 0xbcfae2a83e6e0ae1U, 0xbc212ff8be061719U, 0x3e47acc13e63103cU,
  0x3e254d18be0c10f9U, 0xbd8af0723e009d53U, 0xbcadea553e5b0f45U, 0xbbc83014bd0df98cU,
  0xbe36da7d3d654d8cU, 0x3e2c53263ac7e7cbU, 0xbd0fb2e93e8ece20U, 0xbdff427fbdf2ebf4U,
  0x3db22a9c3e5bf27dU, 0xbc9a0ecc3d95198cU, 0x3e9c2b013e233a43U, 0xbca46e2dbd39c559U,
  0x3e0e3a75bda59124U, 0x3e92c9f1bdb38f47U, 0x3e1e4a6d3e8b5a4aU, 0xbe658428bb600a27U,
  0x3e6517743dccea89U, 0xbc485bdcbd633f45U, 0x3e36a72a3e066394U, 0xbe313fbabe00feeeU,
  0x3db19494be112c8bU, 0xbe3d43303d87de42U, 0xbba4c759bdd58932U, 0xbd466cb03e1b7189U,
  0x3e16aa65bde5e430U, 0xbe2d5072bdbcb138U, 0x3e1f019a3db22d57U, 0xbd1110b9be12765dU,
  0xbd48060cbe80e052U, 0x3e7f0edf3d94bbbeU, 0x3d8b3b163d19cecbU, 0xbdba4d013dabca4aU,
  0x3e1b6ba6be59d777U, 0xbc9a48e13e7a240fU, 0xbe1efb303e5e408eU, 0x3e4f67fbbd1bf48aU,
  0xbe4032a63d9e7209U, 0x3e5b968b3e13d928U, 0xbd47c913be34df3dU, 0x3cff71c63e512f2dU,
  0x3da06b05be43ff3bU, 0x3e476900be71c563U, 0x3c848804bd7f2e03U, 0x3e93694bbe0aebdfU,
  0x3e4c0e8e3dde466bU, 0xbe1601c03bb74ffaU, 0x3e83bd89be6d066bU, 0xbdce285dbe082af3U,
  0xbe3ec1c43dff0389U, 0xbd32b7c0be017446U, 0x3e6a0df6bdaf35b0U, 0xbe9624ea3e42f65dU,
  0xbe07e9b33e1a2d6fU, 0xbcdd79c5be5b7924U, 0x3eae7b923f7fb7ebU, 0xbfb8c157bfb4f4c0U,
  0xbf9e8d99bf0c88dfU, 0x3f1bd6aabed20bc4U, 0xbf9a6a9f3fb41f91U, 0xbfa63d4e3e55a064U,
  0xbf5f4ec3bfb24b5fU, 0xbccc87743eb4a536U, 0x3f9a57543f398e1aU, 0xbf86a69cbeead8e0U,
  0x3f5295a4bfcd12d2U, 0xbf7157c0bfd0b372U, 0x3cc3a99c3b1a3788U, 0xbce8e9de3bdb2a98U,
  0x3c932a533ceefac1U, 0xbb97d03abb7c7463U, 0xbcbc3111bcaf6794U, 0xbd69ca8abd1dc81cU,
  0x3c8aa0d1bc5e96edU, 0x3bcc9e983c94a085U, 0xbd3d9528bd2ea92bU, 0xbca6c62a3d222021U,
  0x3d353b36bc60e676U, 0xbd0514d43b1ff983U, 0x3d82c2dbbccc43cdU, 0xbc9668e23c83710dU,
  0x3b0fdf05bd209c98U, 0xbd641be43d823d67U, 0xbcb5f2e8bad47f75U, 0xbdb8439ebc10a875U,
  0xbba4e826bd15d960U, 0x3c87e3abbd26646eU, 0xbd0b9d72bd28d69aU, 0xbd2ee042bd612d24U,
  0xbd1fa55abcdf83fcU, 0xbd815ef93d2d2d07U, 0x3d194f4ebd5e550bU, 0xbd83f03cbbf7bd7fU,
  0x3d5a0320bd9bb03eU, 0xbd5d83163d851c95U, 0x3b5b908f3c9094ecU, 0xbce1f059bd3a62b9U,
  0x3c0542acbc014fd9U, 0xbb8438cc3b83d6d8U, 0xbda71e583ae229caU, 0xbc898170bd42c754U,
  0xbcebdd6f3c3cf4e3U, 0xbd8165a03c9b9a55U, 0x3d453879bd4d6a5aU, 0xbda9fa1c3d28c43aU,
  0x3d3023c9bc28cf71U, 0xbd7e3d793d7b9c9dU, 0x3c463cd43d3ae4e3U, 0xbd7c8993bc89c066U,
  0xbc50ef033c34921cU, 0x3d3b9153bd4d2409U, 0xbd311deebc3336b6U, 0xbd32b5193bd4d1d4U,
  0x3c3a15a43c80502bU, 0xbbab91ab3cde3f75U, 0x3d93e0f53a089991U, 0xbc95b6473cb0da12U,
  0x3d165c03bd391b5dU, 0xbd83cc273cdaa467U, 0x3c4697503d527077U, 0xbce249c4bd633f19U,
  0x3d6578c7bd49a36bU, 0x3ce40c6f3ca2203dU, 0xbdb6dd6fbd3a9376U, 0xbd80599e3d0c4b3dU,
  0x3c5a6b0b3cc5a46bU, 0x3c46063b3bbafe37U, 0xbb70eb53bca1d9ddU, 0xbcc5eea23d7da2f0U,
  0xbc0823883a45c69dU, 0x3c2c51dd3d547123U, 0xbca2b0ae3b3345c1U, 0xbc882b263ca5f39dU,
  0xbc9a4b52bd0351f7U, 0x3c30336abca3f4f7U, 0xbd21992cbd1f3904U, 0xb99a55093d16e189U,
  0xbc4d3479bc3f88feU, 0xbc34596f3c078e76U, 0xba9e42b03c4f467eU, 0x3c9742393cdba585U,
  0x3adb08d53d21557cU, 0xbd635f633d862147U, 0x3d0765e33d7e5557U, 0xbd153685bb111b8fU,
  0x3d7c2f263c1c8d57U, 0xbc0c883d3b79a446U, 0xbcea77543b4ed5aaU, 0x3ba2472cbd2d717cU,
  0xbc009c88bda9842aU, 0xbd0a68b93d36a300U, 0xbd2fd3c3bc9c943cU, 0x3b470ebd3d0379a4U,
  0x3cbc3ed3bc27ff26U, 0xbcc51eb4bb9fa282U, 0x3cee166d3d355232U, 0x3cc65d3b3cd79ff7U,
  0x3d7aceb5bca0447dU, 0xbd0cb6d03cab7fbeU, 0xbb9c5ce6bd0d9e1fU, 0x3d17ca9fbcaf8aadU,
  0x3ca7cb33bd907883U, 0xbd9347b03d55f8c8U, 0x3c185cdf3cd1ab80U, 0x3d5b02a03c8e35c2U,
  0xbcfa2a473c1df23aU, 0x3c9271febb99b82dU, 0x3d428b5fba92a106U, 0x3c173083bd10da4aU,
  0x3daf4a98bc36fb7aU, 0xbd4eff90bc9e64cfU, 0xbd6ce8e3bd29db54U, 0x3d4c0a88bcd32ccfU,
  0x3920d817bd93b734U, 0xbd8416263d921181U, 0x3b3cc132382cedbaU, 0xbc7508743d5e3c28U,
  0xbd0a97193d7e2adaU, 0xbc50b5293c21cc15U, 0x3d37abfcbb3e0f98U, 0x3cffea75bc1c1a4bU,
  0x3d24454ebd093fa1U, 0xbce589433caa9926U, 0x3b6dd558bcbbfcf4U, 0x3cdcf429bd40ad26U,
  0x3d62124b3c189154U, 0x3cbe01123d8d9342U, 0xbc2f35b93d4962cdU, 0x3caf2beb3cb74b1eU,
  0x3ccc4b8a3d66d307U, 0x3be5caf23c27a728U, 0x3c8d3af83cb89c03U, 0xbce521593c16ad25U,
  0x3d8b5d0fbc30492fU, 0x3c8bdba03ba804c2U, 0x3c33bfab3c4283f6U, 0xbab96a163b3d75a5U,
  0x3b614efb3c5d74b2U, 0x3c05d3aebc984f57U, 0x3d0690ccbcf8665fU, 0xb7a66a1abc3e0f59U,
  0x3cc0ee3a3c9ec0b5U, 0xbc4f0b233d473815U, 0x3d79d1013ca03ddcU, 0xbccfa201bd69b976U,
  0x3d9e95e33c448ebdU, 0xbb7053773d8c7493U, 0xbd7d1edbbc9fb80aU, 0xbd0da4bbbd7e19b4U,
  0x3c8069453b3719d0U, 0x3cf04cbabc5b68f6U, 0xbcea4177bd28351cU, 0x3cd659173a925242U,
  0x3b9bf9383c4a1069U, 0x3d7a44cf3cf68d82U, 0x3d444d8dbadb4c0fU, 0xbd5f51ccbcfdd044U,
  0x3d2a77233beb0656U, 0x3c808b4a3b2436e1U, 0xbcd76df33c91da47U, 0xbc7fed0abd972e95U,
  0x3d9638ecbd8292f4U, 0x3d2b6eb93c67c9d4U, 0xbd2e8574bc14723aU, 0xbd18866e3c733053U,
  0x3b03fcc7bcc2aea1U, 0x3d807be43ca0a499U, 0xbb397399bbd4d850U, 0xbbe2dbb73a844af4U,
  0x3d14e8663ceda3ccU, 0xbd54629b3d39d5fdU, 0xbd0e612dbd27b2bdU, 0xbd293318bd42ea1aU,
  0xbaa6a3d3bcda2fb9U, 0x3d1c23ed3b658cebU, 0xbd123ccf3c684e60U, 0xbc5400e83cbfd1f7U,
  0xbc4dbe06bcfc4f62U, 0x3cac1fda3ba87b23U, 0x3d8ff732bc756974U, 0x3ae2c047bd37afe1U,
  0x3d791ab03be8464aU, 0xbcf1a1f0bccaddedU, 0xbd8e6910bc221987U, 0xbd34f2dcbdaba9cbU,
  0x3d685bdbbbe187c8U, 0x3c89bb9d3bee0e45U, 0xbd07af933bf7b4cfU, 0x3b8cef4a3c388970U,
  0x3d5ad6a13cbb1117U, 0xbac37b8f3c993debU, 0x3d1b10e13d466f48U, 0xbd32b5383ca82e17U,
  0x3d7855c2bcd4e85eU, 0xbd1cac5f3d5b5802U, 0xbc8ae6f8bc245e15U, 0xbbe1fa053c35029aU,
  0xbc3a4efdbd07b1edU, 0xbd6697493d026e41U, 0xbcac64a2bc223528U, 0xbcbfac063c700451U,
  0x39095cf8bd3b8ab9U, 0x3c1480e83c036177U, 0x3d34747f3d296fc1U, 0xbd19a0a0bd81caadU,
  0x3cb326c4bd4d34b8U, 0xbd2030bc3d0a307eU, 0xbd24c79bbd150182U, 0xbc8c82c4bd7e6da0U,
  0xbaa989ddbc7c58f5U, 0xbd70cc7b3d36be37U, 0xbc8d6cbc3d0bba77U, 0xbc8d47383d3b85bfU,
  0x3c64b0fdbced1c44U, 0xbb8892c43ccec238U, 0x3ca8ed9e3d4716faU, 0xbd567a55bceb0a8aU,
  0x3d2faf693cdd764eU, 0xbdb6cc84bc3b7f32U, 0xbb925359bd760d99U, 0x3c24f068bd42104eU,
  0xb9fd3c3cbd5ff6e3U, 0xbda1b9e73bb5c502U, 0xbd1d53983cb41490U, 0xbd8c39bfbb6c8c8dU,
  0x3d1a5e0ebcd735f1U, 0xbd5d722cbcde4a9cU, 0x3c39f7c63d349111U, 0xbd510d86bd818be0U,
  0x3c3cab15bd020a08U, 0xbd82a0383d22147aU, 0xbd84e8c73b1ecad4U, 0xbaea218abd6d4063U,
  0x3d1bf68ebcd79e0dU, 0xbdab9532bcd321c3U, 0xbd04a04b3cd6f4c7U, 0xbd1a2b53bd141f97U,
  0x3d7e983cbd019f55U, 0xbc851ec33c0db2b5U, 0x3d3564eebbd0ae8cU, 0xbd081f42bced372fU,
  0x3d685cdcbc47fa66U, 0xbd27799fbcb5a2e7U, 0xbc6ba95fbdb06778U, 0x3c885d79bdd270c2U,
  0x3d56c4263cc25ad9U, 0xbc5ad3ed3cfb77f6U, 0xbcc48e813c0ddea0U, 0xbc77959ebc22e6fbU,
  0x3d49191d3ca20337U, 0xbd6756d03d4d4673U, 0x3cdc94573c45101dU, 0xbcf161ca3d17f2b9U,
  0x3c92f618bd589a3cU, 0xbc20fb3c3c98fe3dU, 0xbd5396ff3c535c66U, 0x3cf43371bd2ee765U,
  0x3d74c076bcc60f16U, 0xbc271a643d89911bU, 0xbc20e4333d4e417aU, 0x3cfc50e43d831367U,
  0x3d193bcdbdb57d82U, 0x3a33f76cbc23cd47U, 0xbc12c1d03d1a99e3U, 0x3c6307c7bb9d77ffU,
  0x3d737a15bd300ac3U, 0xbd1b51bfbd80654dU, 0xbd590e8fbd5341b2U, 0x3ca72495bd50a72aU,
  0x3dab335ebbcaed94U, 0xbd62abd33d9f4caeU, 0xbd501b3c3cbb6bf3U, 0xbd5a7fb03d1d9510U,
  0x3d8fa2fdbd82835fU, 0x3c0bfc803bbe9f2aU, 0x3cfd17ac3b96c563U, 0x3bf7943fbc5ecc6bU,
  0x3d9852bab8f57aadU, 0xbd1e838ebd840520U, 0xbda8cd23bd484c83U, 0x3d8da481bd960279U,
  0x3cb6416dbd60b79cU, 0x3bf2577c3c6a70a3U, 0xbd4e4ce83c9e8cf7U, 0xbc62a6ea3c27dbdcU,
  0xbbb98874bd9591c4U, 0xbd267aaf3d565dc3U, 0x3b3812123d99b814U, 0xbccf0720bc19a015U,
  0x3d9148bebd08deb2U, 0xbd5558a2bd90b00cU, 0xbc908abebbe6c955U, 0x3dabb738bd61d237U,
  0x3db3b37cbd6af29dU, 0x3c4c4fc13d013674U, 0xbd64ca313d13c6eeU, 0x3b9c7f243d474673U,
  0x3c84a392bd9bfde9U, 0xbd6e9d513d43a616U, 0x3b44a6a03ca5008bU, 0xbbb6a950bd954069U,
  0x3d246b3dbd01dd7aU, 0xbd44979cbd4100d2U, 0xbd8792b7bd47a2ebU, 0x3d99a3a8bdbbc554U,
  0x3d342fb23ca06fe5U, 0x3b1e15903cc498eaU, 0xbd573e173cb01a3aU, 0x3cbb83e33a1444a9U,
  0x3cf82a1f3c854d39U, 0x3d3e287e3bd84ef0U, 0x3d086c673cd58a32U, 0xbc4090703aa818c4U,
  0x3ba617743d389fefU, 0x3d381718bcaac496U, 0x3c64cd9c3b949de4U, 0x3d074bb63ce2b7b2U,
  0xbba3b5cf3ae9c5deU, 0xbc7f2a673ce4dbdfU, 0x3d9346e9bd425f55U, 0x3d0b00acbc78515dU,
  0x3cb8d6dfbc45258dU, 0xbc4a3bca3ccde3aaU, 0x3b498fe4bc8e6570U, 0xbcab243abd37f4f7U,
  0x3bc6e634bc2ecf09U, 0x3bb1ca38baeba11bU, 0x3d0d00febc9c37d2U, 0xbd20d1fa3d90edfbU,
  0x3d17f128bc8c5c0eU, 0x3cf83480bc3ef47eU, 0x3d0097d03ce5f636U, 0x3cb903aebc7d48b5U,
  0x3ccf48dc3d0dc373U, 0x3ca071f3bd309656U, 0xbd255ab9bd0e16dcU, 0xbc0818ea3bb7167eU,
  0xbc8d297c3d17a43aU, 0x3d2f9cdf3c21eccaU, 0xbc9fe95fbd46d69dU, 0xbd169a843ce9cb1dU,
  0x3d8374b7bc272e03U, 0xbba14aa73d1c2b4bU, 0x3d1fcdecbc1032cfU, 0x3d2797c2bcf4340cU,
  0x3bb2b88b3a41905fU, 0x3c5f047f3bcd2f20U, 0xbc81b6debd534006U, 0x3cdc9eaa3c98eff3U,
  0x3ce765253d3de146U, 0x3c3088653caf2923U, 0x3d1d0b53bd72569aU, 0x3ca717d03c139b3eU,
  0x3d1f57433c03b2e5U, 0xbb0f240a39a8d32eU, 0x3c7de6d1bcd5989bU, 0xbcc9937c3d13890eU,
  0x3d4cc1c7bcf78712U, 0x3d1dab21bd4658ffU, 0x3ca019ee3cb2cb75U, 0xbcf58becbc9e39a7U,
  0x3d2c128f3d02894aU, 0x3cf41221bce38165U, 0x3c65f699bd54f7c5U, 0xbc144b39399dee97U,
  0xbc86069c3cdc130aU, 0xb919a469bb9e4623U, 0x3d26875cbc51cd69U, 0xbcbb9143bc4adfc0U,
  0x3d3e0788bcc44605U, 0x3ba4833c3d5283c2U, 0x3c78eb1abd8f2b36U, 0x3c675adf3ceb0c4dU,
  0xbce67638bbbf45e3U, 0x3d1f2755bd5ab7e7U, 0xbc096e8cbbc095baU, 0x3c91011d3d0f2677U,
  0x3c8a2f503c987373U, 0x3b6f9116bc41fc28U, 0xbc0b52d93d1b3f4bU, 0x3c96f5dc3d6e2b2eU,
  0x3d30521fbd833175U, 0xbce586a33d52b8d9U, 0x3d7e2194bd0062bfU, 0x3c1827ae3cbced5fU,
  0x3cadde2d3d132601U, 0x3d1b7b60bd4fe7eeU, 0xbc2bae5c3c5ae925U, 0xbbb60b883d3eadd6U,
  0xbce1de1e3d7f9abfU, 0x3cbc7aaebd1b02cdU, 0xbd41b5663cb62f77U, 0xbd6f57953d850ed7U,
  0xbc733675bd6440f3U, 0xbd6d0a3dbc70c587U, 0x3cc907e3bb7e9d22U, 0x3ca1f20c3ca5acaeU,
  0x3c4941ed3d6038b2U, 0x3d843e01bd50f2d4U, 0x3cb4a72fba1d975bU, 0x3c569b863d41a128U,
  0x3cdc1e403d7bdfd1U, 0x3d1c73f6bc36c6f5U, 0xbca9708c3c907ceaU, 0xbd5ead403d4cca68U,
  0x3cef590439f417daU, 0xbd462d8ebbfb4153U, 0xbc5db29f3cf53b99U, 0x3d71710f3d0a0e3dU,
  0xbd7160cd3d76ca0cU, 0x3d174078bbe67f3eU, 0xbd38f4e3bc53ee7dU, 0x3d2ba9103d90aa7dU,
  0x3c809b693cd77527U, 0x3d28aca03d491e14U, 0xbce5c330bd4b0510U, 0xbcfffbfd3ce57124U,
  0x3d6c043abccf7300U, 0xbbdb60a93b6bf41dU, 0xbcb2653bbcb938e6U, 0x3d271509bcdc14d6U,
  0xbd2fd152bb11bb4cU, 0x3cbd2da8bcfa67cbU, 0x3bd500683cf7e7b1U, 0x3ca041253daafdbeU,
  0x3c968f203d7b50e4U, 0xbd02b3143d34ddf7U, 0xbc138d1dbb85d5a4U, 0xbcdf638c3b6db1efU,
  0x3d0cb147bd2e141dU, 0xbce582b03d61644eU, 0x3bff515ebd399be6U, 0x3d097cf93b953a5eU,
  0x3c861e683bf8196cU, 0xbc984233bce5b3e7U, 0xbd97f91e3b0c1019U, 0x3cabf7303b9d2d39U,
  0xbd8dd4793cd0c171U, 0x3d01ad7abd215ed4U, 0xbd943c9ebb95f936U, 0xbd3b0688bb9ff8c5U,
  0x3c8bdd10bbb4f3bdU, 0xbd09c9693d7a9445U, 0xbd7b34d6bcb43d27U, 0x3d4fac5bbc8ec4e9U,
  0x3d4fc5debc688a5aU, 0x3bc26530bbb11f69U, 0xbd2fa2adbd2d8547U, 0x3d4b1d893c88906cU,
  0xbd5da7eb3cc0fa3fU, 0x3cb7dd71bd638aebU, 0xbc9fae19bc43f033U, 0xbd9569d73c878a20U,
  0x3d5cd4f1bd8ddfe9U, 0xbda173bfbbd631b1U, 0xbca54e02bc60fa76U, 0x3d0ad486bb53e872U,
  0x3c8810a63cfa4d87U, 0x3d2e45b3bd78438eU, 0xbd277f1f3cb28a4dU, 0x3d6de7f6baf4bb41U,
  0xbd94d0423d03203cU, 0xbd08f4c9bc77d9fdU, 0xbda9eac7bcd03e7dU, 0xbccd41513d908566U,
  0x3d5a4b87bb96ce80U, 0xbd262dc4bc4a269cU, 0xbd33ffb8bd4ada02U, 0xbbef9d083cb70f5dU,
  0x3d2dd6233ce612dbU, 0x3c411b69bd29556fU, 0xbd6eaf003c273298U, 0x3caf137cbd2ba1ffU,
  0xbd71c69d3d7d12daU, 0x3d24e38bbc2dd66aU, 0xbc9621cd3c98ce7eU, 0xbc156d4d3d29c93aU,
  0x3d55131fbd7d3643U, 0xbd9e68be3cc76eb5U, 0x3d053f3dbd18d6bfU, 0x3c915995bcf67989U,
  0xbc8b58583d33ea55U, 0x3d4089f1bbe3efe0U, 0xbd622e21bcdd6e8eU, 0x3d8da0213c8867b3U,
  0xbcfa25563d2919d6U, 0x3d22455abbd56be3U, 0x3b1c8688bca75006U, 0xbbd9aa5e3d348169U,
  0xbd0b7f13bd13c404U, 0xbd3b35c83c524189U, 0xbd1fc1ffbdb0c043U, 0xbaaafe39bd4eb9cfU,
  0xbd405cd13cac5192U, 0x3d3bfd86bd6594a7U, 0xbd9f4c1bbd8cc1d3U, 0x3ce815a83d469461U,
  0xbd07d7e73d76f3a3U, 0xbd4aca4ebd364e8cU, 0x3b6777dd3c895512U, 0xbb4bd0283c98e742U,
  0x3cc5b725bcc8e66bU, 0xbd2d73383bb1eea8U, 0xbda65bffbdaff5d9U, 0x3cb929cdbaf69e10U,
  0xbd44ad583d543da0U, 0x3d90f71bbd51e486U, 0xbc888ef5bc18f965U, 0x3d92921b3cac9fd7U,
  0xbc9600593c86605bU, 0xbd40473ebd145071U, 0xbd9bc747bd0900e6U, 0xbce7c5633d00dbe6U,
  0xbc194c42bd2d0652U, 0xbd938efe3d74b0a1U, 0xbd520a67bdc1568eU, 0xbcb327f83c9744acU,
  0xbd363a4f3b9bd81bU, 0x3db2e407bd10a010U, 0xbdb40ac23bd27832U, 0x3d855aea3c25e98dU,
  0xbd20ff4f3c8fa388U, 0xbcb1af06bd126744U, 0xbd24ace5bce7a480U, 0xbcf8f9093d9173feU,
  0xba9f249bbc748fdbU, 0xbc2f391dbb9cb824U, 0xbd29e77dbd3361ceU, 0x3c1986223cd3428aU,
  0xbd0b42713c47324cU, 0x3d13a71fbd209dddU, 0xbd8e4a21bbba8d63U, 0x3d93e7263d62dbb2U,
  0xbdb298f03d3ceff5U, 0x3c77b766bd44dc5aU, 0xbd677e21bccd64b9U, 0x3d26b1323d7077a5U,
  0x3c28b30dbce6039dU, 0xbc1249b03cd1355bU, 0xbda6dd85bd86235cU, 0xbc85f8b8bc283679U,
  0xbd206a71bc3682f5U, 0x3d72a712bc81d9abU, 0xbd105bcebd6053ceU, 0x3d0c3d183cf39ceaU,
  0xbcd9a13bbca0af24U, 0xbd655f1d3cf93cb0U, 0xbd0065ecbcccd72eU, 0x3ca3e3bc3d37b3b1U,
  0xbcd3ccfbbd824b8eU, 0x3c3d2ea33ce24d09U, 0x3d023410bd779597U, 0x3af88c0fbd1ad3b6U,
  0x3b99d51f3c9185f5U, 0x3d688b56bc6571dbU, 0xbd19290dbd5072c0U, 0x3d814beb3ceae611U,
  0xbc9bc195bc29a346U, 0x3d288907bd83a855U, 0x3a898a89bccf9e27U, 0xbbd2755dbc3b23e1U,
  0x3cbd0d30bc1c5265U, 0xbcad39c43d84eb28U, 0xbd5594e7bd58a8f9U, 0x3d3e2295bca7f1edU,
  0xbcabf3be3cf6175fU, 0x3dbf18823cfac567U, 0xbc8bbb8dbdb0001eU, 0xbb734f943be3dcbfU,
  0xbd614ee8bc8facd1U, 0x3c480d07bce8628dU, 0xbbfc2308bc456354U, 0xbbc9d8a13d89bf63U,
  0xbc733f74bc10df2bU, 0x3c9f32f93d7bc25fU, 0x3bfa4242bd71e188U, 0x3c6a11c0bc93628cU,
  0xbdab736d3d2674c2U, 0x3da2f72b3cefabd1U, 0xbcd1694ebd7d32abU, 0x3d28deb13ba6013fU,
  0xbcd34a08bc9184b6U, 0xbc888b22bce20414U, 0xbd20ee10bceb9387U, 0xbbe9ac4d3d575952U,
  0x3c81a539bc991fe0U, 0x3bed9d673d98921aU, 0xbcb85a15bdbec511U, 0xbb0efefcbbf94fd9U,
  0xbc9b91223d22fcecU, 0x3d98bdad3c56af85U, 0xbd4a8760bda719f2U, 0xbc623c743d02c9c0U,
  0xbdc77658bcb19e17U, 0xbc7088a7bd36686aU, 0xbd037f03bd81f119U, 0x3d2e71893ced541dU,
  0xbcef72c03d533393U, 0x3d01e65f3cf1d722U, 0xbd028543bd52a644U, 0x3c90b4a2bc7f4dc9U,
  0xbd895874bc190112U, 0x3daf138e3d56e99cU, 0xbd617651bd926114U, 0xbc33adc33cf2ded4U,
  0x3c5b298fbb4dda7cU, 0x3cac6190bcceeb39U, 0x3c8ae06b3ca5e3c1U, 0x3cb8829e3cd84343U,
  0x3d58b40a3cf3ad9dU, 0x3d2f277cbceb15b6U, 0x3ceb7e0bbce2a704U, 0x394420823d080e24U,
  0x3cdb480d3cdc88eaU, 0xbceddefebbed7de3U, 0x3d74a6823d151a41U, 0xbccbbd87bd4269b1U,
  0xbd694446bc14f1ccU, 0xbd00dd233b37978aU, 0xbccece943d62dab4U, 0xbc1feb41bd590fd3U,
  0xbbc71e3a3d486d0eU, 0x3d6283003d2f8846U, 0xbc1d5c71bd432053U, 0x3d0fb1b33d9197b1U,
  0xbc1334e13c943839U, 0xbd14aeb23c334d46U, 0x3bcd92723cabac2aU, 0x3c1110f8bd81e455U,
  0xbcc1452fbc0fc185U, 0x3c2c1676bd3c599eU, 0xbd9f63c13d6c72ffU, 0x3cfe4eccbd2452b1U,
  0x3d4960463c8509d0U, 0x3d9d36273cdf5f8bU, 0x3c34531abab89c7fU, 0x3d459bd13d36f838U,
  0x3c28112dbca74f55U, 0xbc25ceef3ccd4425U, 0x3d4d7f0039891d44U, 0xbce5a652bd2d126eU,
  0xbbbf1d1d3cbdb891U, 0x3cd68966bcc081b8U, 0xbdb1d6833d23a2f2U, 0x3d739654bcdc59f8U,
  0x3d19b7133ca7a437U, 0x3dab9d0f3c997205U, 0xbcd48a2fbd08fad9U, 0x3b823fa23c13a975U,
  0x3af879f23d11ce07U, 0xbd03f72f3d30a35eU, 0x3ce1cfc83b41f7b3U, 0x3d43cf8fbd803736U,
  0xbd836c103c4bf314U, 0xbc0ce82cbcafe1c1U, 0xbdaec4e33d7aa3a7U, 0x3da55cef3cc372fdU,
  0x3c63f2ba3d539250U, 0x3d6acca03bcbbfedU, 0xbb66d94a3d24dc6aU, 0x3d691d053d3238e4U,
  0x3ba5e61a3d3d36d5U, 0x3c74ca3f3c9b1e7eU, 0x3d4ec9ed3c81a807U, 0x3d171b6ebb306942U,
  0xbd11b3c1bd88d34eU, 0x3d809eec3aa5694eU, 0xbd1a75d43d722c8bU, 0x3da033173c1d323bU,
  0x3d0822cd3d0c91b4U, 0x3d81df7bbd1e3a9bU, 0xbc051955bce5b356U, 0xbc0d6bfc3c038986U,
  0x3bea5e6cbc04e71bU, 0xbcb855613b0f0f42U, 0x3d653766bd759f4cU, 0x3c3cc202bd283fabU,
  0x3c420aa8bd096756U, 0xbcf5cee6bc5c979dU, 0x3d85fc603c1e864dU, 0xbcf3c8aabceeaef0U,
  0x3d76e4843d4d5f9eU, 0x3a456ad93b9b7effU, 0xbcde0ab2bcaa7fbbU, 0xbad6a7803a5aaa62U,
  0xbd56f9da3ce6faadU, 0x3c99226c3c989b08U, 0x3d4c2946bcf8083cU, 0x3b695675bd4a8f7eU,
  0x3d0fb8fb3c486041U, 0x3d5c1777bd37a9a2U, 0x3c5db0debbfbb229U, 0x3c96a89ebd8f7fb6U,
  0x3c53dccbbb86924aU, 0x3d84e211ba28cf3aU, 0x3beea2703c878237U, 0x3d0dd2a03d858306U,
  0xbcbde28a3c161e67U, 0x3d30e5633d8d5aa2U, 0x3ca590b53add95ebU, 0x3cb2f3a2bd074f7cU,
  0x3cb9eea6bd4f20baU, 0x3d25565f3a8a62b2U, 0x3d40bf903bb472abU, 0x3c3a1f1dbda11c84U,
  0x3ce041623d49b692U, 0x3d166cd2bbe9f116U, 0xbcdf6461bced998fU, 0xbd56a3c53d3ea294U,
  0x3c8cda923c528dd6U, 0xbd0ed9f53d10174cU, 0xbcf017f8bd7bad41U, 0xbd4b19fcbd52e795U,
  0xbc9c10fabcd68ea5U, 0x3cf3ed7bbd3ef5d9U, 0x3d800cf63d277ab9U, 0xbb972857bd327e11U,
  0xbd136c3bbc324576U, 0x3cee402a3a9b7572U, 0xbbf6b59d3b439f56U, 0x39b1375a3d1ebe9eU,
  0xbcd5f52b3d514ff9U, 0x3d02369f3c2ff936U, 0x3cdeebe8bd54b2e9U, 0xbcb9f8213c30e4b9U,
  0x3d232017bac5c50bU, 0x3d5cae30bb462971U, 0x3b94369d3c826e83U, 0xbcaa046dbd1dd617U,
  0xbb5e3cf63c816810U, 0xbcfed9fe3b3c0e46U, 0xbcdc3e9abc2bfae5U, 0xbd315628bce22a02U,
  0xbc8d1e25bc9860edU, 0xbd36f080bc16d695U, 0x3cd99ae8bba71d22U, 0xbb78cb083d28d655U,
  0x3d8dc03fbd43f1b4U, 0x3d3f08303d8e1860U, 0x3d89b303b88bc455U, 0xbcd26ba7bcc3729aU,
  0xbd61265d3c0e94ceU, 0xbd4abd4bbc015aecU, 0xbd65585b3c28cc5aU, 0xbc8380893cb1b894U,
  0x3cc3812b3c0e92e2U, 0xbd7c30e5bcd38258U, 0x3c88a9993b600703U, 0xbd185d7b3d238b10U,
  0x3d862e64bd6c10d5U, 0x3c3a91ce3d8079a6U, 0x3daf96e4bcf81e52U, 0xbd4896d2bdaaf97fU,
  0xbce465df3b63d2d6U, 0xbd06e444bd443964U, 0xbd1c2a9d3d3779b8U, 0xbcd4731cbc60778dU,
  0x3c7041ab3c492b17U, 0xbd79e0ddbdb5531eU, 0xbba64df0bc158001U, 0xbd410a0f3d5b2371U,
  0x3d8b52083c3e2b21U, 0x3d5addc23da21d75U, 0x3d68bc59bd6035a4U, 0xbd7bc54cbc49f54dU,
  0x3c0e2c6bbcd7fabdU, 0xbd2a8ab3bd16ab58U, 0xbc81f1773c55735aU, 0xbd928bf8bc231a77U,
  0xbc9d64d83d0ed058U, 0xbcd21a96bdcb2326U, 0x3d5c77f63d0aad6aU, 0xbbb92b323dbbf559U,
  0x3ce48377bb28c889U, 0x3cc1191f3d08ec50U, 0x3da722e2bd8c5fa2U, 0xbcb6823dbd9685b5U,
  0xbd301531bc6f1370U, 0xbc6ac47abc8aabcaU, 0xbc6c0ac33c8c8738U, 0x3c604cd1bd77cc4bU,
  0xbc2963aa3d52256aU, 0xbcd8adf6bd228489U, 0x3c8f6fb8bc49ca23U, 0xbd2298ca3d4074e5U,
  0xbb8f3136bd6bab87U, 0x3cb23fce3c68a65eU, 0x3d8182bbbbca4e7fU, 0xbd9e88b5bd404570U,
  0x3c93ef90bc366a59U, 0xbbdd8a363becd76dU, 0xbc594b6d3d1fbdd6U, 0xbc8c8ebb3c38af23U,
  0x3b5900ad3c613637U, 0xbd2ce483bd925f31U, 0xbb261982bd848a65U, 0xbd7805903d15df61U,
  0x3c62e5823c91ec19U, 0x3ca7c8283d8e03ebU, 0x3d464a66bc06f5dbU, 0x3c8ba2f1bd912bf4U,
  0xbc3623ea3d1ee386U, 0xbcf8e19dbd9d62d8U, 0x3d089c46bb96adb5U, 0xbcb5b0cabd8a62dcU,
  0x3d08b88a3d77fc71U, 0xbca58efabd426ce2U, 0xbca1785d3c7c1b9aU, 0xbd22c25f3ccc33a6U,
  0x3d9c26b7bc88d0a3U, 0xbb7025923d9044e4U, 0x3c80e21ebd97b502U, 0xbd56cadabd4669f2U,
  0x3b455874bd0e5a92U, 0xbd06fac6bd9e6fc4U, 0x3c9274c43bd55568U, 0xbd044d18bc1f226cU,
  0x3c9c57a93ce667f8U, 0xbcf46250bcccd5f0U, 0xbc3a779a3cfc34b2U, 0xbd5f876a3d2ee48bU,
  0x3cc819b3bbac09d4U, 0x3d20db283d8d6f44U, 0x3d35e0f4bbd473bfU, 0xbda2d909bc35bbe9U,
  0xbca4c6383cb740e2U, 0xbd9aec65bd0a3c90U, 0xbc3464b13c0efe0eU, 0xbc69a435bd8f2f62U,
  0x3d7c6fb23cdac7d8U, 0xbd5cd458bdaa6ceeU, 0xbd24480bbbc1b5c3U, 0xbd6ebfa23c3ea1aaU,
  0x3d790a003c57de6cU, 0x3d341f2d3d8d1974U, 0x3d289821bd8c929dU, 0xbd541d71bd423f36U,
  0xbbc741eabccdc74aU, 0xbda59e6dbdab9f8dU, 0xbd16efaf3d220391U, 0xbd5a3fa63b93d3f4U,
  0xbc6e22c53cf1cb5dU, 0xbbf46e7ebd77400eU, 0x3a78d9813aeb1165U, 0xbcc6c82e3cbf82abU,
  0x3d87c2ffbc029dc2U, 0xbcfca6663d844e20U, 0xbcd646a6bcf8c20cU, 0xbba848e8bd07c5afU,
  0xbc13d336bc396cb9U, 0xbd0c346c3baa0a31U, 0x3c771e383d1c0ccaU, 0xbd0c788639a2df5fU,
  0xbca3eb493cfb09faU, 0x3c468c44bd042886U, 0x3d0964debca3e8ddU, 0xbdac00343d3bbae7U,
  0x3cf9f1efbd829141U, 0xbbd9863c3d0fb22eU, 0xbb1e9ea5bc351ccfU, 0x3c930cdc3c01625bU,
  0x3cc1b5503d9106b2U, 0xbd2ce156bd89d13dU, 0x3d8586623d011997U, 0xbdc84a78bc28cd69U,
  0x3cb1ba973d177ceaU, 0xbcd414f63c152ae5U, 0xbd5123553c938783U, 0xbcccf91e3cdf9066U,
  0x3d692d9abc71a374U, 0x3d4e0abf3aeb8135U, 0xbc600407bc5bb389U, 0x3d185c7ebd21627aU,
  0xbbbc22723d8a4259U, 0x3d28cef5bc31b4b5U, 0x3d963d6a3d202175U, 0xbd5cbc683c21433bU,
  0xbd1c5cb63da53033U, 0x3bee87bc3d57e716U, 0x3c450251bc7d1be2U, 0xbda491bbbc4a2371U,
  0x3d12f127bd232972U, 0x3a9ce7c3bd020f8aU, 0xbb85b3193c53d106U, 0x3cf506abbc09238eU,
  0x3cc2e70e3db55043U, 0x3d0fe69fbc9f4663U, 0x3d4c5806bbd2d4beU, 0xbdd1fe463d1b3bd6U,
  0x3ca3e4dc3d288ce2U, 0xbc9d68643d055c91U, 0x3d0e8ad53d0c006eU, 0xbd39465f3b9d09efU,
  0xbbd342e4bd9e47cbU, 0x3ce71cd8b9914ac7U, 0x3a3df11bbb4fcb68U, 0x3c15e223bc3c57bfU,
  0xbcd3fb743d858ebfU, 0x3cfe1a4abd79e140U, 0x3d1987663d48e43dU, 0xbd2c386f3d53e24aU,
  0x3c7da6f73d8372caU, 0xbd88ca26391beefaU, 0x3c239faf3c0b5f65U, 0xbd8bed233cd1cf6aU,
  0x3c8048a4bd6b51a5U, 0x3d65f95fbd335f9eU, 0xbcf2b547bcd4254fU, 0x3cfc8d54bd7e77afU,
  0xbcf76ae53c955b73U, 0xbd3b9c74bd524877U, 0xbc1e2d363d1fe963U, 0xbbe26052bcc57a2dU,
  0x3c3f0879bb912026U, 0xbce9f69f3cada3d5U, 0xbbbc437f3d29f2abU, 0x3c9d725ebcf86f46U,
  0xbd92ca2d3c9c09d1U, 0x3c97f56fbbce1115U, 0xbd79c27d3b1e3474U, 0xbd4cbbd23af5c8daU,
  0xbd777ae6bd82163fU, 0xbd43b42cbd70426bU, 0xbd6ba930bc14ce5aU, 0xbb8f58c6bbf3957fU,
  0xbd4fe8763d482f06U, 0xbcec60823af78ed7U, 0xbcad292f3cec3533U, 0x3cd4b4dd3d071373U,
  0xbd0e5758bce764bbU, 0x3b7be2433cc26516U, 0xbd2709d6bcde17a3U, 0xbd84584ebd26deb5U,
  0xbdab5566bd220e95U, 0x3a82d31bbd50621eU, 0xbb87271abcb95cbfU, 0xbd8e5f96bcb50e84U,
  0xbcea60563c1f0356U, 0xbd5567c6bd4b9ddfU, 0xbd2d8c973cf572ecU, 0x3d1b1595bce09c6aU,
  0xbbb4b5213d4e8a1eU, 0xbd0a61a9bce9754dU, 0xbcdb5594bd34e04cU, 0xbd3ebcedbcb509bdU,
  0xbcef0c34baf0abe6U, 0xbd26a950bd0781baU, 0x3bfd11a43cd53c3fU, 0xbd6438adbd8a5985U,
  0xbd935a7a3b93ffc8U, 0xbcfb1471bd08822bU, 0xbd9ebfbf3c40d979U, 0xbbb12a8c3d094d7fU,
  0xbd037662bbe5af3eU, 0xbd29ea833c7c4f9fU, 0xbda34a2fbceecc3fU, 0xbd8360a73be6cd97U,
  0xbd85dea5bcfe158dU, 0xbd3a09e3bd768092U, 0xbc101d43b8da3d3eU, 0xbca2fa67bd479628U,
  0x3bb77d6d3b823b73U, 0xbd6d663bbd55db84U, 0xbd20bea1bc74dd27U, 0x3bcecc4d3bb8e38bU,
  0x3c3f40213c39e691U, 0xbda452b33cdc2b89U, 0xbc290d68bc975298U, 0xbba352f13ccf3563U,
  0xbcee3950bcc66993U, 0x3c1561ddbd10110cU, 0xbce131d3bd0bddecU, 0x3c91380bbd785f98U,
  0xbb87cd623ca003b9U, 0xbd31574abc5b862cU, 0xbce0ef5ebaba0f18U, 0xbc94f702bd62f8c8U,
  0xbd1e0f0abacff06aU, 0xbd8a94a73d2f0475U, 0xbcd726b2bd41bf47U, 0xbcc2d696bd1dff0eU,
  0xbd1f0f79bbfe7d0aU, 0x3c9d70e9bdb4bd8dU, 0x3b17a509bd08f33eU, 0xbca4b775bccaf546U,
  0xbce60293bd600889U, 0xbcad14edbc985a27U, 0xbd367efe3cab3d4fU, 0x3c7162a0bd315b87U,
  0x3bf8e3d0bd6e8b37U, 0xbcd7a0813cbbaa3eU, 0x3c16f9d33a3cd7cdU, 0xbc2f95e0bd2bc0adU,
  0xbce3ace53c919813U, 0x3c687092bca0e56aU, 0xbd90b4493c1c55a9U, 0xbd0182cebcbfb23aU,
  0xbd4cdc11bce64e04U, 0xbc1c53f1b8f29154U, 0xbd2b14ed3d08e369U, 0x3c27029bbc736a40U,
  0xbbcbc71cbd78e07dU, 0xbd811eebbcbf8960U, 0xbd506f28bcd6c1e6U, 0xbca39424bd88c1abU,
  0xbc03a398bd419802U, 0xbc0c3b75bd191628U, 0xbc9a051c3c51b74fU, 0xbcb2d12bba8aa3f4U,
  0xbcb25305b8240608U, 0xbd06fae3bc24cdd8U, 0x3a0a84563d0a6440U, 0xbccc9b39bd75fdf6U,
  0xbd20bbe2bcee271cU, 0xbd9a6d2c3bdb839bU, 0xbdb4f0cebd41b17cU, 0xbc60f568bd671501U,
  0xbd16d754bbededccU, 0xbcf8d56cbcfbf83aU, 0xbd5c94b8bd0e86b5U, 0xbd92486abb8b35c2U,
  0xbb660c9bbd175732U, 0xbd5b1d593ca57003U, 0xbd3fb77b3cb8cfb6U, 0xbc8d3c94bd6ef602U,
  0xbd30c5d5bdb87611U, 0xbd5c53213b8b035cU, 0x3b6dbb4abcbde95bU, 0x3c2d0c35bd014d54U,
  0xbd1f6921bcc70e83U, 0x3d0105d53cad7963U, 0xbc3f76abbc10a386U, 0x3cd87bb7bce1fddfU,
  0xbcec51f63bc5cd2cU, 0xbc595ef43cc58fa2U, 0x3baa721c3c5096b1U, 0xbc8ea923bcc482c0U,
  0x3d4f46383d073ae0U, 0xbd98659e3d121048U, 0xbd78877c3d8bcc44U, 0xbab313e3bd294baeU,
  0xbd2555a23b902ad8U, 0x3c95c9f5bd1cd438U, 0x3ceccd7a3cdd4ea1U, 0xbaa4bda7bcad9f1fU,
  0xbcd92a8cbd06c336U, 0x3cd6ed843d7d58b8U, 0x3cdb22dcbd961012U, 0x3aebe525bcf7d40cU,
  0xbc449357bc27b14eU, 0xbd7cf5013ad4651cU, 0xbd3f30ad3d70d9d6U, 0x3d761fecbcd1f4f0U,
  0xbd891b99bcb3d7c2U, 0xbc9125983b9cb63cU, 0xbc46fc72bbe6f857U, 0x3ca6ecf6bc33ec9aU,
  0xbd8ec676bca51470U, 0xbce6f1773c573bb1U, 0xbbd7a795badbd75fU, 0x3d221532bcf9d022U,
  0xbb01edf5bd069838U, 0xbd13ed50bcd8a769U, 0xbcfcdef23d4d8facU, 0x3d0f405b3d04bb27U,
  0xbd3fec5a3cda0d32U, 0x3cb5277b3c9927f5U, 0xbbc5bbcd3c806a63U, 0xbd0f6eb43cbc2406U,
  0xbd1c35b4bb96958fU, 0x3d5240103ca1f44bU, 0x399db6bbbd9c3c92U, 0x3cdc2b81bd04792aU,
  0xbc4a4e00bc95ff32U, 0xbafbb252bbdfce5bU, 0xbd68f1003d713beeU, 0x3d502afb3d6453c2U,
  0xbda747903d0a8de9U, 0xb74f53593cf967d9U, 0x3a49700c3d5d8eceU, 0x3ba70843bc5e7dfdU,
  0xbd8f7327bbd2948eU, 0xbbab94923cfb865bU, 0x3cfe7d12bcede7beU, 0x3d8bc652bc3c6295U,
  0xbd40f6483c6658f6U, 0xbd10ece93ca5c351U, 0xbbb344a63cb52c29U, 0x3d1345573d3a5fe7U,
  0xbc14026ebc2ec387U, 0x3d1f603f3d4178a9U, 0x3c8134e9bd248d6bU, 0x3c0899e03b583670U,
  0x3d4a271fbd212c60U, 0x3d60ade2b9bc19d0U, 0x3d2e21463d159ddcU, 0x3d8ab173bd4083f0U,
  0xbcb9e417bc786caeU, 0x3d94a8643c2dec0bU, 0x3cda5ad23bc4c05eU, 0xbc058689bcc39009U,
  0x3d4390e13d14de3bU, 0x3d90559e3d25ce52U, 0xbd77d7fe3a2c4eb3U, 0x3d3c11da3c5e666dU,
  0xbc7ee25c3cc1a02fU, 0xbc27d450bbe1f3bdU, 0x3cc78bf2bdb1c6c7U, 0xbc530d383b18a14fU,
  0xba5038f13d71b83fU, 0x3da5b7bfbd10ede6U, 0x3d225bef3ce1eebfU, 0x3d48e0e43b31236bU,
  0x3bd4618f3d84ae0aU, 0x3cc4a0f83cd677d2U, 0xbaeece4b3b740032U, 0x3ca8fa533d99245fU,
  0xbcc5fc083c82e831U, 0x3d2e81e83c83490fU, 0x3cc64e75bd7b06d5U, 0x3d12fa493c8d549eU,
  0x3c9947e63d4af5daU, 0x3c9f795dbd279dc8U, 0x3c5e375a3d66fef7U, 0xbb5b6f193d3e36c6U,
  0x3d92fcf73d949f58U, 0x3d39e8163d5922e8U, 0x3c5523eb3c85cb6fU, 0x3d448bcc3d76b59fU,
  0xbcfde6513c90f4a5U, 0x3d8da2a4bbb87015U, 0x3cd59c60bcb93f02U, 0x3b89a9e03cb76453U,
  0x3bcf5d443cb2fc47U, 0x3d9e96413c8f00ccU, 0xba46bb243d893829U, 0x3b54c1c3bc0ea1adU,
  0x3d02f9c23d60653aU, 0x3c174c903d5b07bdU, 0x3c2cc50b3cfdd633U, 0x3d5d40c43d6cccaeU,
  0xbc9a265a3d1ff148U, 0x3d17b083bc382841U, 0xbc74cca8bad24356U, 0x3c40a74d3d3f36fcU,
  0xbc581af53d3144b2U, 0x3cb07c2e3accea1aU, 0xbd0738483bd237d5U, 0xbd052ce0bc62aaa7U,
  0x3d25d8a0ba1502f7U, 0x38b43dd13ca2ae5bU, 0x3b300fefbd809d17U, 0x3d411b373d03f10cU,
  0x3c0a60093c2732bbU, 0x3ce23bd93d240afeU, 0x3d53a73cbcee10a2U, 0x3b873554bd2472a8U,
  0x3d4397ad3d348ac9U, 0x3afab39f3b638c9fU, 0xbbc3393b3c60b455U, 0xbca2fe6ebd5abcaeU,
  0x3d3640a93c3f8b7fU, 0xbc2a11d4bc03b516U, 0xbc8ffc6bbdb8926eU, 0x3d9447a1bcbc7809U,
  0x3caa3d263cc7fcfeU, 0x3c8ca1713c828193U, 0x3d33b1703c0326faU, 0x3c712a27bd0e0b39U,
  0x3d22fdb23c73f52fU, 0x3d065699bd0bc48bU, 0x3d46e8d63d5f979eU, 0xbabab151bcc20c08U,
  0xbcd692cabd2bd146U, 0xba3f7c9dbc8853dcU, 0x3c65c6f0bd599225U, 0x3da272033d3c6fe7U,
  0x3cf14dc13b5c0185U, 0x3c839430bcca8b08U, 0x3ba9b7d4bcd15b1cU, 0x3c40fe30bcb1e54eU,
  0x3cc788b03d59b630U, 0x3c8873a7bd3c4dacU, 0xbc56a7ba3d61bbf8U, 0xbdabd9193d06e5edU,
  0x3c4a0e03bd14d169U, 0xbc86387bbd93b1cdU, 0xbb1d8766bd32246cU, 0x3d272bd23d35ff7cU,
  0xbbf20c9d3d22b99dU, 0xbcf88d44bd35ad7fU, 0x3c7457d9bc9ac352U, 0x3cea3fc33c7d223cU,
  0x3a86fd673ccaa4f5U, 0x3c25e715bd173e99U, 0x3d0ced4b3cf503a9U, 0xbdb13a3bbd0dbdbbU,
  0xbc623a663d38190aU, 0xbcebf7c43c25d6ccU, 0xbc4d5cbdbc661626U, 0x3d5438443ce6b28aU,
  0x3c3096bf3bc7d420U, 0x3c9234b5bc30a64cU, 0x3d1ce6a73d68739eU, 0x3d76baca3d027a98U,
  0xbba454873d77197bU, 0xbc9147dfbc1a6624U, 0x3b8405283d1a8082U, 0xbcb9bd8f3c1917fbU,
  0x3cc19dc3bb621b39U, 0xbcae5bf63c487265U, 0xbd49a453bc144f28U, 0x3d3faf723d00d8f3U,
  0xbd13e8babc2e4635U, 0x3d2f0e69bcb8c61cU, 0xbc8048223c9de938U, 0x3bd0856ebcdf5e22U,
  0x3d394f24baa1bb5bU, 0x3d071a583c8f8e24U, 0x3d24f3b83cd3e9b5U, 0x3c8931e9bcd44036U,
  0xbd0db8eb3d8b2701U, 0xbc12dc46bb914b6aU, 0x3ceb7e5a3ba60d2eU, 0x3bef9c2a3c2a76c9U,
  0xbd42aaddbcea9362U, 0x3ca1f22b3d03c949U, 0x3d80af37bd338c9bU, 0x3bc6d0543cd6b4f8U,
  0xbd377252bcd3fe71U, 0x3d81e7cebc126972U, 0x3c6857bd3d899109U, 0x3cda0c3cbc9fcd05U,
  0xbd0165e83c7e2e43U, 0x3b4598693921c265U, 0x3bc531a93d2c463fU, 0x3d5f1a603c4339acU,
  0xbd0cfba5bd5ad4b9U, 0x3d071dc53d58d5c0U, 0x3d7a1d2a3be4a984U, 0xbd0003713ccb9a87U,
  0x3d0e609f3c017d9eU, 0x3d988da33bed9d34U, 0x3d299de5bc4f9817U, 0xbc96b7663bef6ecbU,
  0xbd2f5a2f3cd035a4U, 0xbc477001bd223425U, 0x3aebbc3fbc65ce2bU, 0x3caf2b75bbcf5a89U,
  0xbc4848a1bbb43638U, 0x3cafbbc03b5e401aU, 0x3b9562c0bbc70021U, 0xbc53f751bc92a905U,
  0x3cee65c6bcd2e37bU, 0x3a4b739d3ceaeda2U, 0xbbab63a33d382e77U, 0x3d73d34fbd0c38a6U,
  0xbd45bc8c3d4ef38eU, 0x3cce6e56bd2306b7U, 0xbba9bb723c8babcdU, 0x3cde61e53ccb5b48U,
  0xbd2e9a7fbd5290d8U, 0x3b816a2c3ca513c7U, 0x3d54ca7cbc332fdfU, 0xbc8b360d3ce7a847U,
  0xbcef4440bd14c404U, 0x3cbb409c3b2fa29cU, 0x3a941d2d3cbe3500U, 0x3d12c5cebcbf8bb9U,
  0xbd65fcf03b10b3f0U, 0x3cef3e58bd221fc0U, 0xbce77d8e3d0ea006U, 0xbca519bbbc195ce3U,
  0xbadcf3cc3c467029U, 0xbd2034df3c9b112fU, 0xbcaa9b0f3d5bb4ccU, 0xbd84146b3c44d292U,
  0xbcd4b64f3d56fcb0U, 0x3d883b9ebd54b6d2U, 0xbcb68893bd7059f3U, 0x3c869bfdbd172318U,
  0x3b8c5be63d3336e5U, 0xbcc594673b850b16U, 0x3ce29ec7bb2d4983U, 0x3c0c12c0bd4e5a03U,
  0x3a98c080bcd0465dU, 0xbda60c21bc9e5e09U, 0x3d8fab3fbc387f9bU, 0xbd00bd863b788f8fU,
  0x3c75f1b13c385421U, 0x3d81f53ebd264963U, 0xbc36de4dbbcf9ac7U, 0x3c5b31b6bd07e10cU,
  0x3ac9f54cbce1b452U, 0x3bb100d5bca944fdU, 0xbce97ad3bc028c85U, 0xbc9dc4a13a85f010U,
  0x3ad56c72bc529b1cU, 0xbdcb38c3bd371674U, 0x3cf025603c9c41d9U, 0x3c8189603d75c633U,
  0x3ce052b6bb910770U, 0x3d43bdf1bd05eb76U, 0xbc8e7fedbd5c08c9U, 0xbb1a2be2bd118883U,
  0x3acb64f63c29d1bcU, 0x3c4aac63bbee63cdU, 0x3c8e558f3d1cece1U, 0x3d020cfebcdfeab9U,
  0x3bb2d9fbbc0f9074U, 0xbbab6a9e3cd0b7d7U, 0x3cc3302a3d02412eU, 0xbd0c6bf83d81c3feU,
  0xbd121bc33d54c8adU, 0x3ac827c7bd3a9015U, 0x3d6236bcbcf573d6U, 0xbd07bc7ebd1485eaU,
  0xbc1df33b3cebacacU, 0xbd17adbb3bf58917U, 0xbc9eddc2bd2e794eU, 0xbd2211953b5c7639U,
  0x3d01a6193bc8da5dU, 0xbd3156f5bc8eaf58U, 0x3d8685cb3c6716c0U, 0xbd0f7a4b3d01c5e0U,
  0x3b3741863c2e9354U, 0xbc0bcda4bd222ca2U, 0x3c6170493b6877e6U, 0x3c8c00fd3b9426c8U,
  0xbcf87d94bc04fe17U, 0x3d718ef93c15c84bU, 0xbc909a623cb5da0bU, 0xbc504c253c83a4e5U,
  0xbc948500bc759b92U, 0xbc86ce6b3d4eb8b4U, 0xbce96320bccf0d70U, 0x3ba2e5a23bf1f86cU,
  0xbd6f667c3d2f30a7U, 0x3af72b2cbcab564eU, 0xbcc1e93abcc4f494U, 0xbcf52832bd84663fU,
  0x3ca489273d57e896U, 0x3b8545b2bce83a99U, 0xbb9ccf51bd02be5dU, 0x3c5fc6cd3d4c9195U,
  0xbce502443bf4af4eU, 0xbc55134f3d5b3a5fU, 0x3d18d18b3d8d2d7aU, 0xbc721f7c3cd7430dU,
  0x3b866d543d5dc1feU, 0xbb045509bd546229U, 0xbca186223cc814beU, 0x3d733cb6bd35c331U,
  0xbcda72853d16a4ebU, 0x3c68f843bda9f17bU, 0x3c928cfb3b65febdU, 0x3d2723433bb1e05eU,
  0xbd3e5ab7bd4f7464U, 0xbd1376a23cb50a74U, 0x3d10e6183d71b078U, 0xbd6ae3903b9b4e3eU,
  0x3c4e61c1bd36b13aU, 0xbd55d348bd5b6b09U, 0xbd832f2a3cc92209U, 0x3d6255b0bd65a4e6U,
  0xbd22e6943d6e29dfU, 0x3cd2a835bd49010fU, 0x3d56728cbc36e07dU, 0xbb339c4c3d4bcdddU,
  0xbcc6079fbd7fecdeU, 0xbd4532b93bd204e5U, 0xbbe5b13e3d465315U, 0xbd81b7fdbc19da3bU,
  0x3c274f53bc7f9876U, 0xbd23832cbcbfbd97U, 0xbd531c8fbc35c6faU, 0x3d899540bc09e94eU,
  0xbc53b0e53d7b8ee9U, 0x3d1c6b1bbd8f03fcU, 0xbc80df55bd179e01U, 0x3b8b23b13d084f71U,
  0xbd2d38463bdd9db6U, 0xbb935fcb3d6d781bU, 0x3cd578753d268a46U, 0xbd8eecb6bcb38da5U,
  0xbd3a350bbd3f79a3U, 0x3caa697bbc217cd8U, 0x3cc153b03cc87c9cU, 0x3d8e69f2bd537d19U,
  0x39b474723c8bdca6U, 0x3cd0e5bcbd37b8a0U, 0x3a5800ac3d8300cfU, 0xbc2d82273c6f390aU,
  0xbd8aca1e3c2e35e0U, 0x3b211b753c03e26aU, 0x3cae02e33bb12f93U, 0xbd7eebdbbcad1011U,
  0xbac674a8bd57f06eU, 0xbbdc826bbd960d95U, 0x3bf8d5173924b2cfU, 0x3d1bc76fbb062542U,
  0xbd5e0bc83d1b3027U, 0x3d766daebd714f1cU, 0x3d4f25013c9a1bc4U, 0x3ca926cdbc932455U,
  0xbd9819b4bd19521bU, 0xb9b5fdd23d90010cU, 0x3d8e715e3d375e9eU, 0xbd2916d53cd2bed5U,
  0x3c74e1d8bd1830a2U, 0xbc3c674dbda43115U, 0x3d3b9e383cac0403U, 0x3da22728bd886ef7U,
  0xbc97e4d53d4ef90aU, 0x3c852c38bda1c6fbU, 0xbbb8687c3b9631e7U, 0xbc52aeedbbcd3f03U,
  0xbd9e66fabdacd083U, 0xbd5c2064bb672642U, 0x3cbc15433d376d7bU, 0xbda4bd083c4ef5beU,
  0xbd793877bd8972dfU, 0xbce71592bc81c201U, 0xbc01eeb53d1aae00U, 0x3da47f6ebd86874dU,
  0xbd803b2d3cbfd00eU, 0x3d8d8479bdc4f14eU, 0x3d6ff4d23d2e55faU, 0x3d1548733c248c86U,
  0xbdc2709bbdb68149U, 0xbd0d7a843cd625d6U, 0x3d81d2083d1fc146U, 0xbd4c42413cb1dee5U,
  0xbc918328bcdc2d80U, 0xbced0becbd9f6348U, 0xbcc1de9cbcbae5dfU, 0x3b619cc9bd948965U,
  0xbd59974b3d3033dfU, 0x39aaf66abd3aeb8eU, 0x3d1a92623cadf691U, 0xbb8c83403cf5dd50U,
  0xbd36b090bdb76493U, 0xbd349c693cd67824U, 0x3d4c8eaa3ce4981eU, 0xbdadd6aebd020b24U,
  0xbd158bb7bd8851a1U, 0x3cb757fcbdada4e5U, 0x3cc64f403c95a062U, 0x3d1714093be9c758U,
  0xbd98fc613cff5417U, 0xbc1d6764bcf57d80U, 0xbd76819b3d34dee8U, 0xbcab72083cf6a16dU,
  0xbd3df7fbbd37e7fcU, 0xbc42e6a53bfb00c2U, 0x3cc7a3823d6267d6U, 0xbd4fe74fbd0e81e9U,
  0xbd8bbeffba8248a9U, 0xbd831f1f3cd56830U, 0x3d0d0aabbcadf651U, 0x3d49dc1dbdafa39aU,
  0xbd8bddf9388bc49fU, 0x3d164f37bcb530b1U, 0x3c6d6ea43da3f834U, 0xbd9e44cb3b0f07e1U,
  0xbd866119bcd8dc92U, 0xbca954a3bbf5081cU, 0xbc93bba23d947903U, 0xbcaddbd73d281e16U,
  0xbda7cfbdbd1036a0U, 0x3bdb91ae3c295fe5U, 0x3d1eaeed3d2c1760U, 0x3ccba074bcf4f84aU,
  0xbda92b7e3be58d2eU, 0x3b15fc21bd7ffa12U, 0xbc717c013cca8f3aU, 0xbd4bcd1c3d072575U,
  0x3c616c2ebcba27b1U, 0xbd62f2283c386b5dU, 0x3d1530223c389fb6U, 0xbc536442bc191c7fU,
  0xbd298e3a3d29a5c8U, 0xbd5d49383d2ebe11U, 0x3d381d7a3d6d479aU, 0x3d35ec58bd4c3984U,
  0xbd827edbbd65a597U, 0x3be76418bc223e49U, 0xbd964d073d9d556aU, 0xbd7a71f03c45ac99U,
  0xbd8524bcbd8074faU, 0xbd567976bcce40beU, 0x3d76e1ab3abd5c98U, 0xbcedc27f3d6b1bbcU,
  0xbc063aef3d31f1efU, 0x3bd1433c3d4441b8U, 0x3d5fd6363d46b7b9U, 0x3d9a9cd6bdc320d0U,
  0xbd768b45bcc0f932U, 0x3cf938e9bd00af23U, 0x3d1e07033d72d209U, 0xbd527c34bd2a0197U,
  0x3c1a361cbdbe1bbeU, 0xbc406e77bd03ad1aU, 0xbb4f2f763c4f0808U, 0xbda346e7bc31938dU,
  0x3c59035d3c9237c5U, 0xbb3e6f5f3d0deaa8U, 0xbbf60dedbd082389U, 0x3d2cb3cebd5051efU,
  0x3914b5faU,
};


ai_buffer g_model_data_map_activations[AI_MODEL_DATA_ACTIVATIONS_COUNT] = {
  AI_BUFFER_INIT(AI_FLAG_NONE,  AI_BUFFER_FORMAT_U8,
    AI_BUFFER_SHAPE_INIT(AI_SHAPE_BCWH, 4, 1, 12624, 1, 1),
    12624, NULL, NULL),    /* heap_overlay_pool */
  };
ai_buffer g_model_data_map_weights[AI_MODEL_DATA_WEIGHTS_COUNT] = {
  AI_BUFFER_INIT(AI_FLAG_NONE,  AI_BUFFER_FORMAT_U8,
    AI_BUFFER_SHAPE_INIT(AI_SHAPE_BCWH, 4, 1, 25124, 1, 1),
    25124, NULL, s_model_model_weights_array_u64),   /* model_weights_array */
  };


/*!
 * @brief Get network activations buffer initialized struct.
 * @ingroup model_data
 * @param[in] ptr a pointer to the activations array storage area
 * @return an ai_buffer initialized struct
 */
AI_DEPRECATED
AI_API_ENTRY
ai_buffer ai_model_data_activations_buffer_get(const ai_handle ptr)
{
  ai_buffer buf = AI_BUFFER_INIT(
    AI_FLAG_NONE, AI_BUFFER_FORMAT_U8,
    AI_BUFFER_SHAPE_INIT(AI_SHAPE_BCWH, 4, 1, AI_MODEL_DATA_ACTIVATIONS_SIZE, 1, AI_MODEL_DATA_ACTIVATIONS_COUNT),
    AI_MODEL_DATA_ACTIVATIONS_SIZE,
    NULL, ptr);
  return buf;
}

/*!
 * @brief Get network weights buffer initialized struct.
 * @ingroup model_data
 * @param[in] ptr a pointer to the weights array storage area
 * @return an ai_buffer initialized struct
 */
AI_DEPRECATED
AI_API_ENTRY
ai_buffer ai_model_data_weights_buffer_get(const ai_handle ptr)
{
  ai_buffer buf = AI_BUFFER_INIT(
    AI_FLAG_NONE, AI_BUFFER_FORMAT_U8|AI_BUFFER_FMT_FLAG_CONST,
    AI_BUFFER_SHAPE_INIT(AI_SHAPE_BCWH, 4, 1, AI_MODEL_DATA_WEIGHTS_SIZE, 1, AI_MODEL_DATA_WEIGHTS_COUNT),
    AI_MODEL_DATA_WEIGHTS_SIZE,
    NULL, ptr);
  return buf;
}


/*!
 * @brief Get network weights array pointer as a handle ptr.
 * @ingroup model_data
 * @return a ai_handle pointer to the weights array
 */
AI_DEPRECATED
AI_API_ENTRY
ai_handle ai_model_data_weights_get(void)
{
  static const ai_u8* const s_model_weights_table[1 + 2] = {
    AI_PTR(AI_MAGIC_MARKER),
    AI_PTR(s_model_model_weights_array_u64),
    AI_PTR(AI_MAGIC_MARKER)
  };

  return AI_HANDLE_PTR(s_model_weights_table);

}


/*!
 * @brief Get network params configuration data structure.
 * @ingroup model_data
 * @return true if a valid configuration is present, false otherwise
 */
AI_API_ENTRY
ai_bool ai_model_data_params_get(ai_network_params* params)
{
  if (!params) return false;
  
  const ai_buffer_array map_activations = 
    AI_BUFFER_ARRAY_OBJ_INIT(AI_FLAG_NONE, AI_MODEL_DATA_ACTIVATIONS_COUNT, g_model_data_map_activations);
  
  const ai_buffer_array map_weights = 
    AI_BUFFER_ARRAY_OBJ_INIT(AI_FLAG_NONE, AI_MODEL_DATA_WEIGHTS_COUNT, g_model_data_map_weights);

  return ai_platform_bind_network_params(params, &map_weights, &map_activations);
}


AI_API_DECLARE_END
