
/**
  ******************************************************************************
  * @file    model_data.c
  * @author  AST Embedded Analytics Research Platform
  * @date    Sun Jan 22 17:28:34 2023
  * @brief   AI Tool Automatic Code Generator for Embedded NN computing
  ******************************************************************************
  * @attention
  *
  * Copyright (c) 2021 STMicroelectronics.
  * All rights reserved.
  *
  * This software is licensed under terms that can be found in the LICENSE file
  * in the root directory of this software component.
  * If no LICENSE file comes with this software, it is provided AS-IS.
  ******************************************************************************
  */
#include "model_data.h"
#include "ai_platform_interface.h"

AI_API_DECLARE_BEGIN

AI_ALIGNED(32)
const ai_u64 s_model_model_weights_array_u64[ 1701 ] = {
  0xbf55d5273f109f0cU, 0x3e6b9f4f3d406c2eU, 0x3f1b8addbe1c87efU, 0xbefad745bf4e25ccU,
  0x3ea49438be3dfc8dU, 0x3f3d445f3f897d01U, 0xbd882f44bed91441U, 0xbf3cc7f93e2ff35fU,
  0xbf4351d13e847261U, 0x3e23fafabe979474U, 0xbf8d81993f6a1ea4U, 0xbf89719e3e8d1cb5U,
  0xbe99f43ebecfbeddU, 0xbe780759bee1b544U, 0x3f2325d93d0ed8fcU, 0xbe2082313ece4ac2U,
  0xbf6985a6bd475292U, 0xbe10b451befc3685U, 0x3f2c2edbbd89267dU, 0xbea01fe1be83d508U,
  0xbd3be421bf53383bU, 0x3ec945f03ed8c4f5U, 0x3eb92bb93ea7d6cbU, 0xbf6341a1bf46fbb9U,
  0x3f21aef53e76eef7U, 0xbd8dbc97bf83f3e3U, 0x3f3d412abf009f2cU, 0xbeaf533dbe81c4abU,
  0x3fa0c7023f792b49U, 0x3ed893e43e758143U, 0xbe82f8debd6bd25dU, 0xbedae7283fae132bU,
  0xbeb225483dd2cb10U, 0xbe8f860c3fa77382U, 0xbf613347bf8e5fbaU, 0x3e06d512bfa0df22U,
  0x3f09046ebf83c14dU, 0xbe2746a03f5eefd3U, 0xbfc71d523dc97619U, 0x3df8aeea3f4b1b53U,
  0xbfb554a8be850e7cU, 0xbebcddb4bf1ed46aU, 0x3fa16ef63e1c16f0U, 0xbf5473333ee66b77U,
  0xbf8001b6bed3839cU, 0xbebc6d523f3316dbU, 0x3eef4caabf39426dU, 0x3f2716ecbf907ae9U,
  0xbf129cc3bec193e8U, 0x3f9669b83f524c20U, 0x3f0b2efb3f1ac7ffU, 0x3f938df93f80e07fU,
  0xbd615984bf86a673U, 0x3fc9da4fbe817d79U, 0xbf08144e3eb12730U, 0x3eb7a4a6bf65faaeU,
  0x3fa4839bbe4f03ddU, 0x3f72c505bedae249U, 0xbe1a3e9e3cf254fdU, 0xbea01a0bbf93b907U,
  0xbd5fe56cbf0fd620U, 0x3e13180b3f170733U, 0xbf33cc0ebe74c8b7U, 0x3f8b3fd0bf5cf917U,
  0x3f5669f93eba5679U, 0xbf21d6153ea7ebf9U, 0x3ef9005b3f2fb616U, 0xbf1e11afbe2a26a6U,
  0x3f49dbcf3f92d689U, 0xbef0ce903e6e38e3U, 0xbf9170243f294513U, 0xbf3fc3353e9add0aU,
  0x3eb8273f3f5f90d2U, 0xbf4ca45ebf3197d6U, 0xbf823c4cbf963f81U, 0x3d8dbd2a3f25136bU,
  0xbe7a0b473e92b45fU, 0xbf2974d63e956b45U, 0xbee8f2a13f6c3e0bU, 0x3e9c02c4bed7dd51U,
  0x3f1004cb3d8e45a3U, 0xbeb9c491bedae143U, 0x3e5ce2d63ed69208U, 0xbd28663cbf0caef7U,
  0x3d8e315bbebcd60eU, 0x3e61bfd93f40785cU, 0xbe8ed282bebb1e08U, 0x3e6de521bf189155U,
  0x3f072800bf0a4de3U, 0xbf02ed013f475f8aU, 0x3e9a88ad3e327911U, 0x3f230261be61da94U,
  0xbd7170aebe758195U, 0xbe33a965bf000ec6U, 0xbe84fac4bf261c89U, 0xbef1e9b43f1c50b4U,
  0x3ec5f7c43e9f2fbcU, 0xbdd8ad82bf0b4487U, 0x3ece1ae4bcbbea02U, 0x3e820eb3bf78c095U,
  0xbefa24063f3fcc6dU, 0xbe393eb4bf0b4b31U, 0xbed20e36bd850e2eU, 0xbddf81b03efc91daU,
  0x3e0262433e9530ebU, 0xbf27b6c43e81e901U, 0x3f3549a53f179d05U, 0xbf0ecce6bf2ab6bbU,
  0x3e9e818fbf0ecc0bU, 0xbf2f62f83f17ccf1U, 0x3f1c335ebd838884U, 0x3e96e96f3f29d1abU,
  0xbee0d13ebe0f2f10U, 0xbf46bc26bf11fc2bU, 0xbc92fddebc40b213U, 0xbc0d1f603e918c15U,
  0xbf2a5a86be7227eaU, 0xbec633d8becb5fd7U, 0x3f042a77bdb7bac1U, 0xbe17756cbf67469eU,
  0xbf22b5b73ec2a507U, 0x3f15145cbf27db54U, 0x3cf3f9b13ef68aefU, 0xbda6c8ba3ed43f4bU,
  0xbe81b4bebeebf841U, 0xbed755bd3e83dc32U, 0x3e7b55c2be29b53cU, 0xbde31985bf02cff5U,
  0x3e9215dfbdb5dd45U, 0x3dea5a15be8f3d31U, 0xbe844c12bf0ae89fU, 0xbedeb9d9bed66ee7U,
  0x3e2ef0393d0a1724U, 0xbeb2e66a3ed28565U, 0x3e5217af3d6dcd68U, 0xbe538427bf42db8fU,
  0x3e410524be8ae9eaU, 0xbdf28d57bf0bab15U, 0xbea300533f752791U, 0x3e2ae7e03e554493U,
  0x3e3bfc923f098924U, 0xbf0906163f17cb84U, 0x3ea799a23e8fb413U, 0xbe5dc5a3bf03d134U,
  0xbf309351bf3d3bd4U, 0x3e3730e2bf1ef44fU, 0x3f1f8f433e5f93f1U, 0x3f2e0551bf50bd97U,
  0xbf38c8743e304a2cU, 0x3f0a6e54be91ea57U, 0xbed2c456bf1d5ffaU, 0xbd9388cebf01a050U,
  0xbf0efff23e100847U, 0x3f1bd278beb9c29bU, 0xbed254ddbf176dceU, 0x3d9f90fe3f0a3bdfU,
  0x3d815930bda0d28aU, 0xbf490fa63e9e31d6U, 0x3f038061bd6e6df2U, 0xbe810f34bed35a61U,
  0x3e67530a3ebe64ebU, 0xbe1dfc363e1aa0c0U, 0xbefe7ce5beaa7029U, 0xbf3ad2f0bf99fef0U,
  0x3e02848fbe8b55e9U, 0xbe47b74bbf9102f4U, 0xbe4a47823be15176U, 0xbe072ea03f779e64U,
  0x3f266a3f3ea3737aU, 0xbeaffaa0bf5072f7U, 0x3ee61741bd150335U, 0x3fd37fa83f799bf9U,
  0xbf76c48fbe543f20U, 0x3cba5680bf370057U, 0xbf5847003ea90b88U, 0xbec1c077be9e9f69U,
  0xbd3fcb61be0f5e0cU, 0x3e55d9603d6a0c13U, 0xbe995fa7bd5da986U, 0xbe3f540c3ec2706aU,
  0xbeddd8703f1aadbdU, 0xbe233b5cbece00fcU, 0x3e6b8d51bec485dbU, 0x3f0a8bb53f2eacd3U,
  0x3f82067dbdbcb21cU, 0xbf06a532be481038U, 0xbdb4fda93f49ec65U, 0x3f124008bec3e005U,
  0x3e9142a43f5f6889U, 0x3c20ee13bfb0e5e2U, 0x3f59bb163f0d48e9U, 0xbf86feea3eb9485cU,
  0x3f2afecc3ec46782U, 0x3f35001d3d34fe40U, 0x3ec3e13bbe9e81a8U, 0x3eba9432bf8b89e4U,
  0x3ecb14ec3f7e6147U, 0xbe246e5f3f107194U, 0x3e49a16d3f90bb7eU, 0xbf735d483ee3b4ccU,
  0x3fa69099bde4be73U, 0x3fc70d8abefca20bU, 0x3e3346b7bf2e4d1eU, 0x3ec0cbaabf2d6d82U,
  0x3f20fe5dbf26ebc5U, 0xbf430c3cbf32add1U, 0xbea4c2973e3a27faU, 0x3e5c55573e2c9f2aU,
  0xbe10da133d90d85dU, 0x3fb506433fa1683bU, 0xbfb81ef0bf963b9dU, 0x3f8483adbdf74466U,
  0xbf6648673ea96826U, 0xbf3ac6e7bda9a08dU, 0xbe2f68453e5e4d80U, 0xbf551f6abe8335aaU,
  0xbce84ee33e099e4dU, 0x3f08f75d3f3540feU, 0x3e7f2dbcbf67b487U, 0xbd4e2d4e3ea7bed0U,
  0x3f6c01743e7bacbeU, 0x3ea2cdd43f0d6caeU, 0xbe688aaa3f1990b5U, 0xbd088b57befed380U,
  0x3e3ddbc7bb30bdc0U, 0xbf31eb55be118486U, 0x3e9107fdbf7c29e7U, 0x3f88ac673f6e6caaU,
  0xbf11fe4cbec95189U, 0x3f4c93533f58f28aU, 0xbe8e059ebf1de8d3U, 0xbe84d84d3ef270dfU,
  0x3ee21b4bbee447c8U, 0xbe9aa5f33f73b39bU, 0x3eaa14e7be898a3bU, 0xbda2e6a7bf2e4bf2U,
  0x3dc9f5583dd08b35U, 0xbea83715bf9d0650U, 0xbfa33fb5befb9cd4U, 0x3f766142bf222db0U,
  0x3f0d46593df03eb5U, 0x3f9582083f01fe3eU, 0xbe1b56f9bf3616c3U, 0x3e3ee0f9bd4909f4U,
  0xbed762fbbe39285eU, 0xbe1608aabf972c4fU, 0x3f3689953ec7dc90U, 0x3e9b2099bea42f64U,
  0xbcee6b7ebed4e461U, 0xbf48dfc7bf2cbbf6U, 0x3f29b0d7bede8a0bU, 0xbe69ef883e9ca5e8U,
  0x3ed9e2e2bf74138fU, 0xbed2c9b33e39fbc5U, 0xbcb7f7ad3f81ba49U, 0xbf343085be3c23fdU,
  0x3e9f0268be3fb7aaU, 0x3cbc25723f5dd72eU, 0xbefb1ce6bdf8afeeU, 0xbe12c0d63f0294acU,
  0xbf8422ae3f2801a7U, 0x3ece68c23d8ec5b2U, 0xbeb6a03abf6a76f4U, 0xbd9a20e1bcff481eU,
  0x3f2ad42d3f7a4845U, 0x3f1f5c65bf86e43fU, 0xbf75e56a3f48783eU, 0xbec4a5963e8a3fffU,
  0x3f30600d3f906aa2U, 0xbf7e0198bfd258e4U, 0xbf22dfd53f35ce9bU, 0x3f0666ecbd90ccd0U,
  0xbdc5a0e9bf9df591U, 0xbfc0c07cbe94a7fdU, 0x3f1c31dbbe49fd06U, 0x3f9a3825bf366862U,
  0xbe5c1b2f3f85cf89U, 0xbe1629193f71c3bdU, 0xbf2723ffbf6f20beU, 0x3f0367b9bf274e8aU,
  0x3f981f4f3e28c4cfU, 0xbf2ec5cb3f4f0421U, 0xbf9c0b5ebf90c044U, 0x3ec87701be3601d0U,
  0x3eb11917bf8ed460U, 0x3e1fec91bec40af1U, 0x3ebea3453f00a06cU, 0xbe46ccb63d858c17U,
  0x3ebd39d73f42d01eU, 0xbf4e5d6a3d707c0aU, 0xbc5c149abd875858U, 0xbf513c41bfa38561U,
  0xbf3436343eade922U, 0xbf8373123efbfc52U, 0x3f76a1163ee5533bU, 0xbeaa76743eb33ceeU,
  0xbf8035843f27d044U, 0x3f0995d0bea397d4U, 0xbf263f0cbedea42bU, 0xbfa0392d3f6f011fU,
  0x3f03fa423f058603U, 0x3f125d54bf28cf95U, 0x3f5da6dbbf9f66d9U, 0xbf74d1773f022e5eU,
  0x3df9c6bc3f84fa90U, 0xbfc6400a3f45f3f2U, 0xbf6481663fb81041U, 0x3fd377f2bf1fa4a5U,
  0x3f229561beb4ec61U, 0x3dd4045e3e941fc5U, 0xbe719dc3bf79f861U, 0x3fd2a432bfbca8bcU,
  0x3f87f18bbe89ee32U, 0xbea494833f671354U, 0x3f57325dbf37e52cU, 0xbef285643ef9033fU,
  0xbf8cee5b3f9245f9U, 0x3dd7e5d73f3b9bddU, 0x3f6550c8be7d9082U, 0xbed9b0213e926cc1U,
  0xbf01c21dbf2648e5U, 0x3ef7b642bf47ff0fU, 0x3eab0c5e3d2c947dU, 0xbf68a20d3f491c32U,
  0xbf151b8e3ff05a06U, 0x3f713af03b12f8d0U, 0x3fbbe6503ff1ce61U, 0xbf4619193ea83b2eU,
  0x3f9c99e2bf68d333U, 0xbf6b99f53fe1dedcU, 0x3da57077bd500189U, 0xbc977f273db55afeU,
  0x3d9aa3173cca6ac9U, 0xbc8621fe3c2fc5e9U, 0x3c18b065bcec5393U, 0x3c89b3c03daa78e9U,
  0xbe268891bc45c84cU, 0xbd25e4173e3b83f8U, 0xbd03a5193c792165U, 0xbda5fdadbcaca10cU,
  0x3dc890fcbcf55a73U, 0xbe01fbe7be3dc169U, 0xbdc121513e08d51fU, 0xbd5ce65dbe225522U,
  0xbd81d0b8bd923342U, 0x3e829470bd70370fU, 0xbdd9a5443d6e90a8U, 0x3d2242933da83190U,
  0x3be54f5c3cd96717U, 0x3e36bf55be7f3f9bU, 0x3dd8ec913d191a93U, 0x3d84b2c5be277fffU,
  0x3da98a08be236cd5U, 0xbddd413a3e2cfeb0U, 0xbe2f983cbe00a380U, 0x3db804b53e7f63b1U,
  0x3e4a7dc63d3569d3U, 0x3e7eaa1a3daeba87U, 0x3d36ae31bdac6fd5U, 0x3e9a94f93e2e8f19U,
  0xbd9848793dda14eeU, 0x3e504b1c3dafd0e7U, 0x3c315c143dca24adU, 0xbdd606ecbe8ae590U,
  0x3d5939ec3db6c381U, 0xbde4d13c3d49bdf2U, 0xbda8063ebe32c7f5U, 0x3dfef96d3df08f66U,
  0xbe085e403d0caec9U, 0x3c464a90be24be6fU, 0x3e4756bc3ce8c948U, 0xbe4a63103df2e6c3U,
  0xbddd7252bbf35b04U, 0xbc7900b2bdefb82eU, 0x3df265e1be079ca1U, 0x3e8195cfbc81e281U,
  0xbd742e43bd4a9abaU, 0x3e1cd06c3e825e27U, 0xbd5f6d70be0e64b9U, 0xbd0e2232bd78d1dcU,
  0x3e8eeb82bd185592U, 0x3d4c0f7abdc19cb4U, 0x3e0c2e22be1c513bU, 0x3e49c55d3d8114d0U,
  0xbe6b57f13d02a78eU, 0x3da64297be7a7a8aU, 0xbcfa0d69be80f77cU, 0x3b8c67b3bde62c70U,
  0x3e1b3b79be986800U, 0x3e88eb913d468f54U, 0x3ea14facbdc06fc0U, 0x3b862f75be68bdc2U,
  0x3e43862e3c8e2e0bU, 0xbc0a7c05bddb42e7U, 0x3db2de73be1096f6U, 0x3e80a55c3e2cf67eU,
  0x3e084656be563a9bU, 0x3d5e068aba966549U, 0x3ccb7ea2bdcfaa44U, 0x3e00d5f53e94cff5U,
  0x3dece911be4caf55U, 0x3e71da80bdc27c8eU, 0xbd7831c43e63b62bU, 0x3e644d5bbde79b08U,
  0x3e497b783e533f70U, 0x3e88e54d3e4b4497U, 0xbd9c00753d933bbeU, 0x3e1e7599bd9d9c4bU,
  0xbd451c323d31544cU, 0xbd8bb5ccbe6e29f1U, 0xbe47aa68bd9a4a60U, 0xbcbd784abd92f9c8U,
  0x3ca87c1fbe439744U, 0xbd37cb553ccf7d65U, 0x3e28c26e3e1f397dU, 0x3c80d6d4bcad774dU,
  0x3e4fcb62be4e485aU, 0x3e243709be166143U, 0xbc771c3abd9b85e3U, 0x3e262dbc3e23ef83U,
  0xbdf0092dbe199dd5U, 0xbe3e65953dc67074U, 0x3dda636bbe046145U, 0x3dec37d2bdcb4c94U,
  0xbdb2e91b3e2f5b26U, 0x3d9bf81abd2c9a11U, 0x3bb662ebbdf808a6U, 0x3dce95f13c36ff99U,
  0x3e0a3ded3e2bbabaU, 0x3e339a8f3e55ae52U, 0x3e3033cd3e0a0874U, 0x3d3c0e3dbdcc00a3U,
  0x3d989385be0af94eU, 0xbe481849bcf5dbdcU, 0xbdb155183cd943b4U, 0xbd390c3fbcff442eU,
  0x3e084a3ebd6698c6U, 0x3c82e802bda9e67fU, 0x3db621a73df5749cU, 0x3dfb45723e252ee7U,
  0xbe8b92a73df3945fU, 0x3db455bf3eb04427U, 0xbe4285cdbd97d655U, 0xbdb3a0fdbe080615U,
  0xbed0f1bf3e82f51aU, 0x3dbbc057be24d0a2U, 0x3d9e38da3d04ac69U, 0xbdfa7a99be48331bU,
  0xbe6a1ef9bd47644eU, 0xbe12d735be67cb21U, 0x3c61f8fbbe40e3cfU, 0x3dcdcbf2be5dcc00U,
  0x3dfe447d3ebf692aU, 0x3e8ac2583e2df9c6U, 0x3ea9ef793e12e440U, 0x3d204718becdb7a6U,
  0x3c796619bdd24034U, 0x3e7f43023c87417bU, 0xbd0e3c313d1e8944U, 0x3d0b9b24bdfa05c5U,
  0xbd243a1a3e2a7025U, 0xbe856703bd658eb6U, 0xbd65f0b7bc9b0c7dU, 0x3d80456cbcbbb9b2U,
  0x3d850bdfbe3e953eU, 0x3e0f105b3ebf610cU, 0xbe27a1ed3e24d03fU, 0x3e3de414be119ba1U,
  0xbdac1e64bdad3a4fU, 0xbeac291f3e233fc4U, 0x3d2aaffabd0a8356U, 0x3d9f4f86bbbe1ab4U,
  0xbe71e8d63dcb452eU, 0x3e46c8b5be68fc0eU, 0xbe82ebaf3ea2a615U, 0xbe8b353dbc969ee1U,
  0x3de6806fbe397a72U, 0x3e429446be42c640U, 0xbe046d02bde09468U, 0x3deba5873dc6aa78U,
  0xbddeffbdbdef7cfaU, 0xbd0c5a75bd7eedfdU, 0xbe2ee38b3e8c37e9U, 0x3ecc6e553e74cffcU,
  0xbe5dcbb13d65f582U, 0x3b61c7a5bd524a78U, 0x3ddf14d7be01b7adU, 0xbe2f5e8e3e3f3f41U,
  0x3d87588dbe175cd0U, 0xbd99a9e73e8611f9U, 0x3eab072f3f03af2bU, 0xbe8c65d1be413405U,
  0x3e77014e3cd0384bU, 0xbe09cfb2be325f3bU, 0xbc50e5103e40eb68U, 0x3c61ad87bdda3836U,
  0xbe1ce916be5373dbU, 0x3c0f27a93e6d8fdbU, 0x3e6afb153e48a44cU, 0x3d7ebb33bda687a3U,
  0x3b970def3de57506U, 0xbd876b00be090b5fU, 0x3b4843743d9c1d26U, 0xbe458eb5bddf3a54U,
  0xbe834ae2bc8e6631U, 0x3de52120bbfafcf0U, 0x3dd06df0bced3679U, 0xbe0a14433e2927b1U,
  0x3dfdfacabdc1cce8U, 0xbd5d8a663de677d6U, 0x3cf7e3e7bd991cebU, 0x3d8bfcbcbd8df4a1U,
  0x3dba642fbda331e4U, 0xbe9163c53e4fc232U, 0xbcd3cffb3d4ffed1U, 0xbe9227293e937816U,
  0x3e8350d63e0ac8ddU, 0xbca45d87be0cdcb4U, 0xbe3c8eaf3d9c358cU, 0xbdb6348a3d9b321dU,
  0xbd7a57293e3cdcb5U, 0xbdf86805bde01eebU, 0x3e8e3aae3e07d7e2U, 0xbe019d8dbc9ab8d8U,
  0xbd36d13b3e0ef268U, 0xbd6bf0a0be066548U, 0xbe27e6443c070da8U, 0xbe3e487d3e4b3fe3U,
  0x3e750edb3eaac270U, 0xbd11a5debc1278b5U, 0x3cf094c6bde61183U, 0xbea7f725bd30e2b8U,
  0x3c5e054a3d225e09U, 0x3d5f0d553e202394U, 0xbe69a9413e1dda6cU, 0x3e66e85bbd13332bU,
  0xb90a92b1bd5c361bU, 0xb9a22cab3dfa60acU, 0xbe20a18bbd930d22U, 0xbe99db3c3e647e8bU,
  0xbc4bc17ebc5de0c5U, 0x3d51a7c13cff8529U, 0xbdd3f6b13e05f2aeU, 0x3e5aea713d3f53e0U,
  0xbdee2750be3afc0aU, 0x3e16db38bdd4e1d2U, 0xbc62e8d63d82b4b7U, 0xbe2abf97be05006bU,
  0xbd87b446be4adf89U, 0x3eb25fdabd1cd7bdU, 0xbbf9da793dd1034bU, 0x3e650dc43d5fe0efU,
  0x3c47388fbe6ed597U, 0x3e43148a3bcad11fU, 0x3cfcb9653e4d4a2dU, 0xbde16cad3e1a1f5bU,
  0x3dae3fcdbe6057adU, 0xbda16178bd9cc720U, 0x3cfd73d33df0a451U, 0xbe309596be552029U,
  0x3e568be3be0ca787U, 0x3d3255debd11bc81U, 0x3cbe605f3e07df55U, 0x3eb2e63ebd7b0252U,
  0xbdf061eebc553eadU, 0x3d77f5093e28440fU, 0x3e6166193da14329U, 0x3e8199bfbdcfc427U,
  0x3e26983cbdd73434U, 0x3dc096d63e1c2022U, 0xbe2e2b66bb4fc7fdU, 0xbe523688bdbeef10U,
  0xbdd92b4abe84e22dU, 0xbd4222d4be2f2ddaU, 0x3dff68c7be471228U, 0x3cf85ec83e47408fU,
  0xbd659fc13d3eb7b5U, 0xbce1f3f13e4a7290U, 0x3e91c2163e3bb128U, 0x3e642f04be284929U,
  0x3e52a268bd442e20U, 0x3df0a77dbe85375dU, 0xbdbe5ea5be1d2222U, 0x3e982149be2b9fe3U,
  0xbe04ce3a3c4be363U, 0x3e58ab3a3e2a3b7eU, 0xbdd6720cbdd7034cU, 0xbe7d22c63c4d05b5U,
  0xbe205da73e2c7719U, 0xbe9c4ae8bdc3358fU, 0x3e01d0063e332e26U, 0x3eb84f253d7190adU,
  0x3e95ee33bca7985dU, 0x3e30a1053db904d3U, 0x3d94c642be1f6e3cU, 0x3c7657fbbc35b436U,
  0xbbac5e35bd775ff9U, 0xbd4f90c8be7754c2U, 0xbd92db23bd40142bU, 0x3ecff87e3ca5b9dfU,
  0xbdb300d5bd02e210U, 0x3e44e877bd02abe4U, 0xbd0853bb3d7e75deU, 0x3cc1ffe7bb6d068fU,
  0x3e2bbbc8bd94c2e8U, 0xbd4bc5083e0a57f1U, 0xba977ad7bd95650dU, 0xbd9adf493cd61cc3U,
  0x3dc0d2763e2a0141U, 0xbe1e58eabc60fbbcU, 0xbd0d30e0bda7b83dU, 0xbe6424ee3dd74b65U,
  0xbd00fe9a3c282e97U, 0xbcb52fcfbdaaea13U, 0x3e48535f3d032c73U, 0x3d07dbdb3d41b10aU,
  0xbdc31f15bda96b93U, 0xbd1ef87d3e0529e3U, 0x3bcae0d9bd811a5aU, 0xbd19a5eebd0811f9U,
  0x3e47aea43daa39daU, 0xbc83b054be00a76bU, 0xbe5b20403d3aae31U, 0xbdc017ea3e44a536U,
  0xbe348b76bdea0414U, 0xbd07f60e3da55500U, 0x3e2f4d8c3ddd72c2U, 0x3d9cc29b39f545aeU,
  0x3d9eb55cbd2afc33U, 0x3e1096f63dd50fd0U, 0xbd21e1cb3d5d1bf0U, 0x3d39c8193b20f960U,
  0x3d371d95bdacff14U, 0xbe2816b5ba0d289dU, 0x3da1ee883d4e8fc0U, 0xbd31f7b8bda92cabU,
  0x3c89e7bfbdbe1aa8U, 0x3e31612b3e5669abU, 0xbe284f8c3c0b1e74U, 0xbcf47b37bc08360eU,
  0x3e4bc85c3c7c05abU, 0xbda21ec8bdc9efe6U, 0xbdf52dcbbd8347c5U, 0x3cbbda03be19e2afU,
  0x3dff2cefbca6a5bdU, 0x3e212defbe2a24bfU, 0xbd6ee400be2f3f26U, 0xbe23fa6e3e1a2f8eU,
  0xbe1096ab3daf8d0cU, 0x3d17f54f3e052acfU, 0xbd3374513d213ae7U, 0x3caebf49bd6b9667U,
  0x3dd18a6fbd0b306eU, 0x3d8a8c083e3d5792U, 0x3e51ef3fba655563U, 0xbe3794283d9876a5U,
  0x3d88ea473e4981e4U, 0x3ddaca513e081292U, 0xbc6d7b48bd6acfc8U, 0xbd51ef73bd9ef57aU,
  0x3d8a62b13d948abcU, 0x3d9a0077bd91d213U, 0x3e5b17913de571ffU, 0xbe5193ef39f6ef2fU,
  0xbdf1c23abe0fbc4bU, 0xbe6c6f6b3e9220bdU, 0xbd3293c03e644e55U, 0x3e468712bd8c17c1U,
  0xbd998aad3d42f100U, 0xbe04556e3ce63dddU, 0xbd9f821abe4882f1U, 0x3c0029b33d2182bbU,
  0x3d3d3859be474a86U, 0x3d13f7d43e0754ebU, 0xbdb97d9d3e69170cU, 0xbe557658bcbe60faU,
  0x3defb191be3614cfU, 0xbe1d34fd3d255a23U, 0x3e702db83e13a7a9U, 0xbe5edf0dbdd7ab52U,
  0x3de77cfc3dabd1d9U, 0xbe15350e3ce088f0U, 0xbe305ae2be149689U, 0x3dce7054bd69bca4U,
  0xbb3d2e12bd3b62f7U, 0xbd6e4332bddc92d1U, 0x3b109c073e1984c9U, 0xbd6172d7bdff4e4eU,
  0x3e1292b8be2e98c2U, 0x3da364853dbec08eU, 0xbe0a8173bbea3400U, 0x3e5a4dc63e35dfcdU,
  0x3e2fe5b8bd364ac3U, 0x3d3ebceabdd9ee2eU, 0x3e525b0fbe38ca5fU, 0xbb8a83163db7a8a4U,
  0xbd872c6fbd838e91U, 0x3d70b529be1cbfa0U, 0xbce1934b3de40801U, 0xbe2431b93ca24c51U,
  0xbe5b5a1bbd42e1aeU, 0xbe4afeb43e5b39c4U, 0x3d7d547fbd3f227aU, 0xbcb2b882bd0c6937U,
  0xbaf53afebd80dcecU, 0x3dd44f27bb902eedU, 0x3c14a70ebc000304U, 0xba69fdd6bd8d8212U,
  0xbdd93c46beb6a65eU, 0x3e34bc7e3db878f4U, 0xbd9819ff3e587af6U, 0x3d0082273d7596a1U,
  0x3dcb84dbbd02a9e4U, 0xbe91205f3dbafbffU, 0x3d1b30ae3ddf20d4U, 0xbdaced1a3e5c2fcdU,
  0x3e80f44abe988a89U, 0xbe0c039d3db122d5U, 0xbe80c6ba3e127547U, 0xbe23be24bd55cc86U,
  0x3ddf23573e886a52U, 0x3d6639353e06ca3dU, 0xbdeb003ebdc6eb34U, 0xbe893ab2bd5d5e0eU,
  0x3cd2b6163dab4445U, 0xbdaa08263d512b87U, 0x3e0a172c3cf12152U, 0xb938ea55bdf30856U,
  0x3d2222a33e0b91b7U, 0xbc7f0a6cbe59981aU, 0xbdb19d7a3dec1b03U, 0xbdc15d60be5cb163U,
  0xbd2a95f4becb2e50U, 0x3dd25e2a3e83d45dU, 0xbe26b23a3e9ebe19U, 0xbe4f5c63be158883U,
  0x3d4885243d7b650aU, 0xbd369c7ebdbac0b2U, 0x3dfa61743ea31e92U, 0x3d34a3a53d4ab902U,
  0xbe32e6eab92e3ec2U, 0xbdfd1c45bcdb9becU, 0xbe67b0fdbda71d0eU, 0xbe335fd9bdec995dU,
  0x3e4327f53e03964aU, 0x3dc79047be0fd395U, 0x3d98cde13d7250b9U, 0xbd6d88c43e254262U,
  0x3dba9b28bd9c2bd7U, 0x3d6acd813d421dd8U, 0xbdf118e23eb57005U, 0xbe7ad7d2bcda5828U,
  0x3c16f5053d5e87f6U, 0xbdf7b052bcb61308U, 0xbe88b2863e868d0fU, 0xbe7f1211be30361aU,
  0xbe7b8260bdb5b07fU, 0xbe21ddde3ec031dbU, 0x3de74d543dbb021cU, 0x3d279c3fbcffb2b1U,
  0xbd2bcc973b914459U, 0x3b2a4c303e2183fbU, 0x3d4102093e94c1a3U, 0x3e6c0133be1420f8U,
  0x3ddcf2eebe816f57U, 0x3e43973d3e3a79e4U, 0xbe6a4dbd3b951936U, 0x3d1546723cecae22U,
  0xbe22c3e2bd81557aU, 0x3e494b17be5fc80cU, 0x3c096647bd157bf8U, 0x3d97a99c3dce0c21U,
  0xbe055c613e2302b5U, 0xbe14ea5a3e302b90U, 0xbd92fa8c3e0c31b8U, 0x3d5a71cfbcc48706U,
  0xbe6c42313e164104U, 0xbd29d28d3d09f26cU, 0xbcc648a9be76b955U, 0xbd070f693de60ddcU,
  0xbd1dae2ebd05e2daU, 0x3d67fae1bdd1c424U, 0xbea962823e1607fcU, 0x3b70c0343e55d01dU,
  0xbe16953f3da5d9dfU, 0xbe816541bc536dd0U, 0x3d9d1b11be0e0c4cU, 0x3e8b4af7bdaff332U,
  0x3e88c535bdcfb64eU, 0x3d01f42ebd98a717U, 0xbda5ab2dbe0b7b84U, 0xbe05ce5ebbace269U,
  0xbd0c3742be59cfd7U, 0x3d9c38a0be73789cU, 0xbd07ca5c3e3835b2U, 0x3e7e4fb63e62921fU,
  0xbe53a55a3dd5d565U, 0x3e0924903c967e0fU, 0x3e1f36ee3e226266U, 0xbe041973bc47fe46U,
  0x3e1542473e064c07U, 0x3e04cd253d84327aU, 0x3d835168bddf10a2U, 0x3d4db3693e24e77cU,
  0x39eb60bfbd14166fU, 0xbe3fee173d54fc5aU, 0xbdb09159bd0751aeU, 0xbd8fa1ab3ec8b468U,
  0x3e00be58bd356fc2U, 0xbd8f811fbe30e3efU, 0xbdf1be6d3e96b55bU, 0xbd9b9056bdfd3d75U,
  0x3d35bce23e33db23U, 0xbd6bbf3e3d6d9433U, 0xbdf1d9a7be124d8dU, 0xbe8b63ed3eb47aeaU,
  0xbd0ed407bd74d5e4U, 0xbeb56eb2bdd96fa7U, 0x3e2de32ebe83ad5dU, 0x3dd8e6863d05a4d1U,
  0x3e367f5d3bc766d6U, 0xbc9b196d3ddfc7e3U, 0x3e3831443d85fde7U, 0xbe2a27703d051d31U,
  0xbdf7f5ae3cdca23fU, 0xbdb5c98a3e0688e6U, 0x3e1e3d013e303d4fU, 0x3d2225e6bda9a843U,
  0x3e296ca8bcebcd9aU, 0x3de9caa7bce3a50fU, 0x3da78edb3e2564caU, 0xbd2d0859bd8fd028U,
  0xbc2c7bd0bde25be3U, 0x3e35dab5be36a205U, 0x3d301146bd5b4c78U, 0xbdfd4683bce3ea63U,
  0x3da4fa4b3e5f1501U, 0x3e5b573a3e154cd3U, 0xbd153c95be6f80cfU, 0x3e4b8e6bbe4edf4cU,
  0xbd6f1d87be30b73cU, 0xbe16a49ebea75ee2U, 0xbe221bc73e166282U, 0x3e22cbb93d304417U,
  0x3e280d1f3dea72a1U, 0xbda495cdbe086eafU, 0x3e84b79dbd66d25fU, 0xbddf7ae5bdbdf6a1U,
  0x3ca40a163c5ef477U, 0x3ce333bfbdf37d4bU, 0x3dc67fab3dc06f4cU, 0x3dddde1c3df62d69U,
  0xbdd0f0523df013beU, 0x3e15fce23de105ddU, 0x3d0fe529bdbfc810U, 0xbe653201bdc35dacU,
  0x3afe242e3e91835eU, 0x3e416058be0ead77U, 0x3c948fa7bc54807dU, 0xbe3fc99a3e8e44f0U,
  0xbd104d91be1974c6U, 0x3e7ac538be394b36U, 0x3cc039c2bea4fdeeU, 0x3e50200a3dc7df2bU,
  0x3ca48947be5065daU, 0xbdef67cdbd2e5985U, 0x3e08d42b3e10e575U, 0x3e8b0932be132864U,
  0x3e77aca3be424361U, 0x3d55b8edbd15bc9fU, 0xbe77a10d3e41b8b0U, 0xbe4ab2003e154054U,
  0xbc33ceb13c7b6dfaU, 0x3d07d6823ccb2ca9U, 0x3dd46d5a3e98b8f0U, 0xbe1cfdf8be6eb61bU,
  0xbe7e440b3d8a7598U, 0xbe6ad4ac3dc3ece6U, 0xbdc237babd288fb3U, 0x3d9762d1be405b04U,
  0x3e3da80c3e08dbbdU, 0x3d66665cbd3437d2U, 0xbe91e4d5be0dac9dU, 0xbe0793473ebf7f51U,
  0xbd98311f3e9d5951U, 0xbcb0b0b7bd846ea5U, 0xbd802e78bc9c4577U, 0x3e03254fbda89926U,
  0xbda40e6ebdf4430aU, 0x3d760a693c83372bU, 0xbdb61d363de1a203U, 0xbe4848653dec40f2U,
  0xbdd0bdbd3e8510c7U, 0xbd314513bd04bb37U, 0xbdab87babb1fae27U, 0x3da92ae73e76639dU,
  0x3e3ec6693df7170bU, 0xbcf1b685be8d5e7eU, 0xbdfced353e8fc3d3U, 0xbe9aea43be17b5b3U,
  0x3cd47df83e038220U, 0xbcc8ea1e3c64560cU, 0xbe8381f43b87e575U, 0x3e410c31be880212U,
  0xbdced6c33dc4bd08U, 0x3e19a8b03e3594bbU, 0xbe6647413e6a4bf7U, 0xbd49e4cc3deb24d0U,
  0xbd2eb370be2c3da4U, 0x3d8220e3be609252U, 0x3e9571c53d2a24f4U, 0x3e0af0e33e11ef17U,
  0xbe5ce03cbef309feU, 0x3d8f77563ec70a0aU, 0x3e0b527f3c5d7eb8U, 0x3d437152bc0c6324U,
  0x3e13ebba3c5155aeU, 0x3db61483bdaac970U, 0xbeb519783e944f76U, 0x3cc0b0513e058b03U,
  0x3e68f3683d9e86dbU, 0xbb281e0fbd7e77f0U, 0xbdda9afe3dc3e18fU, 0x3d9ada3cbe6bd29eU,
  0xbbd95eaabd25b08cU, 0xbdb15828bce4720bU, 0x3e376a7ebceba3cbU, 0x3dfee8b5bd90f754U,
  0xbd8c0689bd21cc0fU, 0x3d6b9d9c3e50580eU, 0xbe609edd3da7935eU, 0x3de50cfe3dd5b1e0U,
  0x3e0aae8c3d03de3aU, 0xbd8908b1be084f1cU, 0x3dee740c3d87e80fU, 0xbe1c38fb3dcc3cfeU,
  0xbdf6f9593bd217eeU, 0x3e020b4a3dbee79fU, 0xbe0db230bd49dfd2U, 0x3daa62d3bd8d1d59U,
  0x3cbc02cb3df0ca26U, 0xbda389e73c2fbd8aU, 0xbd240130be5f3f0dU, 0x3e56ec823d8c5178U,
  0xbe22de693d4f84ceU, 0xbe691acdbc023b49U, 0x3e054be2bdabf60fU, 0xbd245ae83d67f6a7U,
  0xbd61424bbe3f51deU, 0x3d85d7bb3e1e84d2U, 0xbdf57a593d93f1efU, 0x3db46323bda82422U,
  0xbdff55b13df76253U, 0xbd7e5ffebe05c698U, 0xbe186e593c288d96U, 0x3e3274d53e47cb12U,
  0xbc267763be12f63eU, 0x3dd46f493b39f8cbU, 0x3da0a7c4bcc0ff6cU, 0x3e446e863d002b59U,
  0xbe3d5dd0be403bd6U, 0xbe100aa83ed31468U, 0x3ddf24983da7202cU, 0x3dd8d474bb1da572U,
  0x3db7c3583ddb5d97U, 0x3d7f1d283d98a812U, 0xbadcc7463d546ec8U, 0x3bf431903e683686U,
  0x3dd304123da624a9U, 0xbe8a8052bdd873c7U, 0x3e8109a0bdb393d6U, 0xbe6dd721bba0577eU,
  0xbe854df83df70afdU, 0x3d5b34f3bde2bf66U, 0x3db880e9bdbeb8baU, 0xbd5cf9aabe4fbf1eU,
  0xbe1e0500bd24b92dU, 0xbc8e01fb3e2b8101U, 0x3d8fd2a03ef09661U, 0xbe31d58bbe5e8dacU,
  0xbe331734bd4d23c1U, 0xbd8089583c13ea2cU, 0x3dc947c73ddc91aeU, 0xbe1d59583e45f870U,
  0x3d2b0e25bebb0c8bU, 0x3efdb20fbeb03d62U, 0x3e60aec83c2086f2U, 0xbe53e4823e7f5a4fU,
  0x3db0910fbd577fb9U, 0xbe9fffacbda4cb7fU, 0x3ebb103b3e235936U, 0xbec2de553e3e5675U,
  0x3cf59f65bd0eb1c3U, 0x3e9b15143ec2c57fU, 0xbea4fe153d73225eU, 0xbdb267da3e467392U,
  0x3ed5c9ca3d5469ebU, 0xbd813afbbef4b672U, 0xbe9a8a153eacffb7U, 0xbd5d5e61bd30d396U,
  0x3de26d553da4f881U, 0x3ec7edabbea50b56U, 0x3ea5bb7c3e634ef0U, 0x3e8f01f83e848da0U,
  0xbe407e8a3d42f702U, 0xbe8ba61c3dc21cd8U, 0xbd9d630abe2d23cfU, 0xbe0fbe05bd5e4287U,
  0xbc7ec001be158b63U, 0xbd9164c7be7d51c5U, 0x3dda1832be49eb7eU, 0xbdacc1eb3e306486U,
  0x3e298b32be74ef70U, 0xbe991a54be09e4f8U, 0xbd8a6cdb3e5dad29U, 0x3d84ab803d91ff44U,
  0x3e730183bc917ec2U, 0xbebc12e63d8ae9ebU, 0xbe04e1583d817ff5U, 0xbeb5b95a3e5e7482U,
  0x3e3f6c39be485dc8U, 0xbebf822d3df1fa1dU, 0xbe302addbd739443U, 0x3eaaf56f3d6dc7e8U,
  0xbee6645b3ccdcb2cU, 0xbe4dba683d47265aU, 0x3ea76405bbe9cf0cU, 0x3e49a026be9f833aU,
  0x3e071d853e37062aU, 0xbea59b1d3d44bed3U, 0x3ce75840bdc9ddbfU, 0x3da9b0353c5805a3U,
  0xbe1a38643e0d85d9U, 0xbcbfb9cf3e312cfcU, 0x3b3ce0a43db592c0U, 0xbd2b5849bc570b89U,
  0x3d0985b03d97626eU, 0xbda38f89bdacf829U, 0xbe00294a3e3d014cU, 0xbd2d0c94be6d5eadU,
  0x3cd54bc0be40139cU, 0x3d809273be31603eU, 0x3dccb5ffbd884390U, 0x3de24dc93cfb47d6U,
  0xbda2fd9cbdb5d30bU, 0x3c70959b3dc3fefeU, 0x3e52307abe160d59U, 0xbdb30084bc149961U,
  0xbd48f2733cbc1c59U, 0x3e0066d03e13307cU, 0xbdc0607c3d6a5756U, 0x3c9a6a513d04e6c4U,
  0x3df0f4ccbce77308U, 0x3d9467743b1a274bU, 0xbcf72f49bdd879caU, 0x3dc8289c3e0a30f4U,
  0xbe0791763dcc82d6U, 0xbd24055a3b135053U, 0x3df3efd53e67d7d8U, 0xbd920a8cbe62c96cU,
  0x3ddc3b8dbd827f69U, 0xbdbc51a43e0a4c8bU, 0xbd87dfc03e28f297U, 0x3e4167713d11f71bU,
  0xbd96d35e3dc38491U, 0x3d8aa45dbe0ae21fU, 0x3dafdee7bce8328eU, 0x3c906307bd608268U,
  0xbe01addf3e09a5f5U, 0x3ce9dfc23ad6e3cdU, 0xbdaef5fe3da85b1aU, 0xbdc6d571be2ae531U,
  0xbc8685c7bca8a3fbU, 0xbd407f823e54dce2U, 0xbd613358bc9a176aU, 0x3d279d44be01f65cU,
  0x3df19573bdfe091cU, 0x3e4cfc3f3d0b9f1eU, 0x3e12b782bd4618f8U, 0x3e2af00d3e5c752cU,
  0xbda4bf15bd25b355U, 0x3d514d83bdc814bcU, 0x3e0b6e8e3e241de6U, 0x3c792442bdfd3562U,
  0x3d25fd74bd84f42dU, 0xbc03e252bd9b2affU, 0xbe1da51f3e87f48bU, 0xbc3be5023e7b05a6U,
  0x3e1e05ebbe4597d1U, 0xbe6d71dd3d2b61dcU, 0xbd81ece83e10f14cU, 0xbdbc40f93b1203a7U,
  0xbda62c6d3d035846U, 0xbd8713803d8195f0U, 0xbca16916be03e579U, 0xbbe66886bcdcc63fU,
  0x3ddf7b8c3e3d296aU, 0xbdd239e23c94d4e2U, 0xbe3edbc3be8639deU, 0xbde46d9d3e395e81U,
  0x3e40bdae3d95701bU, 0xbd0e4c203d21a2f9U, 0x3d86f1243e2e97b7U, 0xbc96a2e7bd7d09ceU,
  0xbe5b8dfabe991061U, 0x3e0046b63c8e19a3U, 0xbdb3107b3e38039aU, 0xbd809b283d110a26U,
  0xbe32dd623ead13a5U, 0xbd7c2256be69ca96U, 0xbd0462fbbd42dfcaU, 0x3d941ee63e8e2c92U,
  0xbe5caa4abe4bbee2U, 0xbe02aa0b3dcb054dU, 0xbe5aedbc3ea24018U, 0x3dd5eea4be3f0cdeU,
  0xbe88690f3e8740edU, 0xbe78c5443ea3cd42U, 0x3da5ec5dbe88e1cbU, 0xbd51abdebdb9ab36U,
  0xbdc3b6dfbdb227d6U, 0x3e374563be2bd810U, 0xbdcf3e22be15ea28U, 0xbe25bca8bdbbbe1aU,
  0x3db7daae3dab3973U, 0x3be7ca6fbe640a5aU, 0x3e82737d3e3cccd6U, 0xbba60f3bbcf43f91U,
  0xbd8c8984be95d645U, 0x3d043b033e7db183U, 0xbe2c07543e947310U, 0x3dd7cce43c95fc93U,
  0xbd71df913e40ba29U, 0x3d122c3ebd892284U, 0xbd8f212ebd46a912U, 0x3e1f84623e27c55bU,
  0xbe2c838a3e85a8eaU, 0x3b5e92b33e039344U, 0x3d4f91643d85ea60U, 0xbe6a9e8bbe6a4092U,
  0x3c63ff463df3d88eU, 0xbb2a3d87bdee2221U, 0x3e2f815d3e786f6cU, 0xbd8b8c043e2d7475U,
  0x3e85484f3e0ee6eeU, 0xbdf34b2cbe12a0c7U, 0x3d46d0143e278c7aU, 0xbe43aa88bd77b87dU,
  0xbe842587be34fdf1U, 0xbee55b4fbd19f289U, 0x3d8e01063e769f93U, 0xbe836ebcbe2d7e77U,
  0x3d197ff23e7f8e08U, 0xbd9bb5a73dcfda1bU, 0xbde862d83dd62ee4U, 0x3d69a531be2ec5d4U,
  0xbdb5af3cbc3d599dU, 0x3e61b55d3e02956fU, 0x3e8423a73bd8bbf8U, 0xbeaa8a0f3e6f4390U,
  0xbe11a73d3e099b77U, 0x3cce6e4d3d8caff2U, 0xbc92efd6bd2f8de4U, 0x3dbc8a78bd7d6ca9U,
  0x3e4076fbbc8ee720U, 0x3e12772dbe1a0cd1U, 0x3dd82cb63e1bbf42U, 0xbe56594dbe5dd5b5U,
  0xbbf14998be073997U, 0xbe0b53bc3e6a2b90U, 0x3dc047ab3ea67b2bU, 0xbed10745bd71c8a1U,
  0x3e80085dbeb9eadeU, 0x3d674efdbe684bc3U, 0xbe87b99bbd097a64U, 0x3e477ba7bd7ca4f6U,
  0xbda9cd073e8a4a73U, 0xbe08812ebd3f0a01U, 0xbc92b711be46430fU, 0xbbfdc7dcbe4757dfU,
  0xbde0cbfd3dc48d43U, 0x3d9ff09abe78c167U, 0x3edc959b3cd98f82U, 0x3e1995a93e25216fU,
  0xbba41d39be3e9e6bU, 0x3be69a7cbe524c90U, 0x3d92026dbdb4f04dU, 0x3e3311643e3d2b36U,
  0x3e32e713be2e7242U, 0xbe3584833d947217U, 0x3e15665d3da35814U, 0xbe1ecc2d3e2f3779U,
  0x3da02558be6bc0b2U, 0xbd7a25c93e6fe953U, 0xbd4192f2bdadb91dU, 0x3ced03b33ced39f2U,
  0x3d9ee5f0be74fe72U, 0x3e597ddf3ea4e5efU, 0x3c258ee03c8bc75bU, 0xbdac4d8cbe19c0bcU,
  0x3e4510f1be38986dU, 0xbdf119573d46fe8bU, 0x3d89e9d23e5e99acU, 0x3e65e335be5f938fU,
  0xbdd47e7e3de2d22aU, 0xbe16c6a43dd689e2U, 0xbda7ad423cad8b9eU, 0x3d59d51dbe97dae0U,
  0x3e8200d9bc36cd97U, 0x3df345d03e7be44cU, 0x3e237367bdbe8f20U, 0x3e4a79d5bc4e6978U,
  0x3e0886de3e1be86fU, 0x3d9023eebddc6960U, 0xbd6b2a8fbd62a4e3U, 0x3ea542633e768ccbU,
  0x3d531c703ce3bf73U, 0x3deeb71ebc6fd4bbU, 0xbe1ee538be1a5c62U, 0xbe83f644be080509U,
  0xbceb7a1e3e02b88aU, 0x3e8668733ebf96c6U, 0xbe6ff4513d0754b4U, 0x3e3e00953e727a1dU,
  0xbe0ac1083e483139U, 0xbdcdde5abd149010U, 0xbd20808b3e206b98U, 0xbd7b2c8cbe1a4d3bU,
  0x3e10c1bebe16eba9U, 0xbe676891bd9f93acU, 0xbe6b8ed9bd991cc5U, 0x3e4e397fbe949f7aU,
  0xbd0329f43e3b016cU, 0x3e96b36abd0b034bU, 0xbe6d1f0cbe51425fU, 0x3cb60282be849d36U,
  0xba8956bf3e60d40aU, 0x3e7c1b7fbe298516U, 0xbd064cbfbbb8a39aU, 0x3e78cd383e40ec88U,
  0xbc3009293e525c77U, 0xbe3c62e1bdcf6d3dU, 0xbdddf8b13cc0dc13U, 0x3e24a3173deaaee4U,
  0x3d32bf7c3cef35ddU, 0xbd8e2b363dcfd6d0U, 0xbe817224bd6ca87cU, 0x3ea1f36c3d6465e5U,
  0x3d967998be3d9b0cU, 0x3d75810b3e02cc9fU, 0xbcdf11103e75dce0U, 0xbe02a273be73050fU,
  0x3e703f9cbeadb5a0U, 0x3e5c3c873cf1953fU, 0xbe0f384b3c818244U, 0x3c1f5cd9be15a547U,
  0xbd9dc008be61f49dU, 0xbe035d07be0d6e94U, 0x3e6a9d253e4e2e1cU, 0xbcdd5e18bda4b093U,
  0x3e810b52bab0384dU, 0x3db98aec3ebd3abeU, 0x3e8242d0be1b4c2bU, 0xbe185ad2be152276U,
  0x3cae9f6a3dca9dccU, 0x3e16008fbdc66e01U, 0xbd48765cbd6ee0f9U, 0xbdaa26a63e5d5a73U,
  0x3dc632c93cba06c5U, 0x3d997613be2dc7fbU, 0x3e22519c3d34c6f0U, 0x3c68b5673dc2f1bcU,
  0x3e4f8aafbea45c8fU, 0x3d80ca7c3eba11c9U, 0x3e673eeb3d6f4aedU, 0x3e06fda3bd9b1f8bU,
  0xbdc45cc3be57b688U, 0x3cbbd4643d9cda50U, 0xbe291214bdd3dd68U, 0xbed5bcb63cb43e83U,
  0x3e8b82c13db3cd08U, 0xbd64d1353c8f2955U, 0x3e1b621cbd90e9e4U, 0x3e03b362bdf6c792U,
  0x3caa493abe03f93fU, 0xbea02ae3bdc437d1U, 0x3e1c4705bd6f2812U, 0x3db9c606be28c1bdU,
  0x3de2475d3e0a3adaU, 0x3d791c7b3e49454aU, 0x3e0772003d50a306U, 0xbd5dc9593dac516bU,
  0x3e21435ebe5ff4b2U, 0xbdb07edc3d336150U, 0x3e35f9bf3e2a63f6U, 0x3e2bea50bc582bfbU,
  0xbe096a2d3c22585dU, 0x3de9b9f33d9229a0U, 0xbe7ba2903dace41eU, 0x3d582b1cbe05dcd2U,
  0xbc70893ebe412df7U, 0x3d08aa90bdc62f3aU, 0xbd533568bdfc6406U, 0xbe376b5e3e385f73U,
  0xbd2f97d3bdb54b84U, 0xbe5879b83db79323U, 0x3e26878e3e979d65U, 0x382416af3da59326U,
  0x3e29a13b3e1a9ce3U, 0xbb97a007bd1e61e4U, 0xbdbb2d50bc4447e9U, 0xbdea7127bb8a8075U,
  0x3deaca21bcefed8dU, 0x3e50c046be0941b6U, 0x3ce3c712bd7e6b1cU, 0xbee29b2dbcd9287dU,
  0x3d0bea1bbdb353a3U, 0x3e5f26ebbdf79b48U, 0x3e90a0503d4007caU, 0x3e50c2ff3d3a838eU,
  0xbe8f5a89beaf835cU, 0xbe124d3f3ddedda8U, 0x3d1a46e83e10c5fcU, 0xbd1f9829bd173893U,
  0x3e3ea9c63d310483U, 0x3e3b19c1bd7c4b29U, 0x3d352f3f3e144cc3U, 0x3ce71d773dbb6c45U,
  0x3e79e4243da50da4U, 0xbeabdd65bdf976a6U, 0xbe5a1de23d68e677U, 0xbea1dc123d8bf70dU,
  0x3dbdeedbbc888810U, 0x3e3e16343e97ab17U, 0xbe60ba5f3d58667bU, 0xbc2c7b53be90dcfaU,
  0x3dfe9081beb65f6aU, 0x3e2b3ac33cb3d875U, 0xbdce6b993da5fdeeU, 0x3e3cc95a3e06da3aU,
  0x3cc8148c3dfeceebU, 0xbd0ccb58bd9dd8c9U, 0xbdbd9b363e10c813U, 0x3e228372be32a624U,
  0xbd5ce5a7be530370U, 0xbe9112c13de5bc79U, 0x3e2900fdbc613530U, 0xbde6c08abe4ce4fbU,
  0x3ea058733e1135d6U, 0x3e190c8cbd2a312cU, 0x3e472831bd870d2fU, 0xbe5220983ea2874fU,
  0x3c792a60bed877e7U, 0xbc9e0585be5acedcU, 0x3da7b49a3e311612U, 0x3e0605fa3c5866e8U,
  0xbeaa2a88bdc87429U, 0xbb86178e3e510233U, 0xbc4243823ccce60fU, 0x3c8bc93bbcefd5eaU,
  0xbd3649143e27bad5U, 0x3dc894a53de772d2U, 0xbd5802cfbdc928dfU, 0xbe8bf8633ea59dbeU,
  0x3eb72bb6be88937cU, 0xbde557d4bd6f3811U, 0x3d8342e73e4f8ff9U, 0xbc80e7fabe070c59U,
  0xbdf9c66ebbd6ce93U, 0x3e9d7d0c3de485bfU, 0xbe47601a3c9a7c9aU, 0xbe3263e8bdd464e8U,
  0x3db9a66c3d7e0c67U, 0x3e12cc46bda9daacU, 0xbc391b01be551cc2U, 0x3de4a3273e5b19d1U,
  0xbdb69614be0bf862U, 0xbd823eb6bda9d276U, 0x3e29f6233e0f4fcfU, 0xbe06536abda03c94U,
  0xbdf13c023dd7c3ecU, 0x3b9659f63e5c0051U, 0x3dcccca13e372b65U, 0xbcbf38c0be8f5efeU,
  0x3da0d4983e035e1dU, 0x3d915f55be71107aU, 0xbe1e37c0bbaa8bacU, 0xbe5190013e55de28U,
  0x3ebb0964bd616c44U, 0xbd104d83bddbb0bbU, 0xbbc10980bd1a528dU, 0xbd69d13bbc8352f0U,
  0xbe034201bcf4c522U, 0xbe0354963ea73781U, 0x3def1cd4bc5b9726U, 0xbd8ce7513ced1330U,
  0x3dad7ca83e97170cU, 0x3ca644693dc4c8f6U, 0xbdff9d4dbe050218U, 0xbdb5fda43d12536fU,
  0xbcf6008e3e36cf61U, 0xbe0a4fd1be2cebafU, 0x3e6a225bbdb0c1bfU, 0xbe47d6c93c576bc8U,
  0xbd87a2dcbe0f325cU, 0x3d9f30c73bc32fd9U, 0x3dae570a3dad460eU, 0x3e91a7923d4dceb7U,
  0xbe39bbdabdbb623dU, 0x3e80c1bf3cae34d4U, 0xbd9142d23e05f1a9U, 0xbdb290153deae465U,
  0xbe2f8382be9d1e73U, 0x3c282a05bca2e473U, 0x3dc610d43e10f8a5U, 0x3dcbc9a23e7ea5bbU,
  0x3e8daea4be19522aU, 0xbd9e102c3e33ec94U, 0x3e16ae2bbdafe096U, 0x3e08337b3e252377U,
  0xbea91e603c5d2bb3U, 0x3e68e8a5bdcf4aeaU, 0x3e77321dbe89e0d0U, 0x3e218076bdf49799U,
  0x3d3efa27bd6e245dU, 0xbdd09f6a3e6fb6d4U, 0x3cbae6c4be6b9f9aU, 0xbe2ca76e3d994a19U,
  0x3e96436b3e76c050U, 0x3e112715bed5e4d7U, 0x3defc5a5bd09d781U, 0x3c496916bdb2f996U,
  0x3e9a5148be82591dU, 0x3d138465be0db3cdU, 0x3dedcc76be516ae4U, 0xbe69a489be50f8c2U,
  0x3d4b7f88bdb23ae3U, 0xbcde7e093de0a5cfU, 0x3e84b98fbe8520d2U, 0xbe8b25573e175ceaU,
  0x3ec7d2e43e30f004U, 0xbe0021c5bd8da4c4U, 0x3e74be753e1dd030U, 0xbd3131d93ca5cf66U,
  0xbdc5e1193dddaa1bU, 0xbc949badbcdc877bU, 0x3dddfc8d3e4243e7U, 0xbdb62729bd2a7ff4U,
  0xbe964052bc97d36fU, 0x3cf682f93e519d65U, 0x3d6675c9bbc017bfU, 0x3da9f3d33e0a4e78U,
  0x3ec8eec3be5acbd6U, 0xbd768cc1bddc9c9fU, 0xbdf8c5dd3df90af9U, 0xbd888e1a3e6660f5U,
  0x3ca64d4bbea17968U, 0x3e0a85d43c86b671U, 0xbde544f4bd6b5b7eU, 0xbdb330dcbe566c13U,
  0xbd632d003de9f409U, 0x3e0b0e1ebd279a54U, 0x3d4f858b3d7b8f83U, 0xbe0c89853d488cf7U,
  0x3e323ee9bd96fb73U, 0xbb82a1a7bd893738U, 0x3b0a15a03debea42U, 0xbe5d7f863e81e98aU,
  0xbca1d93e3e8af49aU, 0xbe8550be3e2b70e0U, 0x3df902133d1e3d9cU, 0xbeb3f1f53dc098ecU,
  0xbe44a15ebcb653bfU, 0x3da40559bc42e667U, 0xbc1030383b26c90eU, 0x3dea9b6f3d04f903U,
  0x3e3b7aa23d33ee66U, 0x3deaa5353e7097ecU, 0x3e00f46fbd95917cU, 0xbe50f5f2be16c119U,
  0x3a8658aebd5d510bU, 0xbe7c5e883e234d5dU, 0x3cefa9c83cdeb561U, 0x3dd2051dbb9966f3U,
  0x3e4ed0b9bd346291U, 0xbeb15e7a3d9f43deU, 0xbe96ad353c04c67dU, 0x3d189cdebd8d47c9U,
  0xbe19158cbe15dee7U, 0x3e7208af3d81896cU, 0x3e0fa98dbe555c7eU, 0xbe781e3d3dff130aU,
  0xbe104f18be878476U, 0xbeb184c33e6f3b45U, 0x3e3415833e13ea8bU, 0x3d3a1d8cbd31d2f4U,
  0x3c63c681bdd6cdd4U, 0xbe1417aa3c5dbf01U, 0xbd49b01cbe0de7b1U, 0x3ddcbfcd3dd034d5U,
  0x3ea547bc3c998f85U, 0xbe816da13b864716U, 0xbdb0a1d33ebe5c97U, 0x3dcfa205bc64ae9eU,
  0xbe03cd993e6a8813U, 0xbd1e2375be116802U, 0x3d855eb13e73ccb0U, 0x3d519a82bd875f29U,
  0x3b9951e83ccd08d6U, 0xbec18da7bd737edfU, 0x3d9ff7c23e19b5beU, 0xbe2cab69bd8835b4U,
  0xbe26f9dd3e2a2a19U, 0x3e1de078be094deeU, 0xbddeac36be24f20aU, 0x3dbcc15b3e1714eeU,
  0xbdb5b877bcf7e1a4U, 0xbeb167193e808c6bU, 0xbda7f7c5bc25e12bU, 0xbcbeb862be4ee386U,
  0x3d676b943cbd3759U, 0x3c7b3d943eb457f8U, 0x3b49f746be30896cU, 0x3d34f2963cc552d7U,
  0xbd8a2290be3bc529U, 0x3e0a99c53e2007a8U, 0xbe3a79373e876816U, 0x3e36c89a3e3c22faU,
  0xbcc304ce3dbad201U, 0xbcac5648beaa3059U, 0x3e01c5ad3e12d6acU, 0x3da45d81be8a740cU,
  0x3df057edbea47e2dU, 0x3dab34fc3d3b6c6bU, 0x3cda67e83e9da180U, 0xbd0469c03b0a0a0bU,
  0xbe219472be247d10U, 0xbe31eafc3e51c8a9U, 0x3e23769c3d5ecdc4U, 0xbda68e463d0f0427U,
  0xbe6f426f3d98cc2dU, 0x3d864ebcbe83ac84U, 0xbec649843ded5c2dU, 0xbcc26bd43e0ff3caU,
  0xbea6f84e3ebbfcbdU, 0xbe35abfb3d6e638aU, 0xbed53fcfbd898b21U, 0xbdb100b8bd6beedaU,
  0xbe88d93bbe445b0aU, 0x3d11bdb83e665717U, 0xbe21119bbe023279U, 0x3e26bc79be29ec86U,
  0x3ea00e6d3e511807U, 0x3d23c957be3b97c3U, 0x3ca15b7a3df2f6daU, 0xbbd8c847bd737944U,
  0xbe1a951ebdd39fb4U, 0x3c244cf8bdf83681U, 0x3da0ff143edfbfdaU, 0x3dddf8123d4e7fc9U,
  0xbe35a00f3e1e14ceU, 0x3da91421be1e313cU, 0x3db571d2bd236442U, 0x3e063efc3eba142eU,
  0xbe980e683eef321dU, 0x3cca25a9bedd9992U, 0xbe89173b3e2c38b2U, 0xbdc5adbb3dfca77eU,
  0xbe0c561d3e5928f3U, 0xbd81dd6c3e3de518U, 0xbb3d63bdbe4fe3eeU, 0xbd3903fa3d06ad4dU,
  0xbe855ba8be3531e3U, 0xbbf898333e0120f0U, 0xbd7d781c3d041e2bU, 0x3bfeb5ef3eccce21U,
  0xbdf662dbbd540b4eU, 0x3b9e213f3e3697a3U, 0xbd6bb4a83ea65c08U, 0xbd4ef826be5f64adU,
  0xbe2aa3863c524ef8U, 0xbd49029c3e183692U, 0xbd380f4f3e9dd367U, 0x3d9886d0be179970U,
  0xbe232d0c3dc0d7e8U, 0x3e77a90e3ceb09fcU, 0xbdd0b7b1bd8d28f4U, 0xbd915390bb9a648eU,
  0xbdc56ef93ea08c06U, 0xbe6c5c0c3c20735dU, 0x3e42c29f3ebac30dU, 0xbc13169fbea639c3U,
  0x3c0893343d4d2bbaU, 0x3e55ff493e136fc8U, 0xbe2807e73dae6ab1U, 0xbd8e7dd9beed3ef4U,
  0xbd4cc610be8e176eU, 0x3e0e73dd3e087610U, 0xbddd9cfe3db205a9U, 0xbe5078e93e3f34caU,
  0xbe645859bd58cfa4U, 0xbeb369393e3a70f8U, 0x3e4ee1ff3e924741U, 0xbe516b54bd8eee70U,
  0x3d8fada8bec04b10U, 0x3e94fc0f3dc0bcbbU, 0xbdec3050bda27953U, 0x3dac1c60be5dbf4fU,
  0x3e30f582bdb1146cU, 0x3e44bca8be817db4U, 0x3e278ed73dbbe58bU, 0x3dcac11abdad0b7bU,
  0xbd7908323de06591U, 0xbe4986383dc18568U, 0x3e35a5b33e0ecb4eU, 0xbcc75b42be9f11c9U,
  0xbe8e69f83ea1b42cU, 0x3d9b8a6e3e0bbcecU, 0xbece7884bd17aad7U, 0xbd655af43c193d02U,
  0xbe0bc9573e04553aU, 0x3e1efd573d3ca9f1U, 0x3d5c7a633df3121fU, 0xbeb6a5dc3eb7985dU,
  0xbcad58b33d5ed838U, 0xbe5a461ebe22a2dfU, 0xbf933567bfc03450U, 0xbea347783e1cc973U,
  0xbee230f1bf984cb4U, 0x3f4199ab3e4e7e4aU, 0xbebd2e6ebece4756U, 0xbf0f9ce0bebb58b4U,
  0xbf8a2da93f0be31eU, 0x3e6dd46b3f21dc99U, 0xbf6bbf78bfb71675U, 0xbf155bfcbebe37f4U,
  0x3eee5f8abe5029baU, 0x3f29a0403f10fc06U, 0xbdc38f823e079012U, 0xbe2be1e9be5f6bb7U,
  0xbd0c28303e435c09U, 0xbe906397bde5135bU, 0xbe3273523e2dbd87U, 0x3e89a7193d843d05U,
  0x3e65765d3dee4fcbU, 0xbdf7490fbea1e969U, 0x3e13e70fbcc6ad28U, 0xbe4570143cf8b7b8U,
  0xbd29daa13e25209dU, 0xbdd856bebe6af4f8U, 0x3d3640a1be6f3959U, 0xbe58c6d33e668609U,
  0xbd8523673e494c43U, 0xbd0884fe3e7711ffU, 0x3e017ea9be877891U, 0x3d3da5d1be8bf8c1U,
  0xbe707378be8fda47U, 0xbe14ed6b3e072654U, 0xbd9bf7aabe5c489dU, 0xbde549b5be243d93U,
  0xbc3872df3e458b52U, 0x3e8600423e9056ebU, 0x3e678d66bdbe2f9fU, 0xbe0b7546be5bde37U,
  0x3e7518bbbdcf933bU, 0xbe61412e3df40bc0U, 0x3e3815d1bda86b39U, 0x3e41b5983e7c9b0fU,
  0x3e540c54bd85155dU, 0x3e2e1dc0be75dfedU, 0xbea640113e72fe49U, 0xbe32ab5e3e81be3cU,
  0x3e0142ddbdbee21eU, 0xbdd65f9a3dfc2a36U, 0xbe967bac3e4d7659U, 0xbe186a8cbddbac3eU,
  0xbde06337be004118U, 0x3d342d75be50cc45U, 0xbd839b27be517ad1U, 0x3d100f68bdbba688U,
  0xbe9d0ceb3d6287f6U, 0x3e61ac67bdd1f068U, 0xbe1c27a83d8c1c86U, 0x3e4a0eb3be1bd1ceU,
  0xbe8aab533e1080efU, 0x3e8b27213e4c303fU, 0xbe6559ad3e76639dU, 0x3e684becbd5f49baU,
  0xbd75f2203dbfb4e7U, 0x3e1da6e93e51399bU, 0x3d9bd799be80f6a7U, 0xbc52f774bdebebb4U,
  0x3d9e14debe38d119U, 0xbd309939bd248ef2U, 0xbd83ae0ebdc51e13U, 0xbcb3368dbe0c7e1bU,
  0x3e54d15bbd0e216fU, 0xbe8019b5be516f95U, 0x3d804178be81cfb0U, 0x3e89111ebe5e9ebfU,
  0x3e5310d5U,
};


ai_buffer g_model_data_map_activations[AI_MODEL_DATA_ACTIVATIONS_COUNT] = {
  AI_BUFFER_INIT(AI_FLAG_NONE,  AI_BUFFER_FORMAT_U8,
    AI_BUFFER_SHAPE_INIT(AI_SHAPE_BCWH, 4, 1, 12624, 1, 1),
    12624, NULL, NULL),    /* heap_overlay_pool */
  };
ai_buffer g_model_data_map_weights[AI_MODEL_DATA_WEIGHTS_COUNT] = {
  AI_BUFFER_INIT(AI_FLAG_NONE,  AI_BUFFER_FORMAT_U8,
    AI_BUFFER_SHAPE_INIT(AI_SHAPE_BCWH, 4, 1, 13604, 1, 1),
    13604, NULL, s_model_model_weights_array_u64),   /* model_weights_array */
  };


/*!
 * @brief Get network activations buffer initialized struct.
 * @ingroup model_data
 * @param[in] ptr a pointer to the activations array storage area
 * @return an ai_buffer initialized struct
 */
AI_DEPRECATED
AI_API_ENTRY
ai_buffer ai_model_data_activations_buffer_get(const ai_handle ptr)
{
  ai_buffer buf = AI_BUFFER_INIT(
    AI_FLAG_NONE, AI_BUFFER_FORMAT_U8,
    AI_BUFFER_SHAPE_INIT(AI_SHAPE_BCWH, 4, 1, AI_MODEL_DATA_ACTIVATIONS_SIZE, 1, AI_MODEL_DATA_ACTIVATIONS_COUNT),
    AI_MODEL_DATA_ACTIVATIONS_SIZE,
    NULL, ptr);
  return buf;
}

/*!
 * @brief Get network weights buffer initialized struct.
 * @ingroup model_data
 * @param[in] ptr a pointer to the weights array storage area
 * @return an ai_buffer initialized struct
 */
AI_DEPRECATED
AI_API_ENTRY
ai_buffer ai_model_data_weights_buffer_get(const ai_handle ptr)
{
  ai_buffer buf = AI_BUFFER_INIT(
    AI_FLAG_NONE, AI_BUFFER_FORMAT_U8|AI_BUFFER_FMT_FLAG_CONST,
    AI_BUFFER_SHAPE_INIT(AI_SHAPE_BCWH, 4, 1, AI_MODEL_DATA_WEIGHTS_SIZE, 1, AI_MODEL_DATA_WEIGHTS_COUNT),
    AI_MODEL_DATA_WEIGHTS_SIZE,
    NULL, ptr);
  return buf;
}


/*!
 * @brief Get network weights array pointer as a handle ptr.
 * @ingroup model_data
 * @return a ai_handle pointer to the weights array
 */
AI_DEPRECATED
AI_API_ENTRY
ai_handle ai_model_data_weights_get(void)
{
  static const ai_u8* const s_model_weights_table[1 + 2] = {
    AI_PTR(AI_MAGIC_MARKER),
    AI_PTR(s_model_model_weights_array_u64),
    AI_PTR(AI_MAGIC_MARKER)
  };

  return AI_HANDLE_PTR(s_model_weights_table);

}


/*!
 * @brief Get network params configuration data structure.
 * @ingroup model_data
 * @return true if a valid configuration is present, false otherwise
 */
AI_API_ENTRY
ai_bool ai_model_data_params_get(ai_network_params* params)
{
  if (!params) return false;
  
  const ai_buffer_array map_activations = 
    AI_BUFFER_ARRAY_OBJ_INIT(AI_FLAG_NONE, AI_MODEL_DATA_ACTIVATIONS_COUNT, g_model_data_map_activations);
  
  const ai_buffer_array map_weights = 
    AI_BUFFER_ARRAY_OBJ_INIT(AI_FLAG_NONE, AI_MODEL_DATA_WEIGHTS_COUNT, g_model_data_map_weights);

  return ai_platform_bind_network_params(params, &map_weights, &map_activations);
}


AI_API_DECLARE_END
